<pad>	0
<s>	0
</s>	0
<unk>	0
<sep>	0
▁	-1.71423
.	-2.53345
가	-4.46554
요	-4.48888
?	-4.54542
을	-4.60766
도	-4.75565
이	-4.86596
게	-4.88922
는	-4.99988
고	-5.11213
은	-5.12595
▁거예요	-5.13975
지	-5.28477
를	-5.33015
보세요	-5.36717
▁수	-5.49747
의	-5.56563
네요	-5.61493
▁너무	-5.61871
서	-5.68959
세요	-5.69279
▁좋아하는	-5.70292
▁더	-5.73038
▁잘	-5.76953
▁거	-5.79238
▁사람	-5.8045
에	-5.81506
▁안	-5.84044
한	-5.85213
▁것	-5.87895
면	-5.97406
▁사랑	-6.00344
▁좋은	-6.02959
해보세요	-6.0397
죠	-6.08076
▁나	-6.0812
▁많이	-6.08304
만	-6.11558
히	-6.12449
봐요	-6.15404
▁그	-6.20685
▁같아요	-6.22189
▁좀	-6.2227
랑	-6.23123
나	-6.24011
▁사람이	-6.24412
으로	-6.2576
▁있을	-6.26498
▁있어요	-6.28659
▁싶어	-6.29979
로	-6.30079
▁생각	-6.31091
길	-6.31717
하고	-6.3204
▁없어	-6.32734
▁마음	-6.34354
▁이별	-6.35836
▁썸	-6.40213
▁때	-6.41916
▁내	-6.43389
▁말	-6.43975
▁같아	-6.45081
!	-6.46601
할	-6.49988
다	-6.52284
▁마세요	-6.57916
네	-6.59633
▁오늘	-6.60836
▁다	-6.62176
▁건	-6.62386
▁이제	-6.63452
으면	-6.66314
▁마음이	-6.66393
는데	-6.66457
▁내가	-6.69004
▁있는	-6.69025
▁있	-6.6991
▁왜	-6.70445
데	-6.71465
이에요	-6.73476
▁남자친구	-6.75096
일	-6.75529
▁여자친구	-6.76018
▁어떻게	-6.76473
에서	-6.77429
하는	-6.77633
▁다른	-6.78578
▁싶다	-6.78675
▁연락	-6.82042
▁저	-6.82679
▁시간이	-6.85609
하세요	-6.85741
▁정말	-6.86054
▁뭐	-6.8688
▁또	-6.87051
어	-6.87238
▁다시	-6.87286
▁바	-6.87856
▁있어	-6.89191
겠어요	-6.91379
▁좋아	-6.91833
▁좋을	-6.92425
▁연애	-6.92878
기	-6.94002
니다	-6.94437
▁않아	-6.95172
▁게	-6.95506
▁친구	-6.96505
▁수도	-6.98518
▁못	-6.99195
야	-6.99225
하지	-7.01047
▁걸	-7.01647
▁지금	-7.02716
▁하는	-7.036
해	-7.03874
▁같이	-7.04777
▁조금	-7.054
▁자신	-7.05974
▁여자	-7.05986
▁될	-7.06179
▁아니	-7.07171
인데	-7.07331
▁것도	-7.07948
▁해보세요	-7.08164
▁그런	-7.08586
▁남자	-7.10731
가봐요	-7.11139
▁당신	-7.11826
▁일	-7.11993
에요	-7.12249
과	-7.13901
거예요	-7.15818
년	-7.16318
▁해	-7.16557
▁자꾸	-7.16744
▁시간	-7.17455
거	-7.19067
든	-7.20105
▁혼자	-7.20257
인	-7.20689
▁먼저	-7.20922
한테	-7.21613
▁일이	-7.22154
▁없는	-7.22238
▁바랄게요	-7.22562
▁힘들	-7.24559
▁진짜	-7.25113
▁힘든	-7.26213
하면	-7.26322
▁하나	-7.26457
▁돼요	-7.27128
▁헤어진지	-7.27554
▁저도	-7.28152
▁제가	-7.2827
▁있을까	-7.3069
▁만나	-7.30885
▁선물	-7.31408
▁살	-7.32751
▁할	-7.33035
▁그럴	-7.33835
어요	-7.33901
하게	-7.34342
▁계속	-7.34459
보다	-7.34906
▁좋아요	-7.35328
니까	-7.35939
▁될까	-7.36758
▁한	-7.37204
주세요	-7.373
▁짝녀	-7.37839
랍	-7.37914
라	-7.38262
상	-7.38855
라고	-7.39767
운	-7.39834
▁사랑이	-7.40546
나를	-7.4075
▁힘들어	-7.40894
에게	-7.40908
▁하고	-7.41376
▁전	-7.42361
까	-7.42974
▁서로	-7.43814
▁먹고	-7.44128
해도	-7.44176
봅니다	-7.4543
▁방법	-7.45817
▁좋죠	-7.46177
▁눈	-7.46835
▁드세요	-7.47107
▁짝사랑	-7.47136
▁참	-7.47935
▁술	-7.48481
▁이야기	-7.50637
▁몰라	-7.50956
와	-7.51287
▁들어	-7.51556
▁결혼	-7.51921
▁그렇	-7.52346
▁준비	-7.52748
▁아직	-7.5312
,	-7.53986
씩	-7.53986
했어	-7.54021
던	-7.54082
지만	-7.54188
▁아무	-7.55308
해주세요	-7.55862
▁말해보세요	-7.55866
▁애	-7.56626
▁많은	-7.57094
▁생각해요	-7.57289
▁데이트	-7.57443
지도	-7.57684
▁중	-7.58082
▁충분	-7.58176
수	-7.58978
▁생각해	-7.593
▁짝남이	-7.59607
▁없	-7.60376
▁날	-7.60495
▁있나	-7.60509
합니다	-7.62062
▁보고	-7.63174
▁좋겠어요	-7.63352
▁너	-7.64042
▁무슨	-7.64071
래	-7.64878
▁않	-7.66094
▁어떤	-7.66447
자	-7.66927
▁이렇게	-7.67087
▁그냥	-7.67128
▁나만	-7.67459
▁친구가	-7.6778
▁싫어	-7.67862
▁사랑하는	-7.68377
▁힘드네	-7.68505
해요	-7.6858
▁함께	-7.69046
▁돈	-7.6905
▁타는	-7.69422
▁알	-7.69599
진	-7.69883
까지	-7.7042
▁카톡	-7.70434
▁하루	-7.70622
다고	-7.70804
▁대화	-7.71225
▁할까	-7.71228
▁줄	-7.71408
▁짝남	-7.71434
▁관심	-7.7144
질	-7.72095
대로	-7.72096
니	-7.72618
▁하지	-7.72741
▁오래	-7.73016
▁머리	-7.73649
나봐	-7.73802
▁하세요	-7.73852
입니다	-7.74581
해서	-7.74582
▁고백	-7.74759
▁1	-7.7509
▁해요	-7.75092
▁공부	-7.75162
▁아	-7.75235
자고	-7.75278
▁고민	-7.75326
▁후	-7.75359
▁2	-7.7548
▁있는데	-7.75604
▁좋겠	-7.75669
대	-7.76339
▁새로운	-7.76953
심	-7.77333
▁어떨까요	-7.78354
▁내일	-7.7842
▁감정	-7.78773
리	-7.79033
▁헤어진	-7.79536
▁않는	-7.79955
예요	-7.80079
▁이유	-7.81073
▁그래	-7.81323
걸	-7.82648
▁찾아	-7.82726
사람은	-7.82974
▁안돼	-7.83056
▁연락이	-7.83168
▁싶은	-7.83494
건	-7.83556
▁생각이	-7.84035
▁3	-7.84197
▁시작	-7.84342
할까	-7.85111
겠죠	-7.85407
▁여행	-7.85573
▁비	-7.85657
▁말고	-7.85658
거라	-7.86615
▁돼	-7.87791
▁많아	-7.88195
차	-7.88625
▁듯	-7.8873
려	-7.88806
▁그녀	-7.89162
▁누구	-7.89186
항	-7.89288
▁후회	-7.89365
▁맘	-7.89721
함	-7.89954
▁마음에	-7.90136
▁사	-7.90326
▁만날	-7.90451
▁제	-7.90476
록	-7.90716
▁끝	-7.9092
▁가고	-7.91147
▁도움	-7.91267
▁하	-7.917
시	-7.92076
점	-7.92248
▁이젠	-7.92254
인지	-7.92588
▁같은데	-7.92642
▁좋겠다	-7.92897
▁운동	-7.93159
부터	-7.94506
▁남	-7.94916
습니다	-7.94967
른	-7.94968
▁쉽지	-7.95304
▁나한테	-7.95631
▁않을	-7.95814
▁때문	-7.95861
▁쉬	-7.95918
▁보	-7.95963
▁따라	-7.95997
▁열	-7.96788
▁올	-7.96943
장	-7.97513
▁곳	-7.97523
▁우리	-7.98337
만큼	-7.98353
▁기억	-7.98448
▁스트레스	-7.98454
▁꿈	-7.99123
는게	-7.99133
긴	-7.99603
하는데	-7.99688
▁바라요	-8.00266
▁언제	-8.00362
▁정리	-8.00443
▁기분	-8.0071
▁모르겠어	-8.00823
▁만큼	-8.01674
봐	-8.02625
▁한달	-8.02845
▁반	-8.03266
▁만들어	-8.03347
▁문제	-8.03706
▁이별을	-8.03932
아	-8.04041
▁전화	-8.05004
▁않았	-8.05546
▁얼	-8.06211
▁꼭	-8.0702
▁어디	-8.07063
▁괜찮아요	-8.07212
▁타	-8.07723
▁직접	-8.08038
▁하면	-8.08116
간	-8.08217
▁같은	-8.08461
▁집	-8.08505
자기	-8.08538
거나	-8.08773
▁좋겠어	-8.09365
▁벌	-8.09407
▁볼	-8.09512
▁없네	-8.0982
주	-8.09853
▁해야	-8.1001
▁요즘	-8.10341
려고	-8.10663
▁기대	-8.10697
▁있죠	-8.11545
드	-8.11916
▁변화	-8.12149
▁해도	-8.12433
▁아파	-8.12461
▁집에	-8.12838
▁중요해	-8.13101
▁결국	-8.13274
▁주세요	-8.1358
▁되는	-8.13768
▁않은	-8.14051
▁가는	-8.1434
▁알아	-8.14457
대한	-8.15039
천	-8.15432
하네	-8.15502
처럼	-8.15767
다면	-8.16363
▁필요해	-8.1647
▁피	-8.17363
하기	-8.17376
▁말아	-8.175
▁큰	-8.17537
▁나는	-8.17639
들	-8.18002
▁마음의	-8.18294
이라	-8.18337
기도	-8.18355
▁아니라	-8.18846
▁모르는	-8.19013
사람을	-8.19418
적인	-8.19429
▁좋아해	-8.19452
▁좋을까	-8.19468
▁믿어	-8.19773
▁연락을	-8.19794
적	-8.19967
▁시간을	-8.20641
▁늦	-8.20666
▁노래	-8.20839
달라고	-8.21289
져	-8.21381
▁아직도	-8.21747
▁나쁜	-8.21751
▁완전	-8.21773
▁자주	-8.21808
이죠	-8.21859
▁오늘도	-8.22069
▁중요한	-8.22133
겠네	-8.22216
하면서	-8.22315
▁없다	-8.22636
▁인생	-8.22764
날	-8.22875
▁싶은데	-8.23044
▁마지막	-8.23207
개월	-8.2357
▁어제	-8.23841
▁모든	-8.23854
▁남자애	-8.23927
마다	-8.24069
▁가장	-8.24078
▁매일	-8.24308
방	-8.24421
▁어때	-8.24764
▁와	-8.24771
▁이런	-8.24933
여	-8.24961
음	-8.25404
때	-8.25483
▁관계	-8.25702
▁나이	-8.26142
▁결정	-8.26249
▁점	-8.26331
▁상처	-8.27075
▁가지	-8.27452
면서	-8.27747
발	-8.2783
▁갑	-8.27908
군요	-8.28168
정	-8.28251
▁아침	-8.28508
▁여친	-8.28973
제일	-8.29041
▁사람들이	-8.2955
▁같애	-8.30201
▁오	-8.3028
▁커피	-8.30492
▁알았는데	-8.30519
▁만나는	-8.30601
▁밥	-8.30799
릴게요	-8.30911
▁잘할	-8.31056
▁마	-8.3109
▁보내	-8.31128
된	-8.31181
▁연락해	-8.31451
▁사진	-8.31509
겠지	-8.3166
러	-8.31855
했던	-8.32313
▁헤어짐	-8.32389
▁어느	-8.32419
▁엄마	-8.32421
▁소개팅	-8.3246
▁썸남	-8.3261
▁현실	-8.32685
▁재회	-8.32994
▁살고	-8.3301
▁기다려	-8.33308
▁오세요	-8.33459
▁얼마	-8.33589
▁되나	-8.33671
이야	-8.34025
▁미련	-8.34109
▁맛있	-8.34679
▁핸드폰	-8.34694
▁덜	-8.3479
▁용기	-8.34795
▁거라	-8.34847
▁정	-8.35009
▁놀	-8.35126
써	-8.35205
▁딱	-8.35479
▁사랑에	-8.35522
며	-8.3642
▁조심하세요	-8.36471
임	-8.36601
▁사는	-8.36957
▁스스로	-8.37019
▁어떡해	-8.37019
▁가끔	-8.37023
▁예의	-8.37329
▁헤어지고	-8.37464
▁진심	-8.37919
마세요	-8.38009
▁몸	-8.38618
▁선택	-8.3864
치	-8.38805
▁인연이	-8.38957
제	-8.39091
▁뭘까	-8.394
▁쉬운	-8.3947
▁가져	-8.39576
▁몇	-8.39652
이나	-8.39817
▁회사	-8.39899
▁보는	-8.39977
금	-8.39985
▁해볼까	-8.40057
▁잘하는	-8.40108
▁상대방	-8.40121
▁사람한테	-8.40403
▁난	-8.40688
냐	-8.40903
▁당신이	-8.41065
찍	-8.41549
▁엄청	-8.41584
▁많았	-8.41638
▁걱정	-8.42122
▁왔어	-8.42207
▁짝남한테	-8.4232
▁말씀	-8.42343
졌어	-8.42515
▁손	-8.42637
▁잠	-8.42679
▁사이	-8.42693
▁없을	-8.42694
했나봐	-8.42867
까요	-8.42954
구	-8.43068
▁기분이	-8.43195
▁정리가	-8.43574
▁했는데	-8.4369
▁5	-8.43772
▁필요	-8.44264
▁남친	-8.44279
하죠	-8.44405
▁물	-8.4455
▁처음	-8.44647
▁한번	-8.4497
줘	-8.45159
▁모두	-8.45221
▁날씨	-8.45222
▁좋아할	-8.45451
▁자	-8.46039
▁물어	-8.46243
▁앞에	-8.46593
▁받아	-8.46797
▁모습	-8.4689
▁필요한	-8.46896
▁싶네	-8.46903
▁확신	-8.46917
▁의미	-8.47001
통	-8.47114
줄	-8.4721
▁빨리	-8.47247
~	-8.47265
▁맞는	-8.47366
더니	-8.47597
▁되	-8.47723
▁후폭풍	-8.47832
▁화	-8.48123
▁아닌	-8.48507
▁바람	-8.48786
▁그만	-8.48931
▁정도	-8.49423
▁잠시	-8.49574
▁있다면	-8.49796
▁행복	-8.49822
▁두	-8.49858
▁만난	-8.50099
▁영화	-8.50267
▁막	-8.50423
▁말이	-8.50481
▁이별이	-8.50501
볼까	-8.50718
었어	-8.50832
▁물어보	-8.51316
▁모르겠어요	-8.51454
▁된	-8.51595
▁사람들	-8.51734
디	-8.51739
트	-8.51824
▁연습	-8.51974
▁잘하고	-8.52282
▁나와	-8.52418
▁괜찮은	-8.52621
야지	-8.5306
달	-8.53383
▁새	-8.53714
▁얼굴	-8.53747
실	-8.53931
▁아픈	-8.54002
▁잔	-8.54314
▁번	-8.5493
▁날이	-8.55295
▁신경	-8.55299
▁천	-8.55334
▁부모님	-8.55633
▁자기	-8.55781
▁추천	-8.55794
▁상대	-8.55871
▁6	-8.55977
신	-8.56126
▁다가가	-8.56225
▁만나고	-8.57259
▁추억	-8.57323
▁생각나	-8.57385
▁갖	-8.58062
▁기다리	-8.58406
지는	-8.58704
▁사세요	-8.58711
▁싶어요	-8.5881
▁4	-8.59114
▁약	-8.59218
▁놀아	-8.59253
▁이상	-8.59267
▁감기	-8.59381
▁안해	-8.5944
듯	-8.5952
것	-8.59599
▁언젠	-8.59632
만에	-8.59941
▁있었나	-8.59994
했어요	-8.6024
▁예뻐	-8.60393
▁걸까	-8.60546
▁자신이	-8.60823
▁것이	-8.60825
▁상황	-8.6091
▁원하는	-8.61011
▁신경쓰지	-8.61122
▁느낌	-8.61218
▁갈	-8.6139
일째	-8.61789
소	-8.61863
▁입	-8.61952
▁무	-8.62059
▁게임	-8.62714
했는데	-8.62716
일까	-8.63007
▁되길	-8.63392
▁물어보는	-8.63446
번	-8.63565
▁아픔	-8.63651
▁차	-8.6368
없이	-8.6377
▁힘이	-8.63844
▁슬픈	-8.63844
▁아닌데	-8.63982
▁좋	-8.64025
▁힘내세요	-8.64069
이랑	-8.64093
▁같네	-8.64132
▁귀	-8.64227
▁않죠	-8.64495
▁바쁘	-8.64568
▁여친이	-8.64574
단	-8.64717
▁사귀고	-8.64886
▁되지	-8.64891
▁고민이	-8.65112
!!	-8.65157
해야	-8.65487
인가	-8.65606
▁예쁘	-8.65609
▁이해	-8.65889
▁만남	-8.65893
▁넘	-8.66353
있는	-8.66878
▁어려워	-8.66971
▁주무	-8.66973
▁자체	-8.67018
텐데	-8.67633
▁만들	-8.68147
▁소리	-8.68154
▁아무것	-8.68387
▁힘들다	-8.68405
▁옷	-8.68607
▁전에	-8.68615
답	-8.68816
▁끝나	-8.68904
▁사귀는	-8.68944
다니	-8.68956
▁여자애	-8.69044
▁호감	-8.6923
내	-8.69332
릴	-8.69625
▁받고	-8.70195
▁나중에	-8.70203
▁즐거	-8.70219
▁소중	-8.70257
▁쓰	-8.70465
▁직장	-8.70509
가서	-8.70588
▁남편이	-8.70646
▁사랑했던	-8.70701
▁궁금해	-8.70704
▁뭐야	-8.70776
▁먹	-8.70796
란	-8.70948
하	-8.70978
째	-8.70992
▁표현	-8.7121
▁그녀를	-8.71311
갈	-8.71808
▁알바	-8.71871
▁부	-8.71886
▁아는	-8.72029
▁학교	-8.72287
거야	-8.72294
▁티	-8.72297
▁차단	-8.72571
▁연락하고	-8.72587
▁꿈에	-8.72742
▁끝이	-8.73214
▁나서	-8.73221
▁썸남이	-8.73302
▁대	-8.7336
▁화장	-8.73589
▁곧	-8.73959
▁합니다	-8.74111
▁있지	-8.74936
▁힘들겠지	-8.75597
▁가기	-8.75843
▁재미	-8.7667
▁힘들게	-8.76903
울	-8.76934
▁싫다	-8.76976
▁먹어야지	-8.77069
▁괜찮을까	-8.77081
▁위해	-8.77141
▁좋아하면	-8.77174
▁건강	-8.77254
▁여유	-8.77432
▁일어나	-8.77525
▁동	-8.77858
▁차이	-8.77872
▁실수	-8.78
▁아프	-8.78091
▁못하겠어	-8.78095
▁타고	-8.7827
사	-8.78313
▁하죠	-8.7855
▁중에	-8.78609
보	-8.78691
보면	-8.79281
▁많아요	-8.79758
▁줘	-8.80093
두	-8.80304
▁힘들지	-8.80318
▁받는	-8.80355
▁생겼	-8.80373
▁맨날	-8.80548
▁드는	-8.80555
▁귀찮아	-8.80571
▁보통	-8.80604
▁만났어	-8.80625
▁작은	-8.80662
▁다음에	-8.80731
▁확실한	-8.80732
▁지켜	-8.80788
▁뿐	-8.81072
▁거죠	-8.81077
▁됐어	-8.8121
▁당	-8.81261
▁첫사랑	-8.8131
▁연인	-8.8168
▁해봐요	-8.81687
▁잠이	-8.81695
▁확인해	-8.82019
▁먹으면	-8.82027
▁그분	-8.82201
▁금	-8.82302
▁행복해	-8.82759
▁세상	-8.82773
▁알게	-8.82848
럽	-8.83139
가면	-8.83539
게요	-8.83823
했으면	-8.83872
이별한	-8.83999
▁챙겨	-8.84045
▁만나지	-8.84154
▁편이	-8.84251
▁바쁜	-8.84258
▁짝녀한테	-8.84576
▁적	-8.84738
▁헤어졌습니다	-8.84752
▁못하는	-8.84857
집	-8.84972
▁좋았	-8.85208
▁따뜻	-8.85332
▁좋아하게	-8.85363
▁잘못	-8.85425
▁하는데	-8.85911
해야지	-8.85961
▁떠나	-8.86137
크	-8.86304
전	-8.87342
▁편하	-8.87352
▁좋아하는데	-8.87383
▁헤어지	-8.87556
▁이별후	-8.87601
▁간다	-8.87688
▁법	-8.8799
▁분위기	-8.88098
▁우산	-8.88102
▁생길	-8.88169
▁자신감	-8.88233
▁모	-8.88267
▁카페	-8.8828
▁고민이야	-8.88294
▁중요하지	-8.88452
▁조	-8.88491
▁잠깐	-8.88606
▁친구한테	-8.88609
애가	-8.88695
감	-8.88773
인가봐	-8.89073
▁맛있는	-8.89139
▁가능	-8.89212
▁미리	-8.89471
▁안되는	-8.89636
다가	-8.89847
▁생각할	-8.89917
린	-8.89925
▁긴	-8.90286
▁좋다	-8.90304
▁다를	-8.90368
걸까	-8.90554
선	-8.90775
▁설레	-8.91143
▁책	-8.91164
▁봐	-8.91241
▁약속	-8.9128
▁코	-8.9136
▁위로	-8.91394
▁전여친	-8.91514
중	-8.91702
▁비싸	-8.91907
▁일을	-8.91913
▁목	-8.92018
▁받을	-8.9202
론	-8.92098
엔	-8.92098
▁종교	-8.92098
▁기회	-8.92103
▁같습니다	-8.9213
▁마시	-8.92148
▁곳이	-8.92482
▁복	-8.92598
▁주	-8.92606
▁보면	-8.92613
▁시험	-8.92622
▁하늘	-8.92626
▁이별의	-8.93121
▁시켜	-8.93181
▁돈이	-8.9333
▁노력	-8.93792
▁글	-8.93799
▁진정	-8.93842
▁알고	-8.94258
▁남자들	-8.94488
▁정신	-8.94515
돼	-8.94597
것도	-8.94637
▁자연스러	-8.9464
▁보지	-8.94659
▁도전	-8.94846
▁기	-8.94992
▁서로에	-8.95032
▁대해	-8.95043
▁밤	-8.95467
▁말해	-8.95649
▁그래요	-8.957
▁들	-8.9591
▁힘들었	-8.95911
▁친구들이	-8.96005
▁관리	-8.96173
▁드디어	-8.96264
▁자존감	-8.96264
가슴이	-8.96264
덧	-8.96264
▁멋진	-8.96275
▁봄	-8.96535
그리고	-8.9688
▁절대	-8.96887
▁아닌지	-8.97096
▁좋겠죠	-8.97105
▁좋지	-8.97169
비	-8.97433
동안	-8.97727
▁살아	-8.97923
▁먹을	-8.97998
▁행동	-8.98276
▁맛	-8.9841
▁내려	-8.98474
나요	-8.98608
▁다르	-8.98636
▁정리하는	-8.98675
▁거짓말	-8.9891
▁그러	-8.9899
▁이제는	-8.99081
▁주는	-8.99149
▁상관	-8.99241
후	-8.99372
▁안녕	-8.99528
▁기다리는	-8.99911
이라면	-8.99985
▁있습니다	-9.00037
▁잊지	-9.00154
▁괜찮	-9.0044
▁남친이	-9.0046
종	-9.00491
▁욕	-9.00545
▁뭔지	-9.00612
▁예쁜	-9.00612
▁알려줘	-9.00622
▁자책하지	-9.00626
▁주변	-9.00636
하려고	-9.00647
고생	-9.00647
▁썸녀	-9.00677
▁받아들이는	-9.00912
더라고요	-9.01143
▁위	-9.01243
▁죽을	-9.01352
▁되네	-9.01633
라면	-9.01637
하다	-9.01649
▁뭐라고	-9.01656
▁인정	-9.01811
▁되어	-9.02302
▁여자애가	-9.02333
▁세상에	-9.02773
▁사랑해	-9.02814
겠어	-9.02918
난	-9.02936
▁사랑하면	-9.03199
▁습관	-9.03252
▁없이	-9.03266
▁잊는	-9.03293
마	-9.03462
▁오는	-9.03629
▁배	-9.03773
▁건지	-9.03962
우	-9.03988
▁능력이	-9.04042
▁개	-9.04079
▁프사	-9.04168
▁가세요	-9.04193
▁사귀	-9.04222
▁매	-9.04285
되면	-9.04304
▁세	-9.04372
▁사랑하고	-9.04442
▁미련이	-9.04681
더라	-9.04776
▁가야	-9.04851
▁짜증나	-9.04879
짝	-9.05008
▁이별에	-9.05009
▁나랑	-9.05012
▁월급	-9.05108
혀	-9.05114
▁둘	-9.05139
▁뭔가	-9.05158
살	-9.05163
▁감	-9.05175
▁떨려	-9.05185
▁고생	-9.05209
▁않는다면	-9.0527
같은	-9.05276
▁살펴	-9.05287
▁인기	-9.05327
▁축하해요	-9.05431
▁아닐까요	-9.05524
▁못해	-9.0572
▁그러면	-9.05833
▁시기	-9.05925
▁눈물	-9.05988
▁연락해도	-9.06087
▁먹는	-9.06326
▁괜찮아	-9.06629
▁말하는	-9.06774
▁이상형	-9.07126
▁파	-9.07364
성	-9.07539
오면	-9.07613
예	-9.07798
▁상담	-9.07816
▁성격이	-9.08039
줬	-9.08344
▁상	-9.08967
▁환승	-9.09088
증	-9.09096
건가	-9.09104
▁별로	-9.09245
▁두려워	-9.09358
▁물어봐	-9.0939
▁폰	-9.09391
할때	-9.09434
림	-9.09632
▁여러	-9.09847
▁편지	-9.0992
▁무서워	-9.09921
▁헤어졌어	-9.09953
▁있잖아	-9.09974
▁사랑한다	-9.10013
▁한동안	-9.10055
▁방법이	-9.10066
▁생기	-9.10098
▁없나	-9.10169
▁순간	-9.10273
▁잊고	-9.10324
▁주면	-9.10406
▁후회하지	-9.10421
▁싸	-9.10584
▁쉬어	-9.10657
▁잊을	-9.10682
▁괜찮을	-9.1111
스	-9.11156
▁경우	-9.11222
▁해보는	-9.11224
▁앞	-9.11257
▁주말	-9.11585
▁썸이	-9.11772
▁전남친	-9.1178
▁좋아하	-9.12167
들이	-9.12436
▁눈에	-9.12526
▁사람에	-9.12544
▁문자	-9.13084
▁두달	-9.13304
▁잊혀지	-9.13403
▁나을	-9.13793
아요	-9.14164
▁간	-9.14187
당히	-9.14241
셔	-9.1439
을까	-9.14589
▁꾸준	-9.14604
칠	-9.14633
▁안하고	-9.14666
보고	-9.14734
▁헷갈리	-9.14804
말	-9.14879
▁비밀	-9.14918
▁받지	-9.1492
▁싶지	-9.1492
▁연예인	-9.1492
▁최선	-9.1492
▁오빠	-9.14921
▁어플	-9.1493
▁어려운	-9.1494
▁적당히	-9.14947
▁원래	-9.14967
▁제대로	-9.15096
▁눈치	-9.15157
▁구	-9.15377
▁일상	-9.15527
▁조언	-9.15585
▁저에게	-9.15603
▁이번	-9.15741
▁자신에게	-9.15803
▁그대로	-9.15843
▁있나요	-9.15855
▁있으니까	-9.15871
▁달라지는	-9.1607
잠을	-9.16074
별	-9.1611
낼	-9.16195
▁사랑할	-9.16222
▁좋아할까	-9.16268
▁되고	-9.16273
▁보이	-9.16364
▁상황이	-9.16554
▁이사	-9.16569
▁것보다	-9.16692
▁쇼핑	-9.16693
▁로맨틱	-9.16815
용	-9.17195
▁끝내	-9.17346
▁친구들	-9.17443
▁뿐이	-9.17556
▁모르	-9.17631
한다면	-9.17794
▁척	-9.1783
했	-9.18004
▁보러	-9.18018
▁생각하는	-9.18073
▁지났네	-9.18235
는건	-9.1843
▁생각만	-9.18512
▁끝을	-9.18543
▁노력하	-9.18575
▁알면	-9.18622
▁성공	-9.18675
▁아프네	-9.18713
▁인사	-9.18767
▁온	-9.18893
▁적극적	-9.18987
▁필요하겠	-9.19071
▁사랑한	-9.19398
▁선	-9.19688
▁되겠	-9.19939
▁느낌이	-9.20007
▁보고싶어	-9.20008
▁종	-9.2016
▁버텨	-9.20183
▁옆에	-9.20183
땐	-9.20183
▁병원	-9.20185
▁질투	-9.20185
▁담배	-9.20186
▁안경	-9.20193
▁용기내	-9.20284
년째	-9.20565
▁누가	-9.2061
▁같	-9.20659
▁후회할	-9.20673
▁않을까요	-9.20864
▁뭐라	-9.20875
▁현상	-9.20876
▁힘내	-9.21046
▁청소	-9.21085
▁행복한	-9.21223
▁별	-9.21421
▁그녀가	-9.21639
왔어	-9.21958
▁탈	-9.22026
▁연락하는	-9.2209
▁인연	-9.22271
▁모르겠네	-9.22686
▁시원	-9.22728
해볼까	-9.23058
시군요	-9.23148
▁감정이	-9.23206
▁버리	-9.23215
▁속이	-9.23283
분	-9.23414
었으면	-9.23526
▁사람과	-9.23717
▁군대	-9.2375
▁자연스	-9.23914
▁가족	-9.23953
▁먹어	-9.24032
▁이해해	-9.24051
겠지만	-9.24073
▁답	-9.2419
겨	-9.24298
▁해결	-9.24574
매	-9.24646
ᅲᅲ	-9.24649
놓고	-9.24782
ᅲ	-9.24865
워	-9.25033
조	-9.25121
▁유	-9.25155
▁장난	-9.25165
▁스킨십	-9.25429
됐어	-9.2543
▁안나	-9.25489
▁최고	-9.25501
▁기다릴	-9.25715
션	-9.25723
케	-9.25729
▁졸업	-9.2573
▁10	-9.25738
▁발표	-9.25739
▁떠난	-9.25769
▁화장실	-9.25771
▁감사	-9.25778
▁음식	-9.25782
▁안들어	-9.25894
▁발전	-9.25925
작	-9.26032
▁헤아리	-9.26087
▁존중	-9.26212
▁졸	-9.26315
▁죽	-9.26398
다는	-9.26409
▁행복하	-9.26432
▁등	-9.26461
▁한잔	-9.26494
▁좋아하나	-9.26512
하니까	-9.26768
▁중인	-9.26777
▁사람에게	-9.26864
▁스타일	-9.27089
▁갈까	-9.27183
▁확실	-9.27206
들을	-9.2728
▁호감이	-9.27447
▁되기	-9.2752
▁받았어	-9.27641
▁하셨	-9.27675
▁놓아주	-9.27753
▁언젠가	-9.28039
▁이상한	-9.28131
▁이야기해	-9.28182
▁다르겠지	-9.28416
▁못하고	-9.28505
▁생겼어	-9.28589
▁웃	-9.28625
야겠다	-9.28743
▁극복	-9.28805
▁재밌	-9.28969
▁그리워	-9.29103
▁연락하면	-9.29497
▁알아보	-9.29956
▁따	-9.30225
▁짝사랑하는	-9.30312
ᅮ	-9.30397
▁속	-9.30413
▁강	-9.30505
밖에	-9.30638
▁마련	-9.30705
식	-9.30764
▁칭찬	-9.30766
▁만남이	-9.31188
▁다음	-9.31296
▁톡	-9.31331
▁본인	-9.31404
▁숨	-9.31497
▁아닐	-9.31534
박	-9.31587
락	-9.31587
▁축하드려요	-9.31621
▁목소리	-9.31622
▁새벽	-9.31623
원	-9.31624
▁바빠	-9.31625
▁소화	-9.31651
▁치과	-9.31658
▁통보	-9.31661
피	-9.31662
▁부담스럽	-9.31662
▁답장	-9.3168
▁휴식	-9.31683
법	-9.31721
▁좋을텐데	-9.31817
▁의사	-9.31908
돈	-9.32018
▁지나갈	-9.32072
겠다	-9.32089
▁무엇이	-9.32202
▁이상해	-9.32243
▁심해	-9.32313
▁선물이	-9.32372
▁슬퍼	-9.32415
냈어	-9.3246
▁마련이	-9.32546
▁눈물이	-9.32663
▁써	-9.32789
▁드시	-9.33247
▁피곤해	-9.33303
▁키	-9.33312
▁것을	-9.33402
▁혼자만	-9.33508
▁주고	-9.33571
▁해주세요	-9.33592
▁이거	-9.33767
▁있고	-9.34135
같아	-9.34217
라는	-9.34252
▁우울	-9.34262
▁분	-9.34334
▁시작이	-9.34371
▁꿈이	-9.34371
▁커플	-9.34384
▁원	-9.34468
▁되었	-9.34477
▁선택일	-9.34617
▁보여	-9.34821
▁위로해	-9.34875
▁중요하	-9.34914
이라는	-9.3505
▁확인	-9.35314
고싶어	-9.35414
▁나가	-9.3545
▁변하	-9.35487
▁얘기	-9.3553
었던	-9.35537
▁상처받	-9.35585
▁부담	-9.35757
▁아이	-9.35964
었나봐	-9.36066
연	-9.36252
보는	-9.36293
▁말씀해	-9.36567
이란	-9.36892
▁나오	-9.37013
▁하다보	-9.3717
▁만나자	-9.37303
▁곳에	-9.37579
▁쓰레기	-9.37795
▁어쩔	-9.37805
▁망	-9.3787
▁SNS	-9.37871
▁다이어트	-9.37871
▁많죠	-9.37871
▁편한	-9.37871
▁편할	-9.37871
▁선톡	-9.37873
▁버스	-9.37876
▁피부	-9.37898
▁없애	-9.37901
▁미래	-9.37915
▁집안일	-9.3792
▁오랜만에	-9.3793
▁괜찮아질	-9.37931
▁좋겠지	-9.37974
▁상사	-9.3798
▁어쩌지	-9.38057
못한	-9.38067
▁필요할	-9.38189
구나	-9.38307
▁소식이	-9.38358
▁살까	-9.38364
▁적어	-9.38404
▁크게	-9.3853
▁상관없	-9.38544
▁여자친구와	-9.3865
야죠	-9.38685
▁취미	-9.38695
▁그대	-9.38712
▁만나면	-9.38789
▁잊어버리	-9.38918
▁생각나네	-9.38985
하거나	-9.39031
▁해줘	-9.39096
▁학원	-9.39098
될	-9.39115
거리	-9.39131
▁어디서	-9.39148
▁없으면	-9.39214
▁보기	-9.39259
▁바보	-9.39268
▁존재	-9.39278
▁배려	-9.39423
▁생일	-9.39494
▁싫은	-9.3952
▁다행	-9.39613
▁아는데	-9.39633
▁못할	-9.3968
새	-9.39728
▁당당하	-9.39984
이면	-9.40216
▁싸우	-9.40394
▁집중	-9.40458
한데	-9.40478
▁그렇지	-9.40634
▁절	-9.40704
▁초	-9.40719
▁쉬는	-9.4081
▁부분	-9.40833
▁꾸	-9.40968
▁신경쓰	-9.41079
▁뒤	-9.41098
▁차분	-9.41173
말고	-9.41214
주는	-9.4124
▁어때요	-9.41486
▁사야	-9.41537
▁됨	-9.41574
▁고민하	-9.41779
▁따로	-9.41798
▁주지	-9.41928
▁추억이	-9.41943
잡고	-9.41962
▁하기	-9.42023
▁솔직하	-9.42175
▁정리하	-9.42247
▁공	-9.42674
▁단	-9.42743
▁과정	-9.42971
▁운명	-9.43006
▁취업	-9.43077
▁듣	-9.43247
▁쓰는	-9.43626
▁썸타는	-9.43962
었는데	-9.43968
▁왔다	-9.44046
▁끝났	-9.44169
▁생각나는	-9.44428
료	-9.44444
▁면접	-9.44537
▁빌려	-9.44537
▁심호흡	-9.44537
▁평소	-9.44537
▁추워	-9.44539
▁분명	-9.44542
▁대학	-9.44545
▁외로워	-9.44545
▁연락처	-9.44565
▁걱정돼	-9.44574
▁결과	-9.44587
▁벗어나	-9.44595
▁떨어졌어	-9.44601
▁만났는데	-9.44667
▁지쳤나	-9.447
▁실감	-9.44703
▁걸어	-9.44729
▁앞으로	-9.44817
▁붙잡고	-9.44833
▁헤어지자고	-9.44972
▁맞춰	-9.45023
▁오해	-9.45205
▁이건	-9.45225
▁있겠지	-9.45298
건지	-9.45335
▁울어	-9.45363
▁8	-9.45415
▁쐬	-9.45415
▁미세먼지	-9.45429
▁동거	-9.45499
▁만드	-9.45505
▁고통	-9.4551
▁재	-9.45534
▁않으면	-9.45558
거같아	-9.45563
▁가능성	-9.45695
▁뭐하지	-9.45739
▁마셔	-9.45848
▁커	-9.45883
▁거울	-9.46104
▁상처를	-9.46177
▁그것	-9.46256
▁밖에	-9.4631
동	-9.46316
약	-9.46412
달째	-9.46439
▁놀고	-9.46444
▁챙겨드	-9.46495
▁사랑해서	-9.46497
▁안와	-9.4659
부	-9.4662
먹기	-9.46705
▁지내	-9.4686
▁빼	-9.46942
▁조절	-9.46958
저	-9.46999
▁적응	-9.47022
▁했습니다	-9.47038
탈	-9.47052
▁미워	-9.4711
▁될까요	-9.47143
▁같다	-9.47166
▁여기	-9.47307
▁장	-9.47322
토	-9.47544
좀	-9.47701
준	-9.47745
▁신	-9.47819
초	-9.47874
글	-9.47924
메	-9.47968
▁인생이	-9.47997
어서	-9.48022
▁도서관	-9.48106
었길	-9.48162
▁떠	-9.48289
▁안하는	-9.48297
▁휴	-9.48668
▁뜻	-9.48683
르	-9.48734
병	-9.48743
▁집에서	-9.48754
▁키우	-9.48781
▁깨	-9.48927
런	-9.49214
▁했어	-9.4928
해줬	-9.49331
▁괜찮아졌	-9.4934
으세요	-9.49374
는거	-9.49629
▁학	-9.49787
▁다행이	-9.49815
쳐	-9.49893
▁영	-9.49902
▁풀어	-9.4994
▁놓	-9.50002
▁후련하	-9.50059
당	-9.50066
▁만났	-9.50317
▁여자들	-9.50356
기는	-9.50416
▁준	-9.5045
▁연락하지	-9.50497
▁미	-9.50577
▁피해	-9.50616
이라고	-9.50673
▁소개	-9.50815
▁지쳐	-9.51058
▁짐	-9.5118
▁않네	-9.51283
께	-9.51673
▁권태기	-9.5168
▁드라마	-9.5168
▁사귈	-9.5168
▁기념일	-9.5168
▁됩니다	-9.5168
▁마스크	-9.5168
▁느려	-9.51681
▁미친	-9.51686
▁자격	-9.51686
▁인형	-9.51691
▁차별	-9.51717
▁은근	-9.51727
▁누군가	-9.5173
▁잡아	-9.51736
▁잡	-9.5176
▁친구들과	-9.51797
▁꿨어	-9.51808
▁과거	-9.5184
▁상상	-9.5188
▁필요하죠	-9.51888
▁드	-9.51895
▁배우	-9.51905
▁걱정하지	-9.51969
▁안됐는데	-9.51971
▁그동안	-9.52037
한다	-9.52123
▁먹을까	-9.52145
▁보고싶다	-9.52303
주가	-9.5248
렸어	-9.52554
▁처음에	-9.52585
▁포기	-9.5264
▁장거리	-9.52642
▁여	-9.52744
▁찾아올	-9.52753
▁되는데	-9.5282
▁달라	-9.52853
▁꿈에서	-9.53009
▁사귀기	-9.53151
▁삭제	-9.53246
▁살아야	-9.53269
▁힘들겠	-9.5328
▁습관이	-9.5343
▁과정이	-9.53469
▁어찌	-9.53524
▁그때	-9.53619
▁무시하	-9.53744
▁직접적	-9.53838
▁결혼식	-9.53842
기만	-9.53851
▁올려	-9.53933
▁휴가	-9.53951
▁발	-9.54034
▁재미있	-9.542
바	-9.54279
▁않으니	-9.54423
▁그사람	-9.54456
▁남기	-9.54457
▁차리	-9.5453
▁그러게	-9.54538
▁볼까	-9.5459
▁우	-9.547
지내고	-9.55181
▁저도요	-9.55223
▁거절	-9.55277
끼	-9.55633
▁들어가	-9.55727
급	-9.5599
▁흘렀네	-9.56065
느라	-9.56077
오세요	-9.56368
▁반대	-9.56459
꺼	-9.56485
▁궁금하네	-9.56534
위	-9.56549
하다가	-9.56686
양	-9.56689
드리	-9.56838
허	-9.56899
두고	-9.5692
따라	-9.57025
개	-9.57031
되	-9.57078
▁잊	-9.57141
▁그랬	-9.57198
왔으면	-9.57766
인듯	-9.57999
▁생각하지	-9.58016
▁것들	-9.58149
▁다리	-9.58163
▁결심	-9.58525
▁친구로	-9.58576
▁이어	-9.58751
▁찾아보	-9.58856
▁조심	-9.59085
▁식	-9.59153
▁살펴보	-9.59154
▁순	-9.59162
▁돌려	-9.59204
님	-9.59283
▁주변에	-9.59329
▁멋있	-9.59329
팅	-9.59333
▁계획	-9.59371
▁많지	-9.59372
▁멈추	-9.59372
▁샀어	-9.59372
▁안타깝	-9.59372
▁편해	-9.59372
▁시계	-9.59375
▁각자	-9.59379
▁온전	-9.59395
▁떨어져	-9.59396
▁이겨내	-9.59399
▁여전	-9.594
▁헤어졌는데	-9.59431
▁떨	-9.59453
▁이성으로	-9.59467
▁좋아해주는	-9.5947
▁관심사	-9.59475
창	-9.59476
▁어떡하지	-9.59521
▁끝난	-9.59535
▁지난	-9.59537
▁친한	-9.59571
▁없겠지	-9.59581
▁인상	-9.59632
▁어울리	-9.59686
년이	-9.59925
▁회사에서	-9.60063
▁번호	-9.60204
▁많은데	-9.60294
▁쓴	-9.60373
▁맞았	-9.60375
▁맞아	-9.60383
▁희망	-9.60403
▁근처	-9.60404
▁저한테	-9.60606
▁기운	-9.60897
▁양	-9.61045
▁자세	-9.61081
▁배우는	-9.61152
▁거겠죠	-9.61165
▁부족한	-9.61166
▁감정에	-9.61279
▁통해	-9.61311
하시	-9.61376
▁명	-9.61402
▁공부하	-9.61484
▁답답해	-9.61521
해줄	-9.61565
▁말할	-9.61583
▁방학이	-9.61776
▁증거	-9.61863
▁무엇	-9.61915
을지도	-9.62024
▁돌	-9.62033
▁됐으면	-9.62175
▁자신만	-9.62245
▁왔는데	-9.62346
▁할텐데	-9.62402
속에서	-9.62437
▁성격	-9.62536
▁심하	-9.62757
▁비교하	-9.62865
하셨	-9.63017
전에	-9.63021
▁결정이었을	-9.63047
▁충전	-9.633
▁힘들었을	-9.63385
▁행복할	-9.6339
▁흐르	-9.63546
▁없지	-9.63561
▁배워	-9.63606
▁있네	-9.63716
▁문득	-9.64035
▁일주일	-9.64156
재	-9.64301
하니	-9.64506
▁미치겠	-9.6469
반	-9.64856
▁놀러	-9.64931
▁내리	-9.64958
▁고백하는	-9.64992
하나	-9.64999
▁않게	-9.65057
나면	-9.65139
터	-9.65156
▁생각하면	-9.65322
▁사고	-9.65539
▁싸우면	-9.65605
▁어렵	-9.65787
▁듣고	-9.65788
▁부모님이	-9.65826
리는	-9.65834
▁간절	-9.65905
만으로	-9.65955
▁돌아가	-9.66046
이별	-9.66096
김	-9.6611
▁짝사랑이	-9.66127
▁클럽	-9.66162
움	-9.66355
▁안돼요	-9.66418
▁했나	-9.66475
▁걱정이	-9.66489
산	-9.66531
▁부러워	-9.66544
▁모아	-9.66545
▁건강에	-9.66694
▁드네	-9.66724
하고싶어	-9.66776
줄까	-9.66832
결	-9.66849
▁한달이	-9.66944
또	-9.66953
배	-9.67052
티	-9.67057
▁사이에	-9.67059
▁거니	-9.673
▁잊어	-9.67365
▁준비하	-9.67483
▁남을	-9.67491
▁몰랐	-9.67538
▁판단	-9.67578
▁무서운	-9.67669
▁완벽	-9.67672
▁가벼	-9.67695
▁잘해줘	-9.67704
▁오랫	-9.67706
링	-9.67706
ᄏ	-9.67706
▁기분전환	-9.67706
▁설렘	-9.67706
▁짧은	-9.67706
곰	-9.67706
콩	-9.67706
▁냉장고	-9.67706
▁현재	-9.67706
▁스키	-9.67707
▁이겨낼	-9.67708
▁축구	-9.67709
▁귀여워	-9.6771
▁진급	-9.67715
▁불러	-9.67718
▁응원합니다	-9.67723
▁전환	-9.67724
됐는데	-9.67728
▁언제쯤	-9.67729
▁혹시	-9.67729
지지	-9.6774
차근	-9.67752
▁남겨	-9.67765
▁집들이	-9.67772
▁부럽네요	-9.67782
▁사용	-9.67782
▁막말	-9.67785
▁인간	-9.67799
▁채워	-9.67804
▁사소	-9.67832
▁잠수	-9.67889
▁기본	-9.68029
▁습관이에요	-9.68044
▁똑같은	-9.6806
▁최고죠	-9.68068
▁접	-9.68085
▁지금처럼	-9.68129
되는데	-9.68167
만나기로	-9.68168
▁노력하는	-9.6824
▁새로	-9.68292
▁깊은	-9.6832
▁좋지만	-9.68344
▁크리스마스	-9.68494
▁독	-9.68667
▁전부	-9.68687
줬어	-9.68697
▁시어머니	-9.68836
▁말투	-9.68875
▁부러워요	-9.68884
오	-9.69041
▁행복하게	-9.69094
▁순간이	-9.69168
▁가사	-9.6919
▁안전	-9.69348
▁더워	-9.6935
▁사귀어	-9.69553
▁알려주	-9.69678
▁깊	-9.69708
▁살기	-9.69837
▁성공하	-9.69873
하던	-9.69987
▁생겼네	-9.70078
▁있을거예요	-9.702
했네	-9.70321
▁이혼	-9.70413
▁너무나	-9.70623
어도	-9.70682
▁들었어	-9.70964
▁헤어져야	-9.70968
▁찾아가	-9.7112
▁지나가	-9.71189
▁안되	-9.71283
▁복잡하	-9.71286
▁지나갔	-9.71426
▁않나	-9.71639
▁떨리	-9.7164
▁표현해	-9.71688
▁분이	-9.71919
▁있겠죠	-9.71935
▁슬프	-9.71954
▁사실	-9.72012
▁거야	-9.72069
▁타이밍이	-9.72384
▁타다	-9.72538
▁집착	-9.72899
▁반지	-9.72904
▁이용	-9.72915
▁있기	-9.73156
▁갔	-9.73275
▁남들	-9.73454
▁선생님	-9.73772
▁데려다	-9.7381
듯이	-9.73862
▁방학	-9.73918
▁추천해	-9.74183
▁참아	-9.74288
▁개인	-9.74303
▁마주치	-9.74481
형	-9.74521
▁표현이	-9.74987
셨나봐	-9.75079
체	-9.75129
시간	-9.75222
안	-9.75323
▁내는	-9.75391
▁많을	-9.75423
▁바다	-9.75463
▁취	-9.75741
▁음악	-9.75787
▁생각에	-9.76046
▁마무리	-9.76047
화	-9.7619
▁가능할	-9.76262
▁피곤한	-9.76453
▁입어	-9.76469
▁본	-9.76555
문	-9.76559
▁괴롭	-9.76606
플	-9.76611
콜	-9.76755
곤	-9.76763
숙	-9.76767
▁아름다	-9.76786
릿	-9.76795
▁페북	-9.76797
▁평생	-9.76797
▁이별통보	-9.76797
▁인정받	-9.76797
▁하루하루	-9.76797
닉	-9.76797
▁조급해	-9.76797
▁외롭	-9.76798
▁맥주	-9.76798
▁고마워	-9.768
▁아빠	-9.768
▁빠르	-9.76801
▁태어난	-9.76802
▁그리움	-9.76808
▁멋져	-9.76812
▁싸워	-9.76816
▁골라	-9.76819
▁진실	-9.76825
▁달달	-9.7683
▁비가	-9.76835
▁경쟁	-9.76893
▁허리	-9.76898
▁기간	-9.7692
짐	-9.76929
▁지칠	-9.76973
드려	-9.76986
▁외로	-9.7706
▁없겠네	-9.77073
학	-9.77084
▁차라	-9.77088
▁과일	-9.77092
▁즐기세요	-9.77092
▁걸릴	-9.77097
▁예민한	-9.77122
▁받으면	-9.7716
남	-9.77178
▁나왔어	-9.77324
▁시작해	-9.77325
▁올라	-9.77346
▁건가	-9.77351
을텐데	-9.77398
▁봄이	-9.774
▁글로	-9.77549
▁사과	-9.77599
▁회사에	-9.77679
▁중간	-9.77791
폰	-9.77834
▁의심	-9.77864
▁찍	-9.77949
코	-9.77984
▁이불	-9.7801
혼자	-9.78017
▁9	-9.78022
▁느끼는	-9.78023
▁sns	-9.78035
▁전공	-9.78056
▁두번	-9.78097
▁바꾸	-9.78114
2	-9.78115
▁없어서	-9.78127
▁극복할	-9.78167
▁선택이	-9.78206
▁아니야	-9.78219
남자	-9.78225
▁출근	-9.78228
▁사귄	-9.78477
친	-9.78504
▁믿음이	-9.78524
▁둘이	-9.78537
▁말까	-9.78571
하러	-9.78747
▁귀엽	-9.7903
▁늘어	-9.79116
▁주말이	-9.79142
▁용	-9.79196
▁헤어지면	-9.7922
▁생활	-9.79256
▁헤어지는	-9.79414
▁바라	-9.7947
▁지우	-9.79488
▁있다	-9.79623
▁됐네	-9.79657
▁맘에	-9.7974
▁쉬어가	-9.79753
▁야근	-9.79823
▁늦은	-9.79838
▁소	-9.80026
▁넌	-9.80164
▁어린	-9.8017
▁철	-9.80173
▁있다는	-9.80335
▁유지하	-9.80356
▁환승이별	-9.80369
▁자리	-9.80593
▁해주는	-9.80719
▁중요	-9.80745
▁가능하	-9.80767
야하나	-9.80941
▁취해	-9.80952
▁생각이에요	-9.81385
▁무시	-9.81452
▁스	-9.81546
▁사람들에	-9.81594
으	-9.81691
▁알려	-9.81721
▁계	-9.81858
▁몸에	-9.81933
▁궁금	-9.82029
▁달	-9.82165
▁부분이	-9.82193
▁기다리면	-9.82221
▁널	-9.82397
도시	-9.82548
거죠	-9.8264
▁사정	-9.83188
▁이름이	-9.83267
▁연	-9.83385
▁했던	-9.83425
▁있겠	-9.83446
때도	-9.83531
▁했으면	-9.83741
▁매력	-9.8378
▁나올	-9.83836
일이	-9.84223
▁갔다	-9.84647
하지만	-9.84685
였어	-9.84717
▁꿀	-9.84743
▁돌아	-9.84754
▁잊으	-9.84874
▁믿음	-9.84921
▁생긴	-9.85015
▁다녀	-9.85051
▁있으니	-9.85166
봐도	-9.85181
다가도	-9.85296
파	-9.85343
▁남편	-9.85361
▁노력해	-9.85369
년간	-9.85722
▁전해	-9.85802
▁피하	-9.85872
▁긍정적	-9.85878
력	-9.85903
치고	-9.85946
▁담	-9.86041
▁않을까	-9.86177
▁공감	-9.86434
▁썸인	-9.86476
레	-9.86571
▁역시	-9.86578
▁많으	-9.86598
▁당연	-9.86726
염	-9.86796
▁곁에	-9.86797
▁공무원	-9.86797
▁딸기	-9.86797
▁받은	-9.86797
▁스트레칭	-9.86797
▁싶습니다	-9.86797
▁아무렇지	-9.86797
▁청첩장	-9.86797
껏	-9.86797
▁아까워	-9.86797
▁억지로	-9.86797
▁휴대폰	-9.86797
▁강렬	-9.86797
▁달콤	-9.86797
▁심경	-9.86797
▁허전하	-9.86798
▁목표	-9.86799
▁보험	-9.86799
▁회식	-9.868
▁답답한	-9.868
▁앞머리	-9.86801
▁애교	-9.86801
▁통화	-9.86801
▁배고파	-9.86802
▁대출	-9.86819
▁맛집	-9.86835
▁힘든가봅니다	-9.8685
▁필요하다면	-9.86851
▁맞는걸까	-9.86853
▁향수	-9.86856
▁다녀오세요	-9.86865
▁행운	-9.86908
▁솔직한	-9.86933
▁고백했는데	-9.86948
▁부자	-9.86967
▁우연히	-9.86979
▁않겠지만	-9.86981
▁긴장	-9.86999
추	-9.86999
▁헤어질	-9.87023
본	-9.87036
▁먼지	-9.8705
▁챙겨주	-9.87071
▁이러지	-9.87108
▁그저	-9.8713
▁나쁘지	-9.87187
▁달리	-9.87196
▁아프다	-9.87257
▁들어와	-9.87385
▁주말에	-9.87462
▁표현하는	-9.87626
▁고백해도	-9.87674
▁봐도	-9.8783
▁일하는	-9.8789
▁사랑했나봐	-9.87911
▁잊기	-9.87912
타	-9.87916
▁지워	-9.88032
▁가능할까	-9.88132
▁맛난	-9.88168
▁소비	-9.88208
▁심한	-9.88239
▁연애에	-9.88258
▁신나	-9.88259
▁어서	-9.88337
▁마셔야	-9.88354
▁동물	-9.88484
각	-9.885
▁애들	-9.8851
▁나을까	-9.88538
▁흔적	-9.88582
▁생각했나봐	-9.88726
▁당황	-9.88884
▁맘이	-9.88947
▁찍어	-9.89031
▁경험이	-9.89045
짓	-9.89107
▁잘못인	-9.8915
▁지나	-9.89158
▁남사친이	-9.89194
되는	-9.89251
▁남자한테	-9.89429
▁남았	-9.89438
버리	-9.89444
▁청	-9.89463
▁되었나	-9.89501
▁빠지	-9.89748
▁뿌	-9.89774
▁이해해주	-9.89814
▁허	-9.89838
▁보니	-9.89918
▁바라는	-9.89982
▁가족이	-9.90077
▁지치	-9.90121
▁남자랑	-9.90184
▁선생님이	-9.90249
▁노	-9.90371
▁고쳐	-9.90506
▁나에게	-9.90512
▁입을	-9.90531
방법	-9.9056
맛	-9.90577
▁노래방	-9.90712
▁능력	-9.90768
▁후에	-9.90836
물	-9.91098
▁생	-9.91157
봤	-9.91209
▁자신에	-9.91331
▁나온	-9.91476
어보세요	-9.91871
▁상대에	-9.91909
▁잊으려	-9.91974
▁놀이	-9.91985
▁있었을	-9.92333
▁먹으	-9.92337
▁이유는	-9.92488
먹고	-9.92516
오네	-9.92917
들고	-9.92942
▁슬	-9.93017
▁재미있어	-9.93033
▁계절이	-9.93105
▁이상형이	-9.93137
▁두고	-9.93309
▁신고하	-9.9353
▁생각한	-9.9355
보내는	-9.93595
▁온다	-9.93598
▁향	-9.93682
스러운	-9.93715
▁다가가는	-9.93863
▁불행	-9.93937
▁시	-9.94194
▁읽어	-9.94207
▁터	-9.9438
▁왔네	-9.94452
▁수다	-9.94525
▁흔들리	-9.94565
▁짓	-9.9475
지면	-9.94944
▁문	-9.94948
잖아	-9.94979
▁끝일	-9.95418
▁태도	-9.95443
▁실망	-9.95613
▁선배	-9.95636
▁나타	-9.95833
웠	-9.95877
▁길어	-9.95955
▁까먹	-9.96188
▁취향	-9.96193
녀	-9.96225
▁최악	-9.96415
▁싫어하는	-9.96621
▁재밌는	-9.96696
▁냄새	-9.96821
▁답이	-9.96823
▁소원	-9.97009
으니까	-9.97158
관	-9.97171
능	-9.97223
▁자유	-9.97266
▁일부	-9.97435
▁견뎌	-9.97484
▁기본이	-9.97509
▁무섭	-9.97554
할수	-9.9758
▁맞을	-9.97611
세	-9.97662
사람	-9.97895
▁공통	-9.97906
▁30	-9.97908
▁많다	-9.97908
▁밝혀	-9.97908
▁빼빼로	-9.97908
▁삼겹살	-9.97908
▁웬수	-9.97908
▁자존심	-9.97908
▁최근	-9.97908
▁콩깍지	-9.97908
왤	-9.97908
팍	-9.97908
▁핑계	-9.97908
▁악몽	-9.97908
▁외모	-9.97908
▁염색	-9.97908
▁우선순위	-9.97909
▁위로봇	-9.97909
▁깨끗	-9.97909
▁업무	-9.9791
▁명절	-9.97911
▁성향	-9.97911
▁한숨	-9.97918
▁특별	-9.97919
▁생겨	-9.97919
▁에휴	-9.9792
테리	-9.97921
▁버릴	-9.97922
▁노후	-9.97923
▁일어났	-9.97924
▁영화관	-9.9793
▁단단	-9.97932
교통	-9.97936
▁보일러	-9.97937
▁이미	-9.9794
▁간접적	-9.97949
▁인내	-9.97958
▁언니	-9.9796
더라구	-9.97967
▁이직	-9.97969
▁지갑	-9.9797
▁기원	-9.97973
▁다음부터	-9.97981
▁달라진	-9.97983
유증	-9.97987
▁외로움	-9.97995
▁되었습니다	-9.98001
▁비난	-9.98018
▁좋으면	-9.98022
▁부드	-9.98027
▁여름	-9.98104
▁거기까지인	-9.98105
▁고맙다	-9.98106
▁별거	-9.98107
▁안되네	-9.9811
▁나아질	-9.98141
▁움직이	-9.98148
▁줄여	-9.98188
줄게	-9.98189
▁맞을까	-9.98205
▁지울	-9.98218
▁멋지	-9.98261
▁빠를	-9.98262
▁있었으면	-9.98319
▁말해볼까	-9.98333
▁고치	-9.98353
▁차가워	-9.98368
선이	-9.98434
▁썸타	-9.9846
▁누구에게	-9.98464
테니	-9.98468
▁그녀에게	-9.98482
▁도와줘	-9.98483
▁아프지	-9.9853
▁라면	-9.98629
▁친해지는	-9.98718
▁버려	-9.98737
▁알았어	-9.9884
▁지진	-9.98844
▁별로라	-9.98847
고싶은데	-9.98922
▁알기	-9.98922
▁불	-9.9894
▁결혼하면	-9.98948
▁가능해요	-9.98972
은연	-9.99044
▁크	-9.9905
▁나가기	-9.99114
▁보이지	-9.99176
▁말해주	-9.9919
▁놓아	-9.99196
▁있을지	-9.99243
▁끝났어	-9.99301
▁밀당	-9.99365
▁센스	-9.99452
▁힘듭니다	-9.99455
▁교	-9.99483
▁헤어졌네	-9.99543
▁예민해	-9.99605
▁안되겠지	-9.99649
▁찾기	-9.99707
▁아니니	-9.99767
▁그러는	-10.0008
▁괜찮아지	-10.0014
▁동안	-10.0021
▁마시면	-10.0026
▁무시하는	-10.0029
▁노는	-10.0035
▁애매하	-10.0068
▁원망	-10.0069
▁모르겠	-10.0082
▁사람이니까	-10.0084
▁궁금하	-10.0098
▁사람만	-10.0108
▁필요하	-10.0122
▁놓고	-10.0124
겠습니다	-10.0125
만한	-10.0133
▁흔들리지	-10.0157
▁꺼	-10.0159
▁있으	-10.0163
▁나보다	-10.019
▁못해요	-10.0196
▁여사친이	-10.0201
▁땅	-10.0213
역	-10.0221
▁헤어지자	-10.0226
불	-10.0228
▁성장	-10.0228
▁심리	-10.023
출	-10.0233
▁미안해	-10.0233
▁거의	-10.0234
▁교회	-10.0239
▁이해가	-10.0242
말하지	-10.0269
하는거	-10.0271
▁상태	-10.0275
더	-10.029
▁도전해	-10.0294
극	-10.0296
판	-10.03
▁우울해	-10.0305
▁흘렀	-10.0311
▁슬프네	-10.0314
합	-10.0314
척	-10.0325
언	-10.0327
▁즐기	-10.0332
▁재미없	-10.0332
▁시키	-10.0337
애	-10.0341
▁질	-10.0342
놈	-10.0343
행	-10.0343
지네	-10.0344
▁설	-10.035
▁좋아하는거	-10.0361
야돼	-10.0361
복	-10.0364
▁생각하	-10.0376
▁생긴다	-10.0379
▁혼자서	-10.0381
▁일에	-10.0387
▁차분하	-10.0397
꾸	-10.0408
함이	-10.0425
죄	-10.0433
▁느껴	-10.0434
향	-10.0435
설	-10.0438
로부터	-10.0438
▁내보세요	-10.0439
정리를	-10.0446
번호	-10.0449
밥	-10.0464
▁팔	-10.0474
▁같지	-10.0487
하나봐	-10.0489
4	-10.049
년의	-10.0492
3	-10.0493
▁보냈	-10.0503
▁싱숭생숭	-10.0504
었	-10.0516
뿐	-10.0529
▁산책	-10.0537
카드	-10.0547
▁귀찮	-10.0559
▁없나봐	-10.0592
다시	-10.0593
▁직	-10.0603
취	-10.0618
았는데	-10.0629
▁도와주	-10.0638
▁어렵네	-10.0638
▁상대방에	-10.0664
▁따뜻하	-10.0669
▁해야지	-10.068
▁돌아오	-10.0686
▁준비하는	-10.0689
▁기다리지	-10.069
려나	-10.0696
▁과식	-10.0709
해주는	-10.0715
▁놔	-10.0726
▁속에	-10.0729
▁특	-10.075
▁뻔	-10.0751
▁운명이	-10.0755
우면	-10.0772
만해도	-10.0776
▁걱정되겠	-10.08
▁의지	-10.0803
▁후회해	-10.0809
려면	-10.0817
름	-10.083
▁먹었	-10.0864
▁해야할까	-10.0869
왔는데	-10.0889
▁살면	-10.0897
▁장소	-10.0914
되겠	-10.0917
▁있었	-10.092
▁어떨까	-10.0932
▁충전하	-10.0948
▁영원	-10.0952
▁달라지	-10.0956
제가	-10.098
▁우선	-10.0985
▁기억이	-10.1002
▁오네	-10.1009
▁샤워	-10.101
혹	-10.101
▁오랜	-10.1013
▁여기까지	-10.1015
▁참는	-10.1017
▁퇴근	-10.1019
쯤	-10.1032
씨	-10.1032
▁보여주	-10.1034
▁파혼	-10.1034
격	-10.1036
스러워	-10.1039
궁	-10.104
▁신혼	-10.1041
▁빌어	-10.1041
▁그럼요	-10.1041
▁나아졌	-10.1041
▁느낄	-10.1041
▁동호회	-10.1041
▁멀리	-10.1041
▁신뢰	-10.1041
▁싶으	-10.1041
▁쌩얼	-10.1041
▁의미부여	-10.1041
▁자괴감	-10.1041
▁잤어	-10.1041
▁짧지	-10.1041
▁트라우마	-10.1041
▁형편	-10.1041
강습	-10.1041
굉	-10.1041
봅시다	-10.1041
뻑	-10.1041
킁	-10.1041
푼	-10.1041
▁에너지	-10.1041
▁택배	-10.1041
▁마침표	-10.1041
▁메모	-10.1041
▁발렌타인데이	-10.1041
▁잇몸	-10.1041
▁인턴	-10.1041
▁고쳐쓰는	-10.1041
▁괴로워	-10.1041
▁까먹었다	-10.1041
▁제주도	-10.1041
▁데려가	-10.1041
▁실례	-10.1041
▁어필해	-10.1041
▁매너	-10.1041
▁증오	-10.1041
▁축복	-10.1042
▁붙여	-10.1042
▁사업	-10.1043
▁정신차리	-10.1043
▁대단하	-10.1043
▁실내	-10.1043
▁추운	-10.1043
꼬박	-10.1044
▁이기적인	-10.1044
▁느껴져	-10.1044
▁여우	-10.1045
▁천재	-10.1045
▁의욕	-10.1045
▁신중	-10.1045
▁기준	-10.1047
▁받아들이기	-10.1048
▁우연	-10.1048
▁불편해	-10.1049
▁배우자	-10.105
▁주식	-10.1051
▁들여	-10.1053
▁방식	-10.1054
▁길러	-10.1061
▁가족들	-10.1061
▁잊는다는	-10.1062
▁구멍이	-10.1065
▁찾는	-10.1067
▁괜찮다면	-10.1069
▁알아차	-10.1071
개월째	-10.1072
▁점심	-10.1076
▁느낌이야	-10.1077
▁속상해	-10.1077
▁성공할	-10.108
▁좋아하지	-10.1087
▁새해	-10.1088
▁지나간	-10.1089
▁생겼으면	-10.109
▁시선	-10.1092
거려	-10.1107
▁포기하는	-10.1115
▁틀	-10.1123
▁생각했는데	-10.1124
▁놓치	-10.1124
▁이어나가는	-10.1127
었습니다	-10.113
▁영원한	-10.1132
▁혼	-10.1139
▁결정할	-10.114
▁뭐할까	-10.1145
▁위험해	-10.1147
▁가치	-10.1148
▁썸인가	-10.1156
▁먹어보세요	-10.1161
▁꼬	-10.117
▁잘못된	-10.1171
▁했나봐	-10.118
▁느껴지	-10.1182
▁다니	-10.1184
하자	-10.1191
▁참견	-10.1192
▁위해서	-10.1192
▁산	-10.1195
▁그만두	-10.1209
▁운전	-10.1214
▁베터리	-10.1217
▁프로포즈	-10.1217
▁예감	-10.122
이네	-10.122
▁바라지	-10.1228
▁모르게	-10.124
▁결혼할	-10.1241
▁ᅲ	-10.1241
▁착한	-10.1248
났어	-10.1249
▁쓰지	-10.1254
▁속도	-10.1256
▁관리하	-10.1259
▁없을까	-10.1268
▁잊어야	-10.1272
▁거기까지였	-10.1276
▁상의	-10.1279
▁아기	-10.128
지고	-10.1287
▁어장	-10.1291
▁위기	-10.1296
지마	-10.1309
▁텐데	-10.1313
▁밤에	-10.1319
▁파도	-10.1323
▁끝에	-10.133
▁싸웠	-10.1332
간다	-10.1353
▁잡았	-10.1358
▁받아야	-10.1359
▁많아서	-10.1373
받았어	-10.138
▁착	-10.1381
▁물리적	-10.1383
▁되겠지	-10.1386
▁아침이	-10.1393
아지	-10.1423
▁소문	-10.1428
▁답답할	-10.144
할거야	-10.1444
했나	-10.1456
드려요	-10.1472
했다	-10.1479
▁쓸	-10.1489
▁후회하	-10.1491
▁보낼	-10.1496
▁찌	-10.1521
▁기간이	-10.1525
▁패턴	-10.1526
번호를	-10.1528
▁시원하	-10.1528
▁자격증	-10.153
▁아플	-10.1533
▁놀랐	-10.1539
▁죄	-10.1546
▁아니죠	-10.1554
▁인정하	-10.1563
르고	-10.1577
▁다양하	-10.1579
해보고	-10.1581
▁타이밍	-10.1582
▁당황했	-10.1585
인가봅니다	-10.1592
▁힘들겠어	-10.1592
▁취직	-10.1595
▁신경쓰이	-10.1601
▁착각	-10.1606
▁술이	-10.1612
해질	-10.1615
했지만	-10.1623
▁거면	-10.1639
나게	-10.1641
▁올해	-10.1642
▁알아가	-10.1646
▁잘못이	-10.165
가세요	-10.1659
▁힘드신가	-10.1689
▁큰일	-10.1703
진다	-10.1707
▁가자	-10.1731
▁지내는	-10.1738
▁전화가	-10.177
버려	-10.1781
▁있을까요	-10.1795
▁왔습니다	-10.1817
잼	-10.1824
일까요	-10.1825
왕	-10.185
학기	-10.1855
망	-10.1856
▁이별하고	-10.1856
이라니	-10.1858
▁당했어	-10.1876
▁붙잡	-10.1888
▁전남친이	-10.1906
▁헤어져	-10.1908
▁동생	-10.1915
▁야경	-10.196
데요	-10.1974
▁확실하	-10.1986
▁자는	-10.1996
인걸까	-10.2
▁했	-10.2006
그	-10.2009
대체	-10.2018
라니	-10.2025
뿐이	-10.2028
바이	-10.2028
▁공부해야	-10.2039
명	-10.2048
생활	-10.2052
▁행복해지	-10.2059
청	-10.2059
주지	-10.2063
옴	-10.2068
참고	-10.2068
하겠네	-10.208
강	-10.2082
▁해야겠다	-10.209
▁집착하	-10.2101
▁뭐하는	-10.2115
독	-10.2121
래요	-10.2139
둘	-10.2141
▁부담스러워	-10.2142
▁해야할지	-10.2156
몸	-10.2158
니가	-10.2161
건데	-10.2174
▁복잡한	-10.2176
매일	-10.2181
▁치료	-10.2189
▁하네	-10.2205
▁봤어	-10.221
▁하던	-10.2212
▁부탁해	-10.2227
리를	-10.2233
▁보일	-10.2247
▁가만	-10.2251
▁당연하	-10.2267
▁헤어	-10.2269
▁싸움	-10.2269
이야기	-10.2272
▁오늘이	-10.2273
▁술먹	-10.2281
▁신청	-10.2291
한번	-10.2295
하겠죠	-10.2305
▁불편	-10.2308
▁생각해보세	-10.2309
▁흘러	-10.2344
▁받았	-10.2348
▁일년	-10.2348
▁받아들	-10.2349
▁누	-10.2352
▁하는건	-10.2358
▁세상이	-10.2358
리기	-10.237
▁아닐까	-10.2371
▁가능해	-10.2387
난다	-10.2388
▁사라	-10.2389
▁결정이었	-10.2399
▁똑같	-10.2403
▁생일이	-10.2408
시간이	-10.2425
량	-10.244
▁잊혀질	-10.2463
정규직	-10.2465
▁맞추	-10.2465
▁택시	-10.2468
흥	-10.2469
▁결혼적령기	-10.2469
▁깨닫	-10.2469
▁노트북	-10.2469
▁무릎	-10.2469
▁받기	-10.2469
▁변한	-10.2469
▁봉사활동	-10.2469
▁새출발	-10.2469
▁셀카	-10.2469
▁스터디	-10.2469
▁아름답	-10.2469
▁이벤트	-10.2469
▁지겨워	-10.2469
▁첫인상	-10.2469
▁출퇴근	-10.2469
▁탈퇴	-10.2469
▁흔하	-10.2469
꽤	-10.2469
쩍	-10.2469
▁애정표현	-10.2469
▁여드름	-10.2469
▁유효기간	-10.2469
▁챙기	-10.2469
▁관련	-10.2469
▁단둘이	-10.2469
▁잃어버	-10.2469
▁누굴	-10.2469
▁두려움	-10.2469
▁즐겁	-10.2469
▁사회생활	-10.247
▁좋으시	-10.247
▁기울여	-10.247
▁흘려	-10.247
▁소개시켜	-10.247
▁회원	-10.247
▁표정	-10.247
▁버티	-10.247
▁취미생활	-10.247
▁교양	-10.247
▁발목	-10.247
▁일어날	-10.247
▁성별	-10.2471
▁축하합니다	-10.2471
▁조카	-10.2471
▁모자라	-10.2471
▁아름다워	-10.2471
▁잡으세요	-10.2471
▁제자리	-10.2471
▁부담스러운	-10.2471
▁의견	-10.2472
▁이틀	-10.2472
▁찌질한	-10.2472
▁15	-10.2472
▁문신	-10.2473
▁우린	-10.2473
▁자취	-10.2473
▁깨달음	-10.2474
▁세워	-10.2474
▁답답하네	-10.2476
▁성공적	-10.2477
▁정리될	-10.2478
▁부담스러워하	-10.2481
▁중국어	-10.2482
▁낫겠지	-10.2482
▁불안해	-10.2486
▁동성	-10.2487
▁시작하	-10.2489
▁예전	-10.2489
▁가능합니다	-10.249
▁먹었는데	-10.249
▁대답	-10.2492
▁점심시간에	-10.2492
▁공허함이	-10.2494
▁어려	-10.2494
위치	-10.2494
▁욕심	-10.2496
▁끝날	-10.2499
▁별로야	-10.2501
▁호의	-10.2505
▁일들이	-10.2507
▁웃어보세요	-10.2508
▁건조	-10.251
시나	-10.2513
▁견디고	-10.2514
▁포장	-10.2517
▁잘해	-10.2518
▁집착해	-10.2519
짐에	-10.252
▁먹었어	-10.2521
▁놀러가고	-10.2523
▁뒤에서	-10.2524
▁좋아했는데	-10.2526
▁같아서	-10.2531
▁푸	-10.2533
▁멀어지	-10.2534
▁사수	-10.2536
갔어	-10.2538
개월이	-10.2539
▁맞나	-10.254
즈	-10.2543
▁계기	-10.2543
▁언제든	-10.2545
▁하루에도	-10.2548
▁떨어지	-10.2552
▁변명	-10.2562
▁심어	-10.2573
▁결	-10.2574
▁보여요	-10.2576
▁걸려	-10.2581
▁돌아가고	-10.2592
▁나아지	-10.2592
▁나갈	-10.2592
일차	-10.2596
▁좋아하시	-10.2602
▁없지만	-10.2609
▁생각날	-10.2612
시다	-10.2615
▁애기	-10.262
▁웃으면	-10.2622
▁있음	-10.2634
▁지금보다	-10.2644
▁애정	-10.2644
▁돌리	-10.2645
하긴	-10.2646
▁중요한데	-10.2647
▁행복해질	-10.2648
▁죽고	-10.265
▁경	-10.2654
▁그럴까	-10.2656
▁찼	-10.2673
▁베	-10.2673
▁충격	-10.2675
▁정류장	-10.2675
▁빠져	-10.2677
▁될거예요	-10.2677
▁걸음	-10.2678
▁겨울	-10.268
▁아파트	-10.2693
▁있는거	-10.2696
▁안부	-10.2699
▁나한테만	-10.2703
▁생각할까	-10.2705
▁심장	-10.2706
이겠죠	-10.271
가는데	-10.2716
▁부탁	-10.2718
▁언제까지	-10.2722
▁깨요	-10.2754
▁입지	-10.2755
▁삭제하는	-10.2755
아주	-10.2756
▁고장	-10.2763
▁봤	-10.2766
▁ᅲᅲ	-10.2772
▁변하는	-10.2782
▁찾아오	-10.2786
▁정의	-10.2805
▁두근거리겠	-10.2807
▁여자와	-10.2818
한거	-10.2827
▁물어보면	-10.2832
형이	-10.2837
하려는	-10.2837
▁말해줘	-10.2875
▁시작해보	-10.2883
▁옴	-10.2887
▁고르	-10.2888
▁늦어	-10.2895
▁해드	-10.2895
▁깔끔	-10.2898
▁의외	-10.2906
▁그럴만	-10.2906
▁나가야	-10.2907
▁사람인가	-10.2908
▁헬스장에	-10.2921
▁있었어	-10.2928
▁한다	-10.293
▁사랑하	-10.2933
였나	-10.2937
▁행동이	-10.2942
하겠습니다	-10.2949
줘야	-10.2978
▁방	-10.2979
기로	-10.2986
▁연애하고	-10.3005
▁쓰이	-10.3015
▁당신만	-10.3016
분이	-10.3017
▁피곤	-10.3033
값	-10.3033
▁코스	-10.3035
▁친	-10.3036
▁짠	-10.3036
▁케이스	-10.3039
▁사랑한다는	-10.3044
▁아니었을	-10.3062
▁덜할	-10.3064
▁약이	-10.3072
양해	-10.3084
▁나왔	-10.3098
▁남는	-10.3102
▁죽어	-10.3109
▁좋아한다	-10.3111
▁놈	-10.3114
▁있었나요	-10.3117
였	-10.3125
▁절약	-10.3146
▁못자	-10.3149
야할까	-10.3155
▁정확하	-10.3158
▁얼굴이	-10.3191
워질	-10.3196
▁받아보	-10.3208
▁용서	-10.3213
▁전화하는	-10.3228
해줘	-10.3232
▁카드	-10.3238
▁미련없	-10.325
▁동생이	-10.3258
▁잘해주는	-10.3282
▁여행가	-10.3313
▁포	-10.3327
▁서운하	-10.3331
▁내요	-10.3336
▁살아가	-10.3375
▁참지	-10.3381
▁보게	-10.3384
▁한거	-10.3391
나서	-10.3392
주고	-10.3396
▁버	-10.3402
▁있어야	-10.3403
▁군	-10.343
리지	-10.3443
▁가까	-10.3446
▁때로	-10.3447
여자들이	-10.3457
▁가려	-10.346
▁웃는	-10.3467
▁업	-10.3473
▁진심이	-10.3479
▁사람인	-10.3496
▁끝인	-10.3518
▁첫사랑이	-10.3518
근	-10.3529
하는지	-10.3532
▁좋을까요	-10.3532
려구	-10.354
▁잠수이별	-10.3553
▁결혼해야	-10.3571
▁살지	-10.3577
▁나지	-10.3581
~~	-10.3588
▁드려	-10.359
▁다르겠	-10.3602
▁성적	-10.3642
▁몇일	-10.3643
▁필	-10.3648
기를	-10.365
이길	-10.3657
▁축하해주	-10.3667
았어	-10.3672
이니	-10.3682
▁마음만	-10.3696
▁이성	-10.3703
▁빠	-10.3709
월	-10.371
렸	-10.371
백	-10.3723
ᄒᄒ	-10.3736
▁애매	-10.374
들어	-10.3754
있어	-10.376
▁거기까지	-10.3799
▁나아	-10.3807
▁클	-10.3812
▁단계	-10.3835
했을까	-10.3835
▁조건	-10.3841
우니까	-10.385
▁중입니다	-10.3851
▁못하면	-10.3857
▁화가	-10.386
곳	-10.3863
갑니다	-10.3869
▁분들	-10.388
▁사랑받고	-10.389
▁연락하	-10.3892
채	-10.3892
호	-10.3892
▁가치관	-10.3899
'	-10.391
카	-10.3912
밖	-10.3925
유	-10.3926
찬	-10.3942
▁제안	-10.3949
올	-10.3983
버렸어	-10.3984
▁변해	-10.3989
▁나온다	-10.3991
▁하고싶	-10.3997
같네	-10.3998
▁괜찮지	-10.4016
▁이루어	-10.4024
▁헤아	-10.4029
했네요	-10.4029
무	-10.4036
▁이러	-10.404
순	-10.4042
▁나네	-10.4044
▁스타일이	-10.4046
▁외	-10.4051
▁어쩌	-10.4055
있음	-10.406
푸	-10.4061
둔	-10.4062
침이	-10.4063
▁무뎌지	-10.4079
▁떠보	-10.4086
일만	-10.4089
▁짜증	-10.4098
지기	-10.4102
▁사과하	-10.4103
▁그분에	-10.4104
고싶다	-10.4104
갑	-10.4108
국	-10.4109
넘	-10.4115
▁떠오르	-10.4118
압	-10.4126
외	-10.4129
탕	-10.4131
있지	-10.4134
▁사라질	-10.4134
▁필요했을	-10.4135
▁메뉴	-10.4136
▁기프트콘	-10.4136
▁갚아	-10.4136
▁끊는	-10.4136
▁낚시	-10.4136
▁낭비	-10.4136
▁높아	-10.4136
▁뒷담화	-10.4136
▁랜선	-10.4136
▁맞지	-10.4136
▁머리카락	-10.4136
▁바꿔야	-10.4136
▁배터리	-10.4136
▁베풀	-10.4136
▁보이스피싱	-10.4136
▁슬픔	-10.4136
▁아이스크림	-10.4136
▁어젯밤	-10.4136
▁염탐하	-10.4136
▁잠재력	-10.4136
▁체육대회	-10.4136
▁축의금	-10.4136
▁특징	-10.4136
▁프라이버시	-10.4136
▁현금영수증	-10.4136
▁화이트데이	-10.4136
바퀴	-10.4136
욱	-10.4136
팸	-10.4136
펑	-10.4136
▁높겠	-10.4136
▁득템	-10.4136
▁어둠	-10.4136
▁짜장면	-10.4136
▁찜질방	-10.4136
▁평온	-10.4136
▁월요일	-10.4136
▁흥미	-10.4136
▁혼술	-10.4136
▁마음정리	-10.4136
▁추석	-10.4136
▁농담	-10.4136
▁표시	-10.4136
▁신혼여행	-10.4136
▁로봇	-10.4136
▁합격	-10.4136
▁마주쳐	-10.4136
▁치유	-10.4136
▁무거워	-10.4136
▁안경테	-10.4137
폭력	-10.4137
▁분노	-10.4137
칼로리	-10.4137
▁외국인	-10.4137
▁소유	-10.4137
▁분담	-10.4137
▁단호	-10.4137
▁서류에서	-10.4137
▁익숙해질	-10.4138
▁어려울	-10.4138
▁걱정된다	-10.4138
▁등산	-10.4138
▁시간표	-10.4138
▁찾아온	-10.4139
▁그립	-10.4139
▁나누	-10.414
▁더러워	-10.414
▁다가오	-10.414
▁똑같아	-10.414
▁빠른	-10.414
▁이쁜	-10.414
▁이기적이	-10.414
▁필름	-10.4141
▁부부	-10.4141
▁바꿀까	-10.4141
지긋	-10.4142
▁조용	-10.4142
▁소심해	-10.4142
▁추천해줘	-10.4143
▁참았어	-10.4143
▁달라져	-10.4143
▁드라이브	-10.4143
년연애	-10.4143
▁이별했습니다	-10.4143
▁노려	-10.4143
▁넘었네	-10.4144
▁서운해	-10.4144
▁생리	-10.4144
▁뭐하냐	-10.4144
▁동감	-10.4145
목	-10.4145
관계	-10.4145
모습	-10.4145
▁군인	-10.4146
▁전역	-10.4146
▁소주	-10.4146
▁대우	-10.4147
▁공시	-10.4147
▁같음	-10.4147
▁전세	-10.4148
▁세월	-10.4148
▁아님	-10.4148
▁정신적	-10.4148
▁때문일	-10.4148
▁한국	-10.4149
▁책임	-10.4149
그래	-10.415
▁일요일	-10.4151
▁한강	-10.4152
▁주제	-10.4152
▁정답	-10.4153
▁어색한	-10.4153
▁장점	-10.4155
▁꺼내	-10.4156
▁아무말	-10.4157
▁쓸데없	-10.4159
▁보답	-10.416
▁어른	-10.416
▁목적	-10.4161
▁수업	-10.4162
▁않겠	-10.4164
▁금연	-10.4168
▁익숙해지지	-10.4169
▁재밌어	-10.4171
▁수영	-10.4171
맥이	-10.4174
▁달력	-10.4174
▁궁금할	-10.4176
▁행복해보여	-10.4177
▁행복할까	-10.4178
▁태어나	-10.4179
▁불공평해	-10.4181
▁마주쳤	-10.4181
막힌	-10.4182
▁응원해요	-10.4183
▁어색해	-10.4187
이렇게	-10.4187
▁생각할수	-10.4189
질러	-10.4191
▁안녕하세요	-10.4194
▁순간이었	-10.4196
▁아닌거	-10.4197
▁초대	-10.4197
▁결혼하	-10.4199
▁아닌가요	-10.4201
▁사귀면	-10.4204
▁안되나	-10.421
깨	-10.4211
▁아니겠지	-10.4211
▁바디	-10.4212
▁받아들이	-10.4214
▁바르	-10.4216
▁티내	-10.4222
▁고백할	-10.4222
거니	-10.4228
망했어	-10.4228
야할	-10.4233
▁알지	-10.4237
▁보이는	-10.4243
▁구분	-10.4263
▁확인하는	-10.4272
▁남아	-10.4274
▁간사하	-10.4275
▁맛있어요	-10.4277
▁흘러가	-10.4286
▁지하철에	-10.4286
▁무기력	-10.4287
▁왔나	-10.4288
▁연락해보는	-10.429
▁마음인	-10.4291
▁기다렸	-10.4291
갈수	-10.4293
▁못했	-10.4295
▁멋	-10.4296
▁마음이라	-10.4297
▁크기	-10.4303
▁당한	-10.4304
▁있대	-10.4325
▁당신에게	-10.4328
▁준비중	-10.4342
▁이어주	-10.4343
▁속은	-10.4344
▁전기	-10.4352
▁탔	-10.4356
이예요	-10.4358
▁남았나봐	-10.436
였을	-10.4361
▁연휴	-10.4373
▁낳	-10.4381
리고	-10.4382
▁성형	-10.4382
▁기울이	-10.4383
▁차례	-10.4383
▁자신과	-10.4385
▁모를	-10.4386
▁바지	-10.4386
▁해주고	-10.4386
▁잘해야	-10.439
되어	-10.4393
▁당연한	-10.4397
▁가치관이	-10.44
▁들으	-10.4401
▁줄까	-10.4402
거겠죠	-10.4407
▁사랑하기	-10.4408
▁기억해	-10.4415
▁듣기	-10.4415
▁시간이겠	-10.4415
▁되었네	-10.4417
▁머릿속	-10.4425
▁들으면	-10.443
▁켜	-10.4432
▁편하고	-10.4444
▁가리	-10.445
▁만족	-10.4452
우는	-10.4453
▁늘	-10.4456
▁편안하	-10.4458
▁지적	-10.4466
▁충전기	-10.4469
▁먹지	-10.4478
▁된다	-10.4478
▁기술이	-10.4488
▁옷이	-10.4491
버는	-10.45
▁빠졌	-10.4502
▁어떻게해	-10.4502
▁거지	-10.4503
▁썸일	-10.4511
▁고기	-10.4512
▁말보다	-10.4525
▁그만하고	-10.4526
▁건가요	-10.4534
▁하루에	-10.4536
▁좋을지	-10.4545
▁됐	-10.455
▁연애하는	-10.4551
▁재밌다	-10.4555
▁손해	-10.4558
하며	-10.4561
▁반장	-10.4564
신이	-10.4568
치는	-10.4574
복이	-10.4584
나가는	-10.459
▁불면증	-10.4632
▁무시해	-10.4636
납니다	-10.4664
▁좋아한다는	-10.4679
▁인스타	-10.4686
▁놀러가	-10.4689
▁그리운	-10.4702
나의	-10.4702
▁나빠	-10.4705
▁다양	-10.4712
하는건	-10.4716
▁사내	-10.4722
게임	-10.4731
▁걱정되	-10.4733
▁놀까	-10.4742
▁알았	-10.4746
봐야지	-10.4766
▁야경이	-10.4774
▁말아야	-10.4777
해도될까	-10.4783
▁풀렸	-10.4784
▁들리	-10.4785
달이	-10.4792
▁이름	-10.4805
▁간단하	-10.4808
▁보고싶	-10.4812
▁열어	-10.4815
▁육아	-10.482
▁반응	-10.4828
▁칭찬해주	-10.4829
들면	-10.4829
인가요	-10.4829
수도	-10.4831
▁이해할	-10.4838
▁힘드시겠	-10.4838
▁하지마	-10.4843
▁아닌가봐	-10.4865
▁끝났네	-10.4867
▁감각	-10.4873
▁몰랐어	-10.4879
▁취직하	-10.4881
▁축하해	-10.4884
▁사나	-10.4885
▁정신없	-10.4912
▁결정이	-10.4945
▁개강	-10.4951
▁꿈같	-10.4952
▁검색	-10.4955
▁살다	-10.4957
▁어떻	-10.4972
▁아껴주	-10.4976
망이	-10.4978
▁힘드	-10.5008
▁욕해	-10.502
▁만나보	-10.5028
을때	-10.5046
▁덜어	-10.506
왔다	-10.5065
▁울적	-10.5078
▁괜찮다	-10.5081
▁비슷한	-10.5091
▁사랑해요	-10.5103
▁드릴	-10.511
▁따지	-10.5131
▁투자	-10.5134
▁즐기면	-10.5161
▁요리	-10.5165
▁있으신가	-10.5166
▁피곤하	-10.517
▁주기	-10.5186
▁쓰면	-10.519
▁아껴	-10.52
▁어머	-10.5204
▁웃어	-10.5228
내고	-10.524
야겠지	-10.5254
▁무리	-10.5255
▁현실적	-10.5257
▁참다	-10.526
▁걸까요	-10.5265
드세요	-10.5269
▁점이	-10.5272
▁맛있을	-10.5275
해주지	-10.5283
려주세요	-10.5334
▁헤어졌	-10.5336
▁처음이	-10.5343
▁중고	-10.5379
▁그런가	-10.54
▁마음에서	-10.5412
▁여행이	-10.5417
▁남은	-10.5419
▁접어두	-10.5448
▁아니라는	-10.5461
▁일기	-10.5484
발이	-10.5485
▁소식	-10.5491
하려	-10.5503
▁깔끔하	-10.5504
▁많겠	-10.5518
▁사랑하는지	-10.5535
▁상태인	-10.5554
▁올까	-10.5556
▁해주면	-10.5565
▁마셨	-10.5597
있나봐	-10.5604
▁못난	-10.5617
▁함께할	-10.5624
▁끝인가	-10.5647
먹	-10.5667
▁오지	-10.5683
▁다르지	-10.5711
▁미안	-10.5718
▁사귀자	-10.5736
▁혼자인	-10.5761
▁어장인	-10.5767
이별이란	-10.5768
▁사주	-10.58
듬	-10.5802
▁공부할	-10.5845
될까	-10.5858
시면	-10.5863
▁경험	-10.5873
▁힘들고	-10.5889
▁연애하면	-10.5893
되지	-10.5901
▁때려	-10.5924
공원	-10.5927
▁유학	-10.5932
보여요	-10.5941
구경	-10.5941
▁무너	-10.5946
▁맘같	-10.5946
▁아니지	-10.5949
으니	-10.5956
▁선택할	-10.596
▁서운	-10.5961
쌈	-10.5966
▁참을	-10.5968
▁만나러	-10.5978
▁의지해	-10.6
너무	-10.6001
햇	-10.6002
▁침대	-10.6003
치기	-10.6024
▁심심	-10.6048
▁견디	-10.6062
▁지쳤	-10.6074
▁이래	-10.6076
▁작아	-10.6079
느냐	-10.6083
▁화내	-10.6084
▁한다는	-10.6087
해야겠지	-10.6099
찰	-10.6103
▁점심시간	-10.6105
족	-10.6109
▁좋을거	-10.611
석	-10.6115
랬	-10.6115
례	-10.6122
▁어떨	-10.6128
▁드라이	-10.6128
▁변덕	-10.6129
▁쓸데	-10.6129
신가요	-10.613
▁회복	-10.613
00	-10.6131
깐	-10.6134
념	-10.6134
벅	-10.6136
율	-10.6136
▁유부남	-10.6136
딩	-10.6136
▁20	-10.6136
▁금수저	-10.6136
▁끄는	-10.6136
▁끓여	-10.6136
▁나눠보는	-10.6136
▁놀이동산	-10.6136
▁다툼	-10.6136
▁당분간	-10.6136
▁모쏠	-10.6136
▁무관심	-10.6136
▁무한리필	-10.6136
▁믿는	-10.6136
▁믿으세요	-10.6136
▁바뀌어	-10.6136
▁부딪혔	-10.6136
▁서툴러	-10.6136
▁설득	-10.6136
▁설렜	-10.6136
▁섬유유연제	-10.6136
▁셀프	-10.6136
▁셀프웨딩	-10.6136
▁스타트업	-10.6136
▁쌓여	-10.6136
▁쌓인	-10.6136
▁옥상	-10.6136
▁이뤄지	-10.6136
▁읽씹	-10.6136
▁좋으련만	-10.6136
▁첫눈	-10.6136
▁층간소음	-10.6136
▁컴퓨터	-10.6136
▁허전한	-10.6136
▁흑역사	-10.6136
긁	-10.6136
댈	-10.6136
릅	-10.6136
범	-10.6136
앨	-10.6136
엠	-10.6136
쫌	-10.6136
찐	-10.6136
츠	-10.6136
툰	-10.6136
혐	-10.6136
힐	-10.6136
▁녹여	-10.6136
▁뒹굴	-10.6136
▁리폼	-10.6136
▁믿었	-10.6136
▁베트남	-10.6136
▁유부녀	-10.6136
▁인터넷	-10.6136
▁편의점	-10.6136
껄	-10.6136
▁그린라이트	-10.6136
▁몸무게	-10.6136
▁비하하지	-10.6136
▁호칭	-10.6136
▁넘어가네	-10.6136
▁무의식	-10.6136
센터	-10.6136
▁맞춤법	-10.6136
▁제정신	-10.6136
▁뜨끈	-10.6136
▁뜨겁	-10.6136
▁갑작스럽	-10.6136
▁찢어지	-10.6136
▁허전할	-10.6136
▁실패	-10.6136
▁베프	-10.6136
▁늦잠	-10.6137
▁와닿	-10.6137
▁시골	-10.6137
▁명품	-10.6137
▁당첨	-10.6137
▁감싸	-10.6137
▁그리울	-10.6137
▁기다림	-10.6137
▁격려	-10.6137
▁알바생	-10.6137
▁화장품	-10.6137
▁인공	-10.6137
▁개념	-10.6137
▁연락두절	-10.6137
▁구속	-10.6138
▁망했다	-10.6138
활용	-10.6138
▁택시비	-10.6138
▁배울	-10.6138
▁방문	-10.6138
▁치매	-10.6138
▁무너져	-10.6139
▁짜증날	-10.614
▁졸업식	-10.614
▁바꿀	-10.6141
▁반갑	-10.6141
▁입학	-10.6141
▁먹어야겠다	-10.6141
▁고마운	-10.6141
▁빨래	-10.6141
드립니다	-10.6141
▁부족해	-10.6142
▁결혼준비	-10.6142
▁사탕	-10.6142
▁변덕스럽	-10.6142
▁비정규직	-10.6143
▁마실까	-10.6143
▁간식	-10.6143
▁혼내	-10.6143
▁사생활	-10.6143
▁부담스러워할까	-10.6143
▁통장	-10.6144
▁싸울	-10.6144
▁남녀	-10.6144
들었겠	-10.6144
▁필수	-10.6144
▁흘리	-10.6145
▁남자분들	-10.6145
▁한계	-10.6145
▁말해보는	-10.6145
▁신경쓰여	-10.6145
▁잊혀질까	-10.6145
스트	-10.6146
▁크시겠	-10.6146
▁강제	-10.6146
▁차갑게	-10.6146
▁어리게	-10.6146
▁좋더라	-10.6146
▁나가볼까	-10.6146
▁다정한	-10.6147
▁보내지	-10.6147
▁배신	-10.6148
▁실천	-10.6148
▁귀여	-10.6148
▁후배	-10.6149
▁없으니까	-10.6149
▁티나나	-10.6149
▁양말	-10.6151
▁못참고	-10.6151
▁필기	-10.6151
▁익숙해져	-10.6151
▁두셨네요	-10.6152
플라	-10.6152
▁마실	-10.6153
▁꼬리	-10.6153
▁끝낼	-10.6153
▁떠나간	-10.6155
▁예상	-10.6156
▁가야겠죠	-10.6156
▁신경써	-10.6156
▁은행	-10.6157
▁착잡하	-10.6158
▁표현하기	-10.6159
▁편하겠죠	-10.616
▁망상	-10.6161
▁다갔어	-10.6161
▁상대적	-10.6162
▁아마	-10.6163
▁스테이	-10.6165
▁갑작스러	-10.6165
▁포근	-10.6165
▁보란	-10.6165
▁미워하지	-10.6167
▁줄어들	-10.6167
▁미치겠어	-10.6168
▁생각난다	-10.6169
탔어	-10.6169
▁팔아	-10.617
▁좋대	-10.6172
▁표현해보	-10.6172
쟁이	-10.6174
▁해야돼	-10.6174
거지	-10.6175
▁끈을	-10.6177
▁다짐	-10.6177
▁알아내	-10.6177
▁지낼	-10.6178
▁사냐	-10.6179
있	-10.618
▁미치	-10.618
▁나갔어	-10.618
▁나왔네	-10.6181
식하는	-10.6181
▁가능한	-10.6182
▁정신과	-10.6183
력이	-10.6183
▁들까	-10.6185
▁안좋은	-10.6185
프	-10.6185
▁시작할	-10.6186
▁치워	-10.6186
▁친해질	-10.6193
놓	-10.6195
▁걸린	-10.6196
▁술마시	-10.6198
▁받아들여야	-10.62
▁배고프	-10.6203
▁붙이	-10.6211
▁사겨도	-10.6211
▁화가나	-10.6212
▁뒤에	-10.6214
▁견뎌내	-10.6216
▁일시적	-10.6217
▁돌아서	-10.622
▁치열해	-10.6222
▁연락했는데	-10.6222
▁지나면	-10.6222
▁시작하기	-10.6223
▁똑똑해	-10.6224
▁수능	-10.6225
▁후회할까	-10.6227
▁가능하다	-10.6227
▁달려있	-10.6227
▁가스	-10.6236
▁심심해	-10.6238
▁떠났	-10.6238
▁나나	-10.624
▁가능하면	-10.6241
▁현금이	-10.6243
▁뭐임	-10.6245
▁이러는	-10.6247
▁호	-10.625
▁귀찮은	-10.6253
코인	-10.6254
안보여	-10.6257
볼때	-10.6259
렸나봐	-10.6263
▁왔나봐	-10.6264
뒀	-10.627
▁될지	-10.6273
엉	-10.6281
▁위험	-10.6285
▁다가왔	-10.6286
▁못하	-10.629
사는	-10.6291
담	-10.6293
▁연애하는데	-10.6297
▁틀리	-10.6299
▁남자입니다	-10.6301
▁뜨는	-10.6302
같이	-10.6306
▁멀었	-10.6312
색	-10.6318
▁사이로	-10.6319
▁보내주	-10.6325
셨나	-10.6325
▁대하는	-10.6326
친구	-10.6329
▁슬프게	-10.6333
▁향기	-10.6339
▁정리해	-10.6339
▁준비할	-10.6342
▁무덤덤해지	-10.6342
머	-10.6344
▁약간	-10.6345
▁이루	-10.6348
연애	-10.635
▁연습해	-10.6351
▁사랑하나	-10.6354
주일	-10.636
회	-10.6363
▁많았나	-10.6377
친구와	-10.638
받으세요	-10.6381
영상	-10.6384
▁해보려	-10.6386
▁우리집	-10.6391
해야겠죠	-10.6392
처리	-10.6393
▁자다가	-10.6395
▁나타나	-10.6397
쪄	-10.6399
해야할까	-10.6402
▁여자에게	-10.6409
▁창업	-10.6411
▁답답하다	-10.6411
시간에	-10.6414
얘	-10.643
봤어	-10.6438
부지	-10.6439
▁광	-10.6441
▁헤어지기	-10.6442
▁밟	-10.6442
▁예약	-10.6443
▁주택	-10.6443
▁설명	-10.6444
▁축제	-10.6444
▁프로필	-10.6444
▁남길	-10.6445
데이트	-10.6446
▁바늘	-10.6449
▁키울	-10.645
▁덕	-10.6455
▁공간	-10.6456
하기로	-10.6462
▁질리	-10.6466
▁헤어짐에	-10.6468
빨	-10.6471
▁먹어야	-10.6473
버	-10.6484
▁헤어졌다	-10.6491
▁지났어	-10.6495
▁그걸	-10.6496
어머	-10.65
▁할줄	-10.65
▁매력이	-10.6504
▁바보같	-10.6515
스타일	-10.6523
▁일정	-10.6526
여자	-10.6528
▁되시	-10.6532
▁잊지못	-10.6534
분들	-10.6535
속	-10.6543
클	-10.6544
조건	-10.655
있습니다	-10.6556
속에	-10.6556
영	-10.6557
참	-10.6557
필	-10.6562
치료	-10.6564
잔	-10.6564
이래	-10.6569
꿀	-10.6571
온다	-10.6573
▁답답	-10.6575
놔	-10.6578
▁연속	-10.6582
특	-10.6584
선배	-10.6585
▁아픔이	-10.6586
되었길	-10.6593
준비	-10.6596
▁해봤	-10.6597
건강에	-10.6601
▁복잡한가	-10.6605
운을	-10.6607
▁고백할까	-10.6609
공	-10.6614
▁망가	-10.6617
▁없었	-10.6618
욕	-10.6619
책	-10.6622
▁안좋아	-10.6623
안녕	-10.6636
5	-10.6641
올려	-10.6646
옷	-10.6647
오래	-10.6651
▁놓으	-10.6651
▁든든하	-10.6652
▁만들기	-10.6654
인거	-10.6656
▁모아야	-10.6659
잡는	-10.6662
지겠네	-10.6663
▁진지	-10.6664
▁오려나	-10.6671
▁위험하	-10.6678
▁흐르는	-10.668
▁보자	-10.6685
되길	-10.6693
▁짝사랑만	-10.6703
▁급	-10.672
▁아이돌이	-10.6724
▁얘기해	-10.6731
못했던	-10.6749
▁커지	-10.675
▁중독	-10.6753
▁울적해	-10.6767
▁물어보고	-10.6776
다른	-10.6787
▁고고	-10.681
▁친해	-10.681
▁속상	-10.6833
▁늦는	-10.6834
▁보고싶네	-10.6835
▁응원	-10.6835
▁대체	-10.6841
▁결혼한	-10.6844
해줬어	-10.6852
셨어	-10.6852
▁내기	-10.6861
▁착각이	-10.6868
▁지켜보	-10.687
해야할지	-10.6875
▁연락할	-10.6876
▁태	-10.6877
▁결혼에	-10.6884
▁설레는	-10.6886
▁적어보	-10.6888
▁후회없	-10.6899
▁나쁘	-10.6909
▁맞춰가	-10.692
▁먼	-10.6925
▁복잡하겠	-10.6925
음이	-10.6926
▁지르	-10.6929
▁사람이었나	-10.693
▁운명인가	-10.6934
▁보았	-10.6934
▁이해하	-10.6938
해주면	-10.6943
중입니다	-10.6945
으려	-10.6947
▁헤	-10.696
하냐	-10.6965
▁내일이	-10.6966
▁공부하면	-10.6976
▁정상	-10.698
▁학교에	-10.6983
▁소모	-10.6999
▁버리는	-10.7
▁미팅	-10.7001
▁밀어	-10.7004
▁기억에	-10.7012
▁그럴수	-10.7017
▁퍼	-10.7028
▁거짓말이	-10.703
▁부려	-10.7032
해져	-10.7043
▁주말이네	-10.7043
▁했다	-10.7047
▁벽	-10.7049
▁먹은	-10.7054
▁간대	-10.7061
▁이별하는	-10.7069
▁있었는데	-10.7077
▁갖자	-10.7078
▁떡	-10.7092
▁일인	-10.7095
▁하다	-10.7108
▁착하	-10.712
조심하세요	-10.7127
▁하셨나	-10.7128
다니는	-10.7128
▁예쁘다	-10.7139
▁떨어	-10.714
▁먹기	-10.7143
끄러워	-10.7168
▁이용해	-10.7169
▁들어올	-10.7177
▁사랑했	-10.7182
▁사람일	-10.7183
▁했을	-10.7194
▁안주	-10.7208
▁극복하	-10.7211
▁전과	-10.7231
▁친구라	-10.7238
▁떨면	-10.7262
▁정확	-10.7272
▁힘들까	-10.7281
▁모으	-10.7293
▁행	-10.7315
▁배워보	-10.7318
▁할게	-10.7348
▁알아봐	-10.7352
▁민	-10.737
▁안하지	-10.7372
가봐	-10.7382
지못한	-10.739
년만	-10.7394
▁이것	-10.7411
▁봤네	-10.7417
해야겠다	-10.7434
▁마주하	-10.7464
해봐요	-10.7472
▁필요한가봐	-10.7472
▁대화하는	-10.7475
▁먹자	-10.7479
▁개강이	-10.7483
▁어울	-10.7496
▁적이	-10.7496
▁상처주	-10.7502
▁자야	-10.7509
네여	-10.7513
▁포기해야	-10.7525
▁상황에	-10.7558
▁말로	-10.7566
▁말해봐	-10.7573
▁보이네	-10.7575
▁평가	-10.7588
▁빵	-10.7593
▁집중하	-10.7593
▁재미있는	-10.7603
▁그사람이	-10.7607
▁짜	-10.7616
▁재밌을	-10.7621
▁못하겠	-10.7629
▁적응해야	-10.7637
▁인연이었	-10.7641
▁성장하	-10.766
▁미안해하	-10.7665
▁아니네	-10.768
▁않았을	-10.7684
여행	-10.7698
▁복잡	-10.7709
▁여사친	-10.771
없어	-10.7713
▁해야하나	-10.7719
는지	-10.7773
해줘서	-10.7781
할까요	-10.7797
▁않지	-10.78
▁생각하기	-10.7808
▁걸리	-10.7813
리면	-10.7813
없는	-10.782
▁실	-10.782
▁헛헛	-10.7824
▁따듯	-10.7836
▁실수한	-10.7845
▁초대하	-10.7847
▁깊었	-10.7857
▁소문이	-10.7861
▁것만	-10.7865
▁많아지	-10.7885
▁아니었나	-10.789
기적	-10.79
▁타나	-10.7906
▁뭐하면	-10.791
▁반에	-10.7918
아서	-10.7924
▁되는거	-10.7977
▁잘해주	-10.8006
보여	-10.8014
▁차가	-10.8056
인건가	-10.8088
▁단순	-10.8096
▁받으	-10.8099
한건가	-10.81
▁부족한가	-10.8102
▁기술	-10.8109
▁없는거	-10.8123
부를	-10.8125
▁면도	-10.8125
▁존중해	-10.8132
왔네	-10.8153
▁운동하	-10.8155
▁도와드	-10.817
▁하시	-10.8183
▁도와	-10.8194
▁되려	-10.8194
돌	-10.8199
친구가	-10.8201
▁빨	-10.8203
사람에게	-10.8239
▁많은가	-10.8248
▁받아들여	-10.8254
▁이상하	-10.8265
▁왕따	-10.8306
오게	-10.8315
는구나	-10.8322
▁고백해	-10.8339
▁건데	-10.8343
였나봐	-10.8368
▁봐주	-10.837
▁말한	-10.8385
▁보시	-10.8403
▁맞춰주	-10.8405
▁키워	-10.8407
올까	-10.8427
▁안될	-10.8428
야겠어	-10.8448
▁반복하	-10.8463
▁막히	-10.8471
셔야	-10.8487
▁근	-10.8489
▁솔직	-10.8501
▁기다	-10.8517
▁아깝	-10.8526
▁치열	-10.8527
▁들려	-10.853
▁붙	-10.8531
롭	-10.8541
이었나봐	-10.855
▁헤어지고나	-10.8556
▁어떡하	-10.8558
▁잘지내	-10.856
▁기적	-10.8563
▁사겨	-10.8565
힌	-10.8565
▁태어	-10.8579
처	-10.858
▁기억해주	-10.8585
스럽	-10.8586
나는	-10.8596
겁	-10.8599
▁무덤덤해	-10.8602
▁솔로	-10.861
개시	-10.8613
냥	-10.8616
▁중국	-10.8622
룩	-10.8623
으신가	-10.8624
▁끊겼	-10.8624
류	-10.8625
▁두근거	-10.8626
▁집안	-10.8627
▁줄일	-10.8629
닝	-10.8631
▁자책	-10.8631
육	-10.8632
▁진행	-10.8633
▁슈퍼	-10.8636
▁뛰어	-10.8636
완	-10.8636
▁뻐근	-10.8636
샌	-10.8636
▁걷다	-10.8636
▁변신	-10.8636
▁사춘기	-10.8636
▁전기장판	-10.8636
놨	-10.8636
-	-10.8636
B	-10.8636
▁각질제거	-10.8636
▁권리	-10.8636
▁글쎄요	-10.8636
▁꼰대	-10.8636
▁끊어야	-10.8636
▁낮잠	-10.8636
▁느꼈	-10.8636
▁닮아	-10.8636
▁뒷감당	-10.8636
▁레시피	-10.8636
▁몰려	-10.8636
▁버릇	-10.8636
▁본받	-10.8636
▁선풍기	-10.8636
▁세탁	-10.8636
▁소름돋	-10.8636
▁소액결제	-10.8636
▁손편지	-10.8636
▁숫자	-10.8636
▁식습관	-10.8636
▁쌓였	-10.8636
▁아울렛	-10.8636
▁애프터	-10.8636
▁어떡함	-10.8636
▁엄마아빠	-10.8636
▁옳은	-10.8636
▁웹툰	-10.8636
▁이모티콘	-10.8636
▁입냄새	-10.8636
▁좌절	-10.8636
▁지저분해	-10.8636
▁짧아	-10.8636
▁컴터	-10.8636
▁풀려	-10.8636
▁풀리	-10.8636
▁하우스웨딩	-10.8636
▁훔쳐보	-10.8636
▁흐지부지	-10.8636
겐	-10.8636
눅	-10.8636
덥	-10.8636
맷	-10.8636
맹	-10.8636
젤	-10.8636
줌	-10.8636
짚	-10.8636
째깍	-10.8636
춰	-10.8636
팁	-10.8636
팬	-10.8636
풋	-10.8636
흠	-10.8636
▁객관적	-10.8636
▁교양수업	-10.8636
▁끊으	-10.8636
▁몰아	-10.8636
▁벗으	-10.8636
▁브랜드	-10.8636
▁수면양말	-10.8636
▁싶을	-10.8636
▁원동력이	-10.8636
▁허전함	-10.8636
▁확률	-10.8636
▁건강습관이	-10.8636
▁꾹꾹	-10.8636
▁넣어	-10.8636
▁비정상이	-10.8636
▁침묵	-10.8636
쭤	-10.8636
▁고시원	-10.8636
▁어리석	-10.8636
▁비행기표	-10.8636
▁식단조절	-10.8636
▁무언가	-10.8636
▁근교	-10.8636
▁메뉴얼	-10.8636
▁케익	-10.8636
▁현타	-10.8636
▁바꿨어	-10.8636
▁손가락	-10.8636
▁동아리에	-10.8636
▁뱃살	-10.8636
▁월세	-10.8636
▁낭만적	-10.8636
▁피부관리	-10.8636
▁외출하	-10.8636
▁탈모	-10.8636
▁한심해	-10.8636
▁골프	-10.8636
▁알뜰폰	-10.8636
▁색다른	-10.8636
▁초기화	-10.8636
▁상종하지	-10.8636
▁뛰어넘	-10.8636
▁으으	-10.8636
▁희생양	-10.8636
립니다	-10.8636
▁미용실	-10.8636
▁격식	-10.8636
▁무모	-10.8636
▁친절한	-10.8636
▁대기업	-10.8636
▁패션	-10.8636
▁감정기복	-10.8636
▁증명	-10.8636
▁어렸을때	-10.8636
▁부탁드립니다	-10.8637
▁블록	-10.8637
▁예능	-10.8637
▁주름살	-10.8637
▁똥차	-10.8637
▁대청소	-10.8637
▁승진	-10.8637
▁떨린다	-10.8637
▁자장가	-10.8637
▁발견	-10.8637
▁열흘	-10.8637
▁난감하	-10.8637
▁아물	-10.8637
▁위축	-10.8637
▁부담스러울	-10.8637
▁학벌	-10.8637
▁조급하	-10.8637
▁롱디	-10.8637
▁똑같애	-10.8637
▁잡념	-10.8637
▁접어야	-10.8637
▁친척	-10.8637
▁나빴네	-10.8637
▁태연	-10.8637
▁종지부	-10.8637
▁작동	-10.8637
▁길거리에	-10.8637
▁환기	-10.8637
▁공유	-10.8638
▁실행	-10.8638
▁예비	-10.8638
▁의존	-10.8638
▁비밀연애	-10.8638
▁빈자리	-10.8638
▁외부	-10.8638
▁심심하다	-10.8638
▁바꿔볼까	-10.8638
▁바쁠	-10.8638
▁으아	-10.8638
▁영화보러	-10.8638
▁영향	-10.8638
▁참석하는	-10.8638
▁누워	-10.8638
▁청결	-10.8638
▁음료	-10.8638
▁태어났	-10.8638
▁사표	-10.8638
▁미칠	-10.8638
▁이제서야	-10.8638
▁나이테	-10.8638
▁선택이었을	-10.8638
▁시도해	-10.8638
▁어느정도	-10.8638
▁장갑	-10.8639
▁매달려	-10.8639
▁유행	-10.8639
▁먹먹	-10.8639
▁아쉬운	-10.8639
▁출발	-10.8639
▁홀로	-10.8639
▁다녀왔어	-10.8639
▁변화시켜	-10.8639
잔치	-10.8639
▁직후	-10.8639
▁설마	-10.864
▁감출	-10.864
▁실수했나	-10.864
▁정해져	-10.864
▁주량	-10.864
▁미안하다	-10.864
잔하네	-10.864
▁아까운	-10.864
▁지루	-10.8641
▁반영	-10.8641
듭니다	-10.8641
▁인지시켜	-10.8641
▁원인이	-10.8641
▁알아볼	-10.8641
▁속박	-10.8641
▁돌아올까	-10.8641
▁들이대	-10.8641
▁웃겨	-10.8641
▁까먹었어	-10.8642
▁친구사이	-10.8642
▁두근거려	-10.8642
▁연애세포	-10.8642
▁차였는데	-10.8642
▁느낀다면	-10.8643
▁전여자친구	-10.8643
▁겁나	-10.8643
▁감동	-10.8643
▁나쁜놈	-10.8643
▁숙제	-10.8643
▁있었는지	-10.8643
▁비오는	-10.8643
차곡	-10.8643
디오	-10.8643
▁한번쯤	-10.8644
▁어떠세요	-10.8644
▁졸린	-10.8644
▁복잡했나	-10.8644
식물	-10.8644
▁배울까	-10.8645
▁이겨야	-10.8645
▁보냈습니다	-10.8645
▁프로	-10.8645
▁좋네	-10.8645
▁쳐다	-10.8645
▁즐거워	-10.8645
릴까	-10.8646
추적	-10.8647
▁방금	-10.8648
▁오바	-10.8648
▁뿌려	-10.8648
▁심해지는	-10.8648
▁끊겼어	-10.8648
▁역할	-10.8648
▁리드	-10.8649
콜록	-10.8649
▁구두	-10.8649
▁좋아한대	-10.8649
▁면도기	-10.8649
▁무뎌질	-10.8649
▁구워	-10.865
▁소심	-10.865
▁12	-10.865
▁따져	-10.8651
▁해외	-10.8652
▁지압	-10.8652
▁지웠어	-10.8652
▁끝났습니다	-10.8652
▁미화되기	-10.8653
▁기다릴게요	-10.8653
▁돌아와	-10.8653
▁들텐데	-10.8654
▁오셨	-10.8654
▁괜찮겠지	-10.8654
종료	-10.8655
▁보약	-10.8655
▁진리	-10.8656
▁습관처럼	-10.8656
간당	-10.8656
주물	-10.8657
▁버렸다	-10.8658
▁방심	-10.8658
▁아부	-10.8658
▁고독	-10.8659
▁다듬	-10.8659
▁모처럼	-10.866
▁이별준비	-10.866
▁난방	-10.8661
▁지낸	-10.8661
▁연상	-10.8661
▁어떡하죠	-10.8662
재인가	-10.8662
▁지각	-10.8663
▁감성적이	-10.8664
▁맛있어	-10.8664
▁냉면	-10.8665
▁의심해	-10.8665
사람친구	-10.8665
▁지친	-10.8665
▁일방적	-10.8665
▁월급날	-10.8666
▁남아있	-10.8667
▁되려면	-10.8668
▁메리	-10.8669
▁단수	-10.8671
▁어색해졌어	-10.8671
▁중요하니까	-10.8671
▁보냈네	-10.8671
▁때리기	-10.8672
체인	-10.8672
▁잘못입니다	-10.8673
▁좋긴	-10.8674
▁아쉬움이	-10.8674
▁성덕이	-10.8674
들었나봐	-10.8674
▁글자	-10.8676
▁헤어져야하는	-10.8676
▁싸운	-10.8677
▁누나	-10.8678
▁불만	-10.8679
▁가량	-10.8679
▁한달만에	-10.868
▁다되어가네	-10.8681
▁확실해	-10.8685
▁영어	-10.8685
▁사줘	-10.8689
▁죽을거	-10.869
▁한약	-10.869
▁반가워요	-10.8692
▁어렵다	-10.8693
▁도망가	-10.8693
▁늙어가	-10.8693
▁물질	-10.8693
▁겨울에	-10.8694
▁안받아	-10.8695
▁실력	-10.8695
▁출근길	-10.8695
▁받으시	-10.8697
▁혼나	-10.8697
▁여러명	-10.8697
▁연락왔어	-10.8698
▁운동화	-10.8699
▁없는걸까	-10.8699
▁놀러가세요	-10.8701
▁위로해줄	-10.8702
▁사랑이야기	-10.8702
초록	-10.8703
▁고마	-10.8705
▁좋으니	-10.8708
하셔야죠	-10.8708
▁싫어져	-10.8709
냐구	-10.8712
▁하아	-10.8713
▁배정	-10.8714
▁대수	-10.8715
▁봤나	-10.8718
▁깨달았	-10.8719
▁접는	-10.8721
▁알겠어	-10.8721
▁헷갈리네	-10.8722
▁어이없	-10.8725
두통	-10.8725
▁입장	-10.8727
이너	-10.8728
▁무리하지	-10.8733
▁있는걸까	-10.8737
▁오니까	-10.8737
▁다칠	-10.8738
▁세달	-10.8738
▁자르	-10.8739
되가네	-10.874
▁좋아지고	-10.874
▁결혼하기	-10.874
▁아니었어	-10.8746
▁차단하는	-10.8746
▁사전	-10.8746
▁차인	-10.8747
▁표현하지	-10.8747
▁크리스마스에	-10.8747
▁갔는	-10.8748
▁많은걸	-10.8755
런지	-10.8759
▁카톡할	-10.876
▁손톱이	-10.8762
▁좋아졌어	-10.8763
▁그림	-10.8772
▁받아들여지	-10.8772
▁독서	-10.8774
▁없대	-10.8775
▁나오네	-10.8781
▁거부	-10.8782
▁장난인	-10.8783
시려	-10.8787
▁없다는	-10.8788
하시는	-10.8789
▁만들었어	-10.8798
▁잘해줘서	-10.8801
▁없는걸	-10.8802
▁잘생겼어	-10.8804
▁떨쳐	-10.8805
▁가능한가	-10.8806
▁결정하는	-10.881
▁울고	-10.881
▁너무너무	-10.8812
▁보듬어주	-10.8815
▁떠날	-10.8815
▁꾸준한	-10.8816
▁모른척	-10.882
▁기침	-10.8822
▁의자	-10.8824
▁힘들어도	-10.8828
▁들어줄	-10.883
▁끈이었	-10.8833
고치기	-10.8836
▁고치고	-10.8836
▁옷이요	-10.8839
▁반복되	-10.8843
▁아련하	-10.8845
▁맛있다	-10.8846
▁공개	-10.8865
▁고백해야	-10.8865
▁정성	-10.887
▁정확한	-10.8872
▁카페에	-10.8872
▁못할까	-10.8878
▁무너지	-10.888
▁증상	-10.8883
▁연락하기	-10.8884
▁필요하지	-10.8885
▁애석하	-10.8885
▁사랑이라는	-10.8886
▁해야할	-10.8887
▁걸리겠	-10.8889
▁고민이네	-10.8891
▁냄새나	-10.8895
▁연락할까	-10.8896
▁남자와	-10.8905
▁터질	-10.8911
▁힘들겠죠	-10.8912
뻔	-10.8917
▁불편하겠	-10.8924
▁돌아오지	-10.8934
있을까	-10.8936
▁지식	-10.8938
▁찬	-10.8939
▁복잡해	-10.8939
였는데	-10.8941
▁노력해보	-10.8948
▁결심이	-10.8955
▁기다려야	-10.8957
▁끊기	-10.8958
▁피로	-10.8962
직	-10.8963
▁남자에게	-10.8964
던데	-10.8967
▁놓는	-10.8968
▁잊어가는	-10.897
▁카	-10.8973
못	-10.8978
▁놀러갈	-10.8982
▁이야기할	-10.8982
▁당당해	-10.8986
▁이대로	-10.9002
▁냉	-10.9007
▁학생	-10.9009
▁칼	-10.9011
▁관심있	-10.9013
안한다	-10.9014
볼	-10.9017
▁여지	-10.9026
▁질려하	-10.9034
▁농	-10.9038
쳤어	-10.904
▁놓쳤	-10.9041
▁연애인	-10.9041
▁떼	-10.9043
▁쫄	-10.9043
▁윗	-10.9043
▁응	-10.9045
▁술한잔	-10.9047
▁외국어	-10.9052
▁허무하네	-10.9056
▁데서	-10.9057
▁진도	-10.9057
▁웃음	-10.9058
▁화해	-10.9059
▁견디기	-10.9061
▁지났는데	-10.9061
▁다녀와	-10.9063
▁동생한테	-10.9064
▁취향이	-10.9064
▁넘었는데	-10.9067
▁괜찮다가	-10.907
▁활	-10.907
▁붙잡아	-10.9071
막히는	-10.9078
▁쓰일	-10.9078
▁힘들지만	-10.9084
▁해준	-10.9093
▁급해	-10.9108
▁굴	-10.9112
▁잡는	-10.9114
쟁	-10.9116
▁머리로	-10.9127
▁잊지말	-10.9133
▁운이	-10.9138
▁인연인	-10.914
▁반년	-10.9145
▁좋은점	-10.916
았습니다	-10.9161
▁취직할	-10.9162
▁지내요	-10.9162
▁사랑이었으	-10.9163
▁도와드릴	-10.9175
▁순수하	-10.9177
▁뭐해	-10.9182
었다	-10.919
폭	-10.9209
았으면	-10.9212
▁생각하나	-10.9213
▁별로인	-10.9216
중심	-10.9217
▁겨	-10.9219
▁모르겠다	-10.9222
▁척하는	-10.9225
한대	-10.9226
▁이어가	-10.923
▁불안하	-10.9233
▁돌아보	-10.9238
문이	-10.9239
▁그렇다	-10.9242
▁놓아줄	-10.9254
▁감당	-10.9254
▁사람이다	-10.9276
▁도와줄	-10.9277
▁듣는	-10.9281
▁났나봐	-10.9286
▁적극적이	-10.9289
▁이상한가	-10.9291
롱	-10.9297
▁ᄒᄒ	-10.9297
▁나타났	-10.9303
자마	-10.9314
져서	-10.9316
▁일하	-10.9322
▁아프게	-10.9322
오겠죠	-10.9323
▁잘되	-10.9327
▁결혼하고	-10.9327
▁사먹	-10.9328
▁살았	-10.9345
있어요	-10.9346
서서	-10.9348
▁귀찮다	-10.9351
▁나니	-10.9359
▁사귀다	-10.9363
되었는데	-10.937
▁마주치면	-10.9383
▁매력있	-10.9392
▁쓰게	-10.9394
▁요구	-10.9408
침	-10.9411
▁지켜보는	-10.9412
▁간절하	-10.9415
▁자신다	-10.9418
▁이성이	-10.9419
▁학생이	-10.9422
▁사랑했어	-10.9423
▁부여하	-10.9445
▁좋은거	-10.9459
성적이	-10.9468
▁않기	-10.9478
▁예뻐지	-10.9482
▁치맥이	-10.9486
페	-10.9487
되겠죠	-10.9487
▁많겠지	-10.9488
▁기다리게	-10.9489
▁헛헛하	-10.952
▁사랑해주	-10.9528
빛	-10.9532
▁화나	-10.9533
쪽	-10.9539
시켜야	-10.9541
▁골	-10.9543
하려면	-10.9554
▁친구인데	-10.9554
▁깨지	-10.9555
보이네	-10.9564
볶	-10.9586
▁부담되	-10.9589
▁읽어보	-10.959
▁접어두는	-10.9594
팩	-10.9598
S	-10.9598
▁질린	-10.9599
연이	-10.9605
▁익숙해지	-10.9607
빈	-10.9608
버림	-10.9609
▁어이	-10.9614
▁현실이	-10.9616
▁되어요	-10.9624
하고싶다	-10.9624
▁지났	-10.9636
보니	-10.9639
▁부족하	-10.9643
끈	-10.9649
품	-10.9663
너	-10.967
▁반복	-10.9674
업	-10.9683
군	-10.9686
▁됐습니다	-10.9687
▁궁금하다	-10.9692
투	-10.9692
안할	-10.9697
계절	-10.9698
▁생각하게	-10.9698
▁느껴보	-10.9701
정기	-10.9721
콕	-10.9722
가입	-10.9731
탄	-10.9732
▁거였	-10.974
하겠지	-10.974
▁세우	-10.9748
짜	-10.9751
▁끝내는	-10.9751
▁솔직해	-10.9752
뜨	-10.9779
마음	-10.9786
절	-10.9791
▁센	-10.9796
▁다가	-10.9798
▁촬영	-10.9798
▁액	-10.9798
빵	-10.98
▁주저리	-10.9802
사람이다	-10.9803
▁견	-10.9808
생	-10.9811
▁뜻하	-10.9813
오늘	-10.9819
톡	-10.9823
좋아	-10.9824
▁일주일이	-10.9825
▁식었	-10.9826
▁단점	-10.9838
여자친구	-10.984
▁가져보	-10.9842
했던거	-10.9847
맘	-10.9849
정이	-10.9849
수건	-10.9852
기한	-10.9858
▁나약	-10.9873
포	-10.9875
▁다치	-10.9878
싸움	-10.9886
▁찾아오네	-10.9893
▁키우는	-10.9903
꿈	-10.991
팔	-10.9912
계	-10.9912
선물	-10.9912
당했어	-10.9913
착	-10.992
슬	-10.9924
동물	-10.9927
널	-10.993
탈이	-10.9932
시켜	-10.9933
▁돼지	-10.9934
▁달에	-10.9935
▁마지막이	-10.9936
문득	-10.9938
▁붙잡는	-10.9942
머리	-10.9944
▁되도	-10.9944
▁자리에	-10.9945
▁이어지	-10.9952
▁났	-10.9953
상담	-10.9957
신청	-10.9957
됨	-10.9957
때문	-10.9958
커플	-10.9958
▁나겠	-10.9959
안돼	-10.9959
뒤	-10.9959
그만	-10.9959
노	-10.996
1	-10.996
커	-10.9963
따로	-10.9965
노래	-10.9968
기에	-10.997
▁좋았겠	-10.9977
벌	-10.9979
몇	-10.998
▁죽겠	-10.998
싶어요	-10.9991
고파	-10.9997
생각이	-10.9998
▁타인	-10.9998
틀어	-11.0006
린다	-11.0008
▁부리	-11.0009
▁웃어주	-11.0013
▁올리	-11.0016
사진	-11.0022
주실	-11.0033
자랑	-11.0038
앞이	-11.0043
이었을	-11.0047
▁버려야겠	-11.005
▁안됐	-11.005
만남	-11.0051
▁고백한	-11.0069
해야겠네	-11.007
▁원해	-11.0084
▁도와주세	-11.0106
▁감성	-11.0117
▁감으	-11.0122
▁깎아야	-11.0124
다리	-11.0129
겠대	-11.0145
만나자는	-11.0146
▁연애였	-11.0156
가봅니다	-11.0156
▁장기	-11.0161
▁우울하	-11.0198
되니까	-11.0198
▁나야	-11.0226
▁어떻해	-11.0233
오길	-11.0242
온	-11.0275
별의	-11.0277
▁학기	-11.0284
것만	-11.0293
▁뜨	-11.0305
▁안정적	-11.0324
지우	-11.0333
▁싶다는	-11.0339
▁합	-11.0347
갔다	-11.0352
▁안하면	-11.0393
▁절약해	-11.0417
▁거겠지	-11.0433
▁만나요	-11.0441
▁용서하	-11.0455
▁건들	-11.0464
▁무엇인	-11.0468
보네	-11.0472
보려구	-11.0495
▁안좋	-11.0497
▁해봐	-11.0504
하라	-11.0506
겠	-11.0523
▁삭제하	-11.0525
하는걸	-11.0541
▁울	-11.0571
왔습니다	-11.0576
▁찾아가는	-11.0584
감이	-11.0585
▁그런거	-11.0604
▁후련하네	-11.0607
▁탄	-11.0618
▁콕	-11.0629
▁투	-11.0632
▁하러	-11.0637
▁다니면	-11.0638
확	-11.0673
질까	-11.0678
▁품	-11.0685
▁왜이	-11.0706
▁터지	-11.071
▁오락가락	-11.071
▁물가	-11.0711
▁끝인가봐	-11.0717
▁부르	-11.0727
감기	-11.073
▁싫은가봐	-11.0744
보고싶	-11.0748
한다는	-11.0769
▁페	-11.0788
줘서	-11.0799
▁야근이	-11.0806
비가	-11.0806
났네	-11.081
▁남자의	-11.0835
인줄	-11.084
▁그리운가	-11.0844
▁자연	-11.0886
▁덤덤	-11.0932
▁사랑이에요	-11.0932
▁버려야	-11.094
▁연인이	-11.0947
와야	-11.0952
▁향이	-11.0974
기세요	-11.0988
▁사실이	-11.0989
▁아이돌	-11.1001
▁날까	-11.1019
▁들어왔	-11.1045
▁찾아야	-11.105
▁입으	-11.1068
▁안에	-11.1083
▁잘못한	-11.1089
▁남사친	-11.1117
아온	-11.1122
▁잘라	-11.1133
▁없고	-11.1134
야해	-11.115
▁두근거리	-11.1156
▁살아가는	-11.1164
▁말만	-11.1165
▁준비하느	-11.1166
▁하루였	-11.1176
▁살려	-11.1178
셨	-11.1185
▁든든	-11.1188
▁이야기는	-11.1194
▁날인	-11.1203
▁연속이	-11.122
▁행복이	-11.1227
▁정리해야	-11.1236
▁지냈	-11.1258
▁멈춰	-11.126
▁됐나	-11.1264
라네	-11.1286
▁예민	-11.1293
▁말자	-11.1308
▁날들	-11.1314
시도	-11.1323
여친이	-11.1326
▁언제가	-11.1329
▁모르겠지	-11.1332
절한	-11.1337
기니	-11.1342
▁건강하	-11.1365
▁이해못	-11.1383
▁풀어야	-11.1387
▁얘	-11.1391
웠어	-11.1413
▁머릿속에	-11.1418
이었을까	-11.142
정도	-11.1424
▁병신	-11.143
▁물이	-11.1439
름이	-11.1442
▁따라가	-11.1446
▁전하면	-11.1453
싶은데	-11.149
▁내면	-11.149
테	-11.1497
▁일이라	-11.1502
▁쪄	-11.1516
▁짝사랑인	-11.1519
▁해야겠지	-11.1525
▁처리	-11.1532
▁관계에	-11.154
하겠어	-11.1546
시다니	-11.1554
▁때인	-11.1574
▁만나기	-11.1587
▁영상	-11.1589
▁받으세요	-11.1602
▁해외여행	-11.1608
▁이별중	-11.1627
렀어	-11.163
▁색	-11.1647
▁대단	-11.1647
이상	-11.1659
시키는	-11.1667
▁느낀	-11.1669
▁아련	-11.1689
간을	-11.1698
▁출근하	-11.1703
▁확인하	-11.1709
해야할듯	-11.1716
▁모른척하	-11.1719
달라는	-11.1722
▁그리	-11.1728
▁가져가	-11.1728
갔는	-11.1766
▁맞나봐	-11.1789
▁가득	-11.179
갔네	-11.1796
▁손이	-11.1808
▁오해하	-11.1814
▁똑똑	-11.1815
▁뻔했	-11.1825
을수	-11.1833
▁의미일까	-11.1856
▁수건	-11.1863
▁척하	-11.1869
▁무색하	-11.1875
까운	-11.1879
▁하자	-11.188
맥	-11.1886
하려나	-11.1889
▁움직	-11.1889
담하	-11.1893
▁하니까	-11.1899
▁멀어진	-11.19
▁흔들	-11.1904
▁잘하니	-11.1909
주인	-11.192
▁헷갈	-11.1935
▁벗어	-11.1936
립	-11.1936
꾼	-11.1938
▁한순간	-11.1941
환	-11.1945
▁상메	-11.1946
즘	-11.1949
촉	-11.1951
납	-11.1954
▁돌아올	-11.1955
▁간접	-11.1955
텐	-11.1956
닥	-11.1957
곡	-11.1959
하시겠	-11.1962
▁불효	-11.1964
▁사회	-11.1964
▁씁쓸	-11.1966
키기	-11.1966
궈	-11.1967
승	-11.1968
블	-11.1968
봉	-11.1969
둥	-11.1969
뱃	-11.1969
낌	-11.1969
깅	-11.1969
▁0	-11.1969
▁간질간질	-11.1969
▁많나	-11.1969
▁엮여	-11.1969
▁오지랖	-11.1969
균	-11.1969
띠	-11.1969
안됩니다	-11.1969
D	-11.1969
a	-11.1969
s	-11.1969
▁가슴은	-11.1969
▁견과류	-11.1969
▁구남친	-11.1969
▁구썸남	-11.1969
▁꽃바구니	-11.1969
▁낫지	-11.1969
▁낮술	-11.1969
▁눈꺼풀	-11.1969
▁뉴스	-11.1969
▁다닐까	-11.1969
▁대리효도	-11.1969
▁대부분	-11.1969
▁드레스	-11.1969
▁딸까	-11.1969
▁땡긴다	-11.1969
▁로맨스	-11.1969
▁맞이	-11.1969
▁매몰	-11.1969
▁받네	-11.1969
▁배불러	-11.1969
▁버텼	-11.1969
▁벗겨	-11.1969
▁부딪히	-11.1969
▁블랙박스	-11.1969
▁비혼주의	-11.1969
▁빌리	-11.1969
▁빌릴까	-11.1969
▁설렐	-11.1969
▁섬유	-11.1969
▁쇼핑몰	-11.1969
▁시간낭비인	-11.1969
▁싫으	-11.1969
▁싫지	-11.1969
▁심쿵	-11.1969
▁썼다	-11.1969
▁쏟아	-11.1969
▁씹어	-11.1969
▁씻어	-11.1969
▁아날로그	-11.1969
▁아쉽겠	-11.1969
▁얻는	-11.1969
▁얼떨떨	-11.1969
▁열받아	-11.1969
▁우습	-11.1969
▁잃을	-11.1969
▁잘생겨	-11.1969
▁잤나	-11.1969
▁제습기	-11.1969
▁중간중간	-11.1969
▁지옥같	-11.1969
▁차별받	-11.1969
▁창피해	-11.1969
▁첫이별	-11.1969
▁최저	-11.1969
▁토닥토닥	-11.1969
▁편린	-11.1969
▁평범	-11.1969
▁폰겜	-11.1969
▁햇볕	-11.1969
▁호르몬	-11.1969
▁혼란스러워	-11.1969
▁혼인신고	-11.1969
▁흐음	-11.1969
넋	-11.1969
돕	-11.1969
됬	-11.1969
뒹	-11.1969
땜	-11.1969
륵	-11.1969
릭	-11.1969
벤	-11.1969
샘	-11.1969
샜	-11.1969
송	-11.1969
왓	-11.1969
짼	-11.1969
쳇	-11.1969
쿠	-11.1969
킹	-11.1969
▁딴짓	-11.1969
▁마찬가지	-11.1969
▁소개받	-11.1969
▁억울	-11.1969
▁피시방	-11.1969
▁흐려지	-11.1969
▁낙이	-11.1969
▁밑바닥	-11.1969
▁베란다	-11.1969
▁서비스	-11.1969
▁어딘가	-11.1969
▁험담	-11.1969
▁현관문	-11.1969
▁혼란스럽	-11.1969
▁힘겨	-11.1969
닷	-11.1969
옵	-11.1969
▁데려달라고	-11.1969
▁떨어뜨려	-11.1969
▁메시지	-11.1969
▁예측	-11.1969
▁일반인	-11.1969
▁주인공	-11.1969
▁예쁠	-11.1969
▁힘이드네	-11.1969
▁낭만이	-11.1969
▁주워담	-11.1969
▁표출	-11.1969
블루	-11.1969
▁투잡	-11.1969
▁현명	-11.1969
▁자극이	-11.1969
그램	-11.1969
▁불가능	-11.1969
▁관찰	-11.197
▁육체	-11.197
▁도저히	-11.197
▁비참한	-11.197
▁공황	-11.197
▁안타까워	-11.197
▁뒤돌아	-11.197
▁비참해	-11.197
▁씨씨	-11.197
▁대학교	-11.197
▁환경	-11.197
▁바람둥이	-11.197
▁스릴있	-11.197
▁자유여행이	-11.197
▁놀이터에	-11.197
▁숙취	-11.197
▁힘드셨	-11.197
▁간섭	-11.197
▁떠올라	-11.197
둬야	-11.197
▁예랑이	-11.197
▁체력	-11.197
▁카공	-11.197
▁깜빡거려	-11.197
▁단톡에	-11.197
▁초조해	-11.197
▁빼앗	-11.197
▁창문	-11.197
▁충실하	-11.197
▁정열적	-11.197
▁갈등	-11.197
▁친군	-11.197
더군	-11.197
▁계획적이	-11.197
▁사로잡	-11.197
▁태그	-11.197
▁숨쉬	-11.197
▁욜로	-11.197
▁병행	-11.197
▁오랜연애	-11.197
▁환심	-11.197
게되네	-11.197
▁찬물	-11.197
▁미안하대	-11.197
▁떨어짐	-11.197
▁재설계	-11.197
았더니	-11.197
▁스노	-11.197
▁곤두	-11.1971
▁생일선물	-11.1971
▁경향	-11.1971
▁도와준	-11.1971
베리	-11.1971
울컥	-11.1971
▁불순	-11.1971
▁짜증남	-11.1971
▁하객	-11.1971
▁혼밥	-11.1971
용품	-11.1971
▁태어났을까	-11.1971
▁뒤숭숭하네	-11.1971
▁끝인거겠죠	-11.1971
▁잊혀진	-11.1971
▁투성이	-11.1971
▁환장	-11.1971
▁서핑	-11.1972
하우스	-11.1972
▁찬성	-11.1972
▁갈궈	-11.1972
▁올랐어	-11.1972
▁갑작스러웠	-11.1972
▁저렴	-11.1972
▁가벼워질	-11.1972
설계	-11.1972
▁공복이	-11.1972
▁휴유증	-11.1972
▁유명	-11.1973
▁심각	-11.1973
▁바나나	-11.1973
▁탈출구	-11.1973
▁쳐다보	-11.1973
▁이끌어	-11.1973
▁구박하	-11.1973
▁심남	-11.1973
▁되돌아보	-11.1973
▁계약	-11.1973
▁미끄러질	-11.1973
▁깨짐	-11.1973
▁난처	-11.1973
▁잊고싶다	-11.1973
▁치마	-11.1974
▁배워가는	-11.1974
▁내딛	-11.1974
▁아휴	-11.1974
▁헷갈려	-11.1974
▁어울릴까	-11.1974
▁신기하	-11.1974
▁감수성	-11.1974
▁예정	-11.1974
▁스쳐	-11.1974
▁보여드리	-11.1974
지나갑니다	-11.1975
▁진담	-11.1975
▁쉬었다	-11.1975
바구니	-11.1975
▁호구	-11.1975
▁속아주	-11.1975
▁경제	-11.1976
▁스케	-11.1976
▁11	-11.1976
▁분양	-11.1976
▁천국	-11.1976
▁정리되길	-11.1976
▁보인다	-11.1976
▁단단해지	-11.1976
▁유료	-11.1976
▁정리했습니다	-11.1976
준비하는방법	-11.1976
▁위안	-11.1977
▁떠나보내	-11.1977
▁숨막히	-11.1977
▁심난	-11.1977
▁공휴일에	-11.1977
▁백수	-11.1977
▁소용	-11.1977
▁정신병	-11.1978
▁찍었네	-11.1978
▁식혀	-11.1978
▁문제인가요	-11.1978
▁대학원	-11.1978
▁계신	-11.1979
▁효과	-11.1979
▁사과해야	-11.1979
▁연락했습니다	-11.1979
▁취소	-11.198
▁부팅	-11.198
▁술자리	-11.198
▁배워볼까	-11.198
▁한눈	-11.198
▁회의감	-11.198
▁식사	-11.1981
▁거둬	-11.1981
▁보름	-11.1981
▁사무	-11.1981
▁구매	-11.1981
▁연하	-11.1981
▁무너졌어	-11.1982
▁바닥	-11.1982
▁꿈꾸	-11.1982
▁귀여운	-11.1982
▁봤습니다	-11.1983
▁사회에서	-11.1983
▁벌레	-11.1983
▁고백했다	-11.1984
▁공통점	-11.1984
▁돌아간	-11.1984
이브	-11.1984
▁잘살고	-11.1984
▁돌아다니	-11.1985
▁당사자만	-11.1985
▁바람피	-11.1985
▁사라질까	-11.1985
▁알게되면	-11.1985
▁양치	-11.1985
겁니다	-11.1985
▁느껴질	-11.1985
님들	-11.1985
▁결혼생활	-11.1987
오르네	-11.1987
▁되어가네	-11.1987
▁안되는건가	-11.1987
▁기다렸나봐	-11.1987
▁공부방법	-11.1988
▁추스리	-11.1988
▁문화	-11.1988
▁달라질	-11.1989
▁하셔	-11.1989
▁구별	-11.1989
▁자장면이	-11.199
▁난방비	-11.199
▁취직이나	-11.1991
▁배려해야	-11.1992
▁일주일이네	-11.1993
▁편안해질	-11.1994
▁엇갈리	-11.1995
방비	-11.1995
▁노답이	-11.1996
▁않으셨	-11.1996
▁한달반	-11.1996
빛으로	-11.1998
▁퇴근길	-11.1998
▁무리일까	-11.1998
▁매정	-11.1999
▁피해자	-11.1999
▁그쪽	-11.1999
▁식었어	-11.1999
▁전학가	-11.2
▁모여	-11.2
▁밀려오	-11.2002
▁사랑했으니	-11.2002
렸으	-11.2002
▁안오지	-11.2003
▁여기까지였나	-11.2004
▁퇴근길에	-11.2005
주의	-11.2005
▁끌지	-11.2005
▁지쳤어	-11.2006
▁부러	-11.2007
▁올려봅니다	-11.2007
▁물건들	-11.2008
▁나온대	-11.2008
▁필요한가요	-11.2008
▁갈구	-11.2009
▁미운	-11.201
▁솔로인	-11.201
침해	-11.2011
▁속상할거	-11.2011
▁커플여행	-11.2013
▁생일이야	-11.2014
▁오랜만	-11.2016
▁살았는데	-11.2017
▁쟁취하는	-11.2018
올랐다	-11.2019
▁편하대	-11.202
▁데려다주려	-11.2021
▁졸라	-11.2022
▁가고싶다	-11.2022
▁정리해야할	-11.2023
▁흘렀는데	-11.2023
▁무섭네	-11.2024
▁어쩔수없	-11.2025
▁내려놓고	-11.2025
▁허기	-11.2026
▁연락오네	-11.2027
▁신경쓰인	-11.2027
▁질문이	-11.2027
▁이것만	-11.2028
지는것	-11.2028
▁어디가지	-11.203
▁쓰리	-11.203
▁판단력	-11.203
로그	-11.2031
▁멋있어	-11.2032
▁요청	-11.2032
▁분에게	-11.2032
차이	-11.2034
소음	-11.2034
▁안되겠죠	-11.2036
▁처음이라	-11.2036
▁발라	-11.2036
▁소식에	-11.2037
▁찾으	-11.2038
▁공기	-11.2039
▁여기까지였	-11.204
▁산다	-11.2041
▁생생한	-11.2041
▁하트	-11.2041
▁누구냐	-11.2042
었네	-11.2042
▁받으셨	-11.2042
▁괴롭다	-11.2042
▁채우	-11.2043
▁전화하기	-11.2043
▁멀어진다는	-11.2043
▁묻어두는	-11.2044
▁많으시	-11.2045
▁찾은	-11.2047
▁서울	-11.2047
▁얘기하지	-11.2047
▁보셨나	-11.2047
▁깨어	-11.2049
▁보임	-11.2049
▁속시원해	-11.205
▁적당해	-11.205
올려봐	-11.205
그여자	-11.205
실에	-11.2051
▁되돌	-11.2051
▁깨진	-11.2054
▁이겨	-11.2055
▁깔끔한	-11.2055
순수한	-11.2055
▁역시나	-11.2056
▁할말	-11.2058
▁특히	-11.2058
▁만져	-11.2059
▁지냈나	-11.2065
▁성숙해지	-11.2065
▁정리하려고	-11.2066
▁후련해	-11.2071
▁벌려	-11.2071
마시며	-11.2071
▁효도	-11.2072
▁예고	-11.2075
화가나네	-11.2077
▁돌려보	-11.2078
▁작아지	-11.208
▁귀엽죠	-11.2081
▁선물해	-11.2082
▁이번달	-11.2086
▁감당이	-11.2086
페이	-11.2086
▁무거	-11.2087
기사	-11.2093
▁욕하는	-11.2094
▁맞는거	-11.2098
▁잘자요	-11.2101
▁흘렸	-11.2102
▁고집	-11.2102
▁약해지	-11.2104
▁가을이	-11.2107
▁본거	-11.2107
▁직업이	-11.2107
▁열까지	-11.2108
▁좋겠습니다	-11.2108
▁아는거	-11.2109
▁동거하다	-11.211
▁모임에	-11.2113
▁궁금해하지	-11.2114
▁내려놓기	-11.2115
▁힘들어져	-11.2115
되어있는	-11.2117
▁마라	-11.2117
일뿐	-11.2119
식을	-11.2122
로워	-11.2123
▁둘다	-11.2128
▁이러고	-11.2128
▁아려	-11.2131
▁깨졌	-11.2132
▁둔한	-11.2133
▁말하면	-11.2134
▁지웠	-11.2135
▁누락됐	-11.2137
▁남았어	-11.2138
받았다	-11.2139
▁걸었어	-11.2139
▁없습니다	-11.214
▁자라	-11.2144
▁놔주	-11.2145
▁무뎌지는	-11.2147
▁날려	-11.215
마트	-11.215
▁대리	-11.215
▁꼼꼼한	-11.2164
▁치우	-11.2166
▁죽는	-11.2169
▁끝나네	-11.2172
때리는	-11.2172
▁친구로서	-11.2174
▁지날	-11.2175
채나	-11.218
▁상황인	-11.218
▁집착하지	-11.2181
있나	-11.2181
▁받는다는	-11.2182
▁수학여행가	-11.2182
▁꿨	-11.2184
▁마음가는	-11.2191
다녀야	-11.2195
▁썸타다	-11.2195
▁불금이	-11.2197
▁생겼나봐	-11.22
▁오래타	-11.2201
▁이상하지	-11.2203
▁가는거	-11.2205
▁포기하지	-11.2214
▁공개해	-11.2216
▁돌아오는	-11.222
▁아닌가	-11.2221
▁채워보세요	-11.2225
▁할까요	-11.2227
▁나오는	-11.2233
일수	-11.2237
▁멍청	-11.2241
▁귀찮게	-11.2244
▁지나고	-11.2244
▁나들이	-11.2245
▁골랐	-11.2247
▁자다	-11.225
▁청춘이	-11.225
▁생각일까	-11.2251
▁앞서	-11.2252
▁철벽이	-11.2252
▁저주	-11.2256
들겠지	-11.2264
▁저음이	-11.2266
▁누구야	-11.227
▁부족	-11.2278
▁포기하	-11.2278
▁안나나	-11.2281
▁못잊겠	-11.2281
▁소원이	-11.2284
끔하	-11.2291
▁되어가	-11.2295
한걸까	-11.2302
감한	-11.2305
들지	-11.231
▁죽고싶	-11.2312
▁만들죠	-11.2313
▁허락하	-11.2318
▁접은	-11.2318
▁긍정적이	-11.2322
▁대단해	-11.2332
▁상처받아	-11.2341
▁해외여행가	-11.2344
▁경험해	-11.2354
▁농구하	-11.2359
▁될수	-11.2364
▁웃기	-11.2365
▁아니었	-11.2369
▁힘드시	-11.2374
▁성	-11.238
시간만큼	-11.2383
▁안갈	-11.2385
▁준비해	-11.2386
▁애인이	-11.2393
▁표현에	-11.2393
려는	-11.2401
▁내맘같	-11.2404
▁싫어할까	-11.2418
▁썸인가요	-11.2418
▁것일까	-11.2426
▁사람하고	-11.2426
▁뭐지	-11.2437
▁즐	-11.2445
와주	-11.2446
▁그럴까요	-11.2455
▁해보면	-11.2462
▁넘었	-11.2463
거든	-11.2463
장소에	-11.2471
▁지워지	-11.2473
▁효	-11.2474
▁비우	-11.2479
▁'	-11.2481
▁사람이었어	-11.2487
▁상처받는	-11.2493
▁털	-11.2494
▁줘야	-11.2495
▁찍은	-11.2496
▁나가지	-11.2497
심이	-11.2498
▁막막하	-11.2507
▁힘든가	-11.251
▁무서	-11.2511
▁복전	-11.2515
들지만	-11.2518
▁오나봐	-11.2535
였는	-11.2545
좋아하는	-11.2554
▁크겠	-11.2554
▁짝사랑에서	-11.2559
▁한마디	-11.2559
▁쭉	-11.2575
▁협	-11.2575
▁깜빡	-11.2576
▁총회	-11.2578
▁불쑥	-11.2578
상일	-11.2579
▁변해가는	-11.2579
▁김치	-11.2579
▁100	-11.2581
▁백업해	-11.2585
▁날짜	-11.2586
▁뜻밖	-11.2588
▁답답하	-11.2588
▁자만	-11.2594
▁할인	-11.2595
▁불안한	-11.2602
▁직구	-11.2603
▁가라	-11.2606
▁시급	-11.2607
▁죽겠다	-11.261
▁깨질	-11.261
지시	-11.2612
▁비용	-11.2613
▁수면	-11.2613
해버렸네	-11.2618
▁가시	-11.2622
~~~	-11.2625
▁입을까	-11.2626
▁추가	-11.2636
▁갠톡	-11.2642
동을	-11.2643
▁동기	-11.2647
▁펴	-11.2659
▁숨기	-11.2663
▁나이들	-11.2665
▁휴학	-11.2665
어이가	-11.2673
▁변하니	-11.2678
▁사귄지	-11.2682
였던	-11.2682
셨네요	-11.2683
▁끊었	-11.2685
▁나갈까	-11.2685
▁바람난	-11.2695
▁보는데	-11.2696
근거	-11.2696
▁김	-11.2707
직하	-11.2711
▁의지하	-11.2711
▁일과	-11.2713
▁붙는	-11.2714
▁했는	-11.2716
끝이네	-11.2723
▁비오	-11.2727
▁감정들	-11.2758
▁오래가	-11.2767
▁미루	-11.2774
▁보내세요	-11.2778
었나요	-11.2791
쳐버리	-11.2799
성이	-11.2803
▁갑니다	-11.2812
▁너와	-11.2817
▁무지	-11.2817
했다면	-11.282
난거	-11.2821
장이	-11.2823
▁너랑	-11.2828
▁상관이	-11.2829
▁나름	-11.2831
▁전까지	-11.2832
보이	-11.2836
▁이야기하고	-11.2837
▁넘어	-11.2838
소식을	-11.2841
▁못하네	-11.2848
▁해결해	-11.2851
▁아파서	-11.2852
▁알았다	-11.2858
해본	-11.2862
▁백	-11.2883
▁기다리다	-11.2887
▁데려다줬	-11.2902
▁저기	-11.2912
▁병이	-11.2918
었지	-11.292
상했	-11.2933
▁수준	-11.2936
같죠	-11.2938
▁멍청한	-11.2941
물이	-11.2958
▁이혼이	-11.2964
▁만들까	-11.2976
▁심하네	-11.2986
▁말라	-11.2991
▁찾았	-11.2993
▁시간이었	-11.3001
▁중독인	-11.3015
▁마셨어	-11.3019
▁익숙함이	-11.3021
▁태도에	-11.3024
▁사랑합니다	-11.3044
방에	-11.3097
▁입어보	-11.3103
▁해줄까	-11.3109
학원	-11.3118
▁끝이났	-11.312
▁그러다	-11.3129
▁행동을	-11.313
간의	-11.3136
▁되었는	-11.3149
▁욕을	-11.315
▁받아줄	-11.3151
▁챙겨줘	-11.3151
▁되는건	-11.3153
▁쓸쓸하	-11.3156
▁개인적	-11.3165
▁잘자	-11.3166
▁울면	-11.3179
라더니	-11.3181
해주	-11.3191
▁꿨는	-11.3192
▁다른데	-11.3193
▁그에게	-11.3203
년하고	-11.3209
▁일인가봐	-11.3215
▁남나	-11.3227
애니	-11.3233
다는것	-11.3252
▁만족해	-11.327
불가	-11.3278
▁힘든거	-11.328
현	-11.3291
▁찾아왔	-11.3293
▁나오겠	-11.3297
▁피나	-11.3324
▁시간이었을	-11.3326
들어도	-11.3336
부네	-11.3343
▁정리했	-11.3369
▁극복해	-11.3371
▁우정이	-11.3393
▁추억들	-11.3394
다니기	-11.3399
▁오락가락하	-11.3408
일이네	-11.3408
사드리	-11.3418
여의	-11.3419
돼야	-11.3432
▁살만	-11.3434
▁떠나요	-11.3437
▁날이었	-11.3456
▁비만	-11.3457
▁끝나버	-11.3474
그런건가	-11.3476
▁보였	-11.3503
▁티나	-11.3507
보러가	-11.3518
▁날에	-11.3522
▁마주	-11.3523
▁흐르면	-11.3538
▁놓았	-11.3566
▁연락오	-11.3584
▁보기만	-11.3605
가보는	-11.361
자나	-11.3614
▁죽었	-11.3618
▁산책하	-11.3631
▁나라	-11.3636
▁놓아줬	-11.3639
▁결국은	-11.3645
▁입는	-11.3658
▁따르	-11.3673
▁기네	-11.3674
▁연애중	-11.3683
▁충	-11.3688
▁즐겨	-11.3691
▁해줄	-11.3696
▁솔	-11.3698
▁그랬을	-11.3717
우선이	-11.3718
▁내년	-11.3725
▁탈출	-11.3726
▁못나	-11.3726
▁틈	-11.3734
▁꾸미	-11.3743
말이라	-11.3757
▁들을	-11.3758
▁악	-11.3762
▁낼	-11.3774
안된다	-11.3782
민	-11.3787
▁잔소리해	-11.3789
비해	-11.3819
▁지금이	-11.3842
▁버려야지	-11.3845
▁게임하	-11.3845
분인	-11.3889
▁해야하는	-11.3906
▁애인	-11.3915
웃으	-11.3917
▁본다	-11.3923
▁개같	-11.3924
거겠지	-11.3936
버렸습니다	-11.3939
야할지	-11.395
▁않다	-11.3961
아무일	-11.3975
▁날이네	-11.3979
질거	-11.3982
안나	-11.3998
▁끼	-11.3999
▁메	-11.4001
달래	-11.4032
▁올려달	-11.4032
▁지속해	-11.4036
▁동물이	-11.4047
어지고	-11.4052
보고싶네	-11.4063
▁중독인가	-11.4077
▁껴	-11.4088
픈	-11.4119
자리	-11.4126
기면	-11.4137
있니	-11.414
▁얼어	-11.4147
안됐네	-11.4172
낀	-11.4185
▁이별이에요	-11.4187
세포	-11.4195
▁아픈가	-11.42
▁실망하	-11.4216
붙	-11.4219
▁다르니	-11.422
▁어렵겠지	-11.4222
▁깎아	-11.4228
껴	-11.4238
▁연락해봐	-11.4241
▁잔인	-11.4246
▁저만	-11.4251
▁끝이라	-11.4263
같지	-11.4268
▁만족하	-11.4272
키스	-11.4278
▁다되가	-11.4286
방향	-11.4292
빙	-11.4295
패	-11.4304
끌	-11.4314
▁지속	-11.4321
축	-11.4344
기름	-11.4345
하지마	-11.4347
되기	-11.4347
학원에	-11.4352
▁신고	-11.4355
▁이주	-11.4357
되가는데	-11.4382
▁언	-11.4387
▁응원해	-11.4391
▁부족했	-11.4437
주차	-11.4438
으면서	-11.444
▁오늘로	-11.4456
잘	-11.4456
▁이기	-11.4462
▁준비하면	-11.4476
▁괜찮아졌다	-11.4477
간대	-11.4479
▁상처받았	-11.4482
가왔습니다	-11.4492
▁두려운	-11.4495
▁검색해	-11.4496
▁집앞에	-11.4502
▁사이라	-11.4509
잘라	-11.4513
▁이별할	-11.4514
▁토	-11.4516
▁제자리걸음	-11.4518
▁알바하면	-11.4519
▁비교	-11.4519
것에	-11.4519
▁속이는	-11.4523
▁사랑하세요	-11.4532
▁판	-11.455
▁극	-11.4563
늘	-11.4568
해봤어	-11.4575
▁달라졌	-11.4578
▁집앞	-11.458
생각입니다	-11.4583
악	-11.4584
집에	-11.4586
▁있었지	-11.459
랐나봐	-11.4598
떡	-11.4605
▁서점에	-11.4606
버려야지	-11.4606
꾸미	-11.4608
▁출	-11.4612
▁준다	-11.4613
틈	-11.4616
워야	-11.4623
솔	-11.4628
탈출	-11.463
나쁜건지	-11.463
스러울	-11.4641
해야하나	-11.4643
충	-11.4645
사정	-11.4648
▁즐겨보	-11.4665
▁헤어지자네	-11.4666
▁좋아했	-11.4675
견	-11.4675
입	-11.469
따르	-11.4692
벽	-11.4695
▁할지	-11.4709
죽겠	-11.4717
▁앞이	-11.4719
▁가까워	-11.4722
액	-11.4723
주저리	-11.4733
▁공시생	-11.4734
있겠죠	-11.4735
센	-11.4736
촬영	-11.4736
퍼	-11.4741
버렸네	-11.4748
▁위험할	-11.475
▁했었	-11.4752
붙였	-11.4757
키	-11.476
골	-11.4765
손잡	-11.4767
학생	-11.4768
휴	-11.4773
있네	-11.4777
▁운명적	-11.4778
있다	-11.4786
있는데	-11.4786
자리에	-11.4788
▁초대해	-11.4789
끝	-11.4791
감각	-11.4803
됐	-11.4804
없네	-11.4805
소모	-11.4806
미팅	-11.4806
타는	-11.4807
단점	-11.481
있었는데	-11.4811
▁교회에	-11.4811
태	-11.4812
나쁘	-11.4821
그런	-11.4823
밀어	-11.4825
웃	-11.4827
▁아프겠	-11.4828
시키	-11.4828
▁미끄러	-11.4829
▁반응해	-11.4832
▁사랑해줘	-11.4836
부려	-11.4837
헤	-11.4837
먼	-11.4838
▁할수	-11.4839
세우	-11.4841
▁시간이었겠	-11.4843
▁로맨틱해	-11.4844
▁인정해야	-11.4845
끝났네	-11.4845
미	-11.485
다보니	-11.4857
육아	-11.4858
꿨	-11.4863
진짜	-11.487
▁하려면	-11.4871
케이스	-11.4873
찌	-11.4882
짠	-11.4883
했을	-11.4883
값이	-11.4884
눈	-11.4886
순간	-11.4889
▁줄어	-11.4889
▁틀어	-11.489
자격증	-11.4894
쓸	-11.4896
패턴	-11.4897
달만에	-11.4901
열	-11.4903
나올	-11.4903
했습니다	-11.4903
코스	-11.4907
선의	-11.4908
초대	-11.491
무슨	-11.4914
아파	-11.4918
땅	-11.4919
▁간단	-11.4919
반복	-11.4919
아플	-11.492
노래방	-11.4926
따	-11.4929
▁거지같	-11.4929
▁친구같	-11.4933
철	-11.4934
앞에	-11.4935
됐습니다	-11.4936
뿌	-11.4937
들은	-11.4937
사귄	-11.4938
넌	-11.494
인사	-11.4942
일지	-11.4942
좋을까	-11.4946
전과	-11.4947
조절	-11.495
문제	-11.4954
빼	-11.4957
싸	-11.4958
시작이	-11.4963
생각나네	-11.4964
▁나에	-11.4964
모두	-11.4966
쇼핑	-11.4966
경우	-11.4968
쉬	-11.4968
감정	-11.497
눈물	-11.4971
미리	-11.4976
날씨	-11.4978
딱	-11.498
늦	-11.4982
6	-11.4983
큰	-11.4984
들었어	-11.4986
해가	-11.4988
갖	-11.4991
차단	-11.4996
문자	-11.5006
됐으면	-11.5006
▁데이트하기	-11.5009
듣고	-11.5013
▁기다려보	-11.5024
고민	-11.5027
▁우정	-11.5033
▁해보	-11.5033
▁가입	-11.5033
▁맞춰보	-11.5043
▁잊어볼	-11.5045
▁기억나	-11.5051
▁빈	-11.5051
▁길에	-11.5053
▁버림	-11.506
린대	-11.506
화가	-11.5067
▁보름달	-11.5067
▁S	-11.5071
▁팩	-11.5071
알	-11.5074
쓰는	-11.5075
스타일이	-11.508
▁볶	-11.5092
▁쪽	-11.5106
▁연락하고싶어	-11.5107
어린	-11.5113
심리	-11.5132
보이는	-11.5134
▁빛	-11.5134
백한다	-11.514
▁거기	-11.514
어진다	-11.5141
는걸	-11.5144
▁침	-11.5151
같았	-11.5154
위로	-11.5155
▁미워해	-11.5161
돌이	-11.5161
▁절친	-11.5167
▁익숙해지는	-11.5177
소리	-11.5177
▁고백이	-11.5197
어지지	-11.5208
집에서	-11.5211
달렸나봐	-11.5229
▁나빠졌	-11.5237
서점에	-11.5247
▁공허	-11.5256
랑이	-11.5258
▁헬스장	-11.5265
▁치맥	-11.5269
달에	-11.5276
가지만	-11.5276
보내	-11.5278
▁쓸쓸	-11.5287
▁싸움이	-11.5303
신하	-11.5311
▁익숙해	-11.5343
나온	-11.5346
좋은건	-11.535
후폭풍	-11.5371
마셔	-11.5374
약이	-11.538
▁당당	-11.5382
▁귀엽다	-11.5385
인다	-11.5387
▁부여	-11.5399
▁비가오	-11.541
▁나날	-11.5421
▁유지	-11.5426
워보	-11.543
곳에	-11.5434
▁붙잡으	-11.5446
당하기	-11.5448
마시러	-11.5454
▁것일	-11.5455
▁잘하	-11.5456
정적	-11.5469
놓으	-11.5477
고쳐	-11.552
어보고	-11.5522
▁과에	-11.553
움이	-11.5536
▁배려해	-11.5557
▁바쁘네	-11.5561
▁알아줄	-11.5572
▁어디가	-11.5573
▁착각하	-11.5577
▁물리	-11.558
러운	-11.5593
▁힘내라	-11.5597
▁칭찬해	-11.5598
▁찾	-11.5606
▁영화보	-11.5611
▁밥이	-11.5643
▁존재하	-11.566
▁듣고싶	-11.5669
기운을	-11.5678
▁안정	-11.5683
▁행복했	-11.5688
버렸	-11.5706
나가나	-11.5723
한가봅니다	-11.573
다네	-11.5738
▁연락올	-11.574
▁찾아가보	-11.5742
혔어	-11.5763
▁순수	-11.5764
▁털어	-11.5772
▁적을	-11.5772
▁번이	-11.5791
▁아무는	-11.5794
하셨나	-11.5809
된다는	-11.5828
기네	-11.5832
▁기억들	-11.584
든다	-11.5849
▁그런건	-11.5875
▁사랑만	-11.5887
전부	-11.5923
이냐	-11.5928
▁흔적이	-11.5938
▁착해	-11.5943
▁서점	-11.5964
시는	-11.5972
▁잊어버리는	-11.5981
그치	-11.6007
지금	-11.6017
▁나오지	-11.6041
하고있어	-11.6048
▁허무하	-11.6076
▁싫어하나	-11.6087
▁모르니	-11.6108
▁못잊는	-11.6113
▁답인	-11.6121
겟	-11.613
이였어	-11.6139
▁갖는	-11.6144
▁복전하	-11.6163
▁탈이	-11.617
▁바라보	-11.6176
사고	-11.6183
어리	-11.6186
▁회	-11.6197
▁조심해야	-11.6221
▁차이일	-11.6236
▁에이	-11.6252
▁대상	-11.6255
▁생각났	-11.6261
▁요구하	-11.6264
▁성숙	-11.6283
▁없다가	-11.6285
리세요	-11.6287
온대	-11.6294
▁머	-11.6314
▁나았	-11.6316
기간	-11.6329
못하겠어	-11.6338
▁들어보	-11.6349
▁비워	-11.6361
하더라고요	-11.6361
이런	-11.6362
▁작	-11.6367
▁그만둬	-11.6377
진지	-11.6378
▁시간인가	-11.6395
▁돌보	-11.6414
▁아프니	-11.643
사이	-11.643
어져	-11.6439
▁애석	-11.6444
▁지키	-11.6451
▁약인	-11.6462
표	-11.6467
▁행복하지	-11.6474
▁높이	-11.648
▁만한	-11.6485
못하는	-11.6492
▁말해야	-11.6496
▁꿈이었	-11.6513
▁엉	-11.6521
▁변해가	-11.6537
▁선물해주	-11.6539
▁내려놓	-11.6539
폭풍	-11.6554
▁이어나가	-11.6565
나긴	-11.6572
내려고	-11.6579
▁뒀	-11.6588
▁잘생겼	-11.6598
▁오겠	-11.6602
▁예뻐해	-11.6611
나보네	-11.6615
▁불금	-11.6627
▁수학여행	-11.6631
증이	-11.6634
▁싫어해	-11.6653
상해	-11.6654
▁결혼하는	-11.6657
▁꼼꼼	-11.6659
▁현금	-11.6664
▁매달	-11.6668
▁하고싶은	-11.6674
생긴	-11.6681
냈	-11.669
▁원하	-11.6694
▁멀어	-11.6699
인데요	-11.6703
해하지	-11.6704
▁잘지내고	-11.673
▁축하	-11.673
어야죠	-11.6734
▁잊지마	-11.6737
을까요	-11.6746
▁안할	-11.6747
▁직업	-11.675
젠	-11.675
▁사람이었	-11.6752
전할	-11.6758
▁달려	-11.6761
▁현실에	-11.6772
픈데	-11.6776
▁깨달	-11.6789
▁보내보	-11.6796
보낼	-11.6797
▁불타	-11.6797
▁감정적	-11.6804
고프다	-11.681
▁잊혀져	-11.6821
루	-11.6825
▁여행가고	-11.6825
전이	-11.6835
▁놀랐겠	-11.6839
▁익숙	-11.684
▁늙어	-11.684
▁표현할	-11.6841
▁반가워	-11.6846
▁구멍	-11.6852
▁그나	-11.6853
▁아파하	-11.6858
▁주니	-11.6864
▁말아보	-11.6866
▁약해	-11.6879
▁부질없	-11.6883
▁성덕	-11.6883
▁머릿	-11.6883
▁아쉬움	-11.6884
▁관리해	-11.6884
▁스테	-11.6888
▁질문	-11.689
▁쟁취하	-11.689
십	-11.6895
▁채	-11.6897
▁낫겠	-11.6916
▁떨어졌	-11.6916
쁜	-11.6918
▁생각하세	-11.6923
▁도망	-11.6929
싹	-11.6931
▁두셨	-11.6934
하자는	-11.6938
▁추스	-11.6941
▁당사자	-11.6944
▁다했다	-11.6945
▁어쩔수	-11.6946
▁스타	-11.6952
혔	-11.6955
▁무너졌	-11.6957
▁구별해	-11.6957
듭	-11.6959
녀야	-11.6959
▁다녀오	-11.696
▁괴로	-11.696
▁자유로워	-11.6963
귄	-11.6963
킨	-11.6965
▁뒤숭숭	-11.6966
컥	-11.6967
쩌	-11.6967
첨	-11.6968
▁어울릴	-11.6968
쑥	-11.6968
앗	-11.6968
끗	-11.6968
▁희생	-11.6969
찢	-11.6969
해주고싶	-11.6969
뚝	-11.6969
▁핸드	-11.6969
졋	-11.6969
몽	-11.6969
▁대충	-11.6969
텔	-11.6969
익	-11.6969
댓	-11.6969
;	-11.6969
▁비행기	-11.6969
덩	-11.6969
웽	-11.6969
▁기뻐해	-11.6969
흡	-11.6969
▁40	-11.6969
▁걷는	-11.6969
▁곱씹	-11.6969
▁그리웠나	-11.6969
▁눌러	-11.6969
▁들이댔	-11.6969
▁부딪혀	-11.6969
▁북받쳐	-11.6969
▁사투리	-11.6969
▁삼주	-11.6969
▁엿같	-11.6969
▁젖어	-11.6969
▁풍부	-11.6969
▁황당하	-11.6969
%	-11.6969
O	-11.6969
P	-11.6969
X	-11.6969
c	-11.6969
▁감정컨트롤	-11.6969
▁개당황	-11.6969
▁거리두기	-11.6969
▁건강검진	-11.6969
▁겉모습	-11.6969
▁고시생	-11.6969
▁괘씸하	-11.6969
▁교직이수	-11.6969
▁기획사	-11.6969
▁김치볶음밥	-11.6969
▁꽝이	-11.6969
▁끝냈습니다	-11.6969
▁낙엽	-11.6969
▁날카로워	-11.6969
▁낫네	-11.6969
▁논문	-11.6969
▁답변	-11.6969
▁돌싱	-11.6969
▁돌아섰	-11.6969
▁뜬금	-11.6969
▁렌즈	-11.6969
▁맞은	-11.6969
▁멀미	-11.6969
▁모태솔로	-11.6969
▁무뚝뚝해	-11.6969
▁뭘해야	-11.6969
▁밉다	-11.6969
▁변했	-11.6969
▁불꽃	-11.6969
▁불륜	-11.6969
▁뽑아	-11.6969
▁삐져	-11.6969
▁사겼는데	-11.6969
▁삼가	-11.6969
▁상견례	-11.6969
▁샐러드	-11.6969
▁서툴어	-11.6969
▁섣부르	-11.6969
▁소극적	-11.6969
▁소풍	-11.6969
▁숏컷	-11.6969
▁쉽지않	-11.6969
▁스몰웨딩	-11.6969
▁스킨쉽	-11.6969
▁시켰	-11.6969
▁실험실	-11.6969
▁싫었는데	-11.6969
▁쌍커풀	-11.6969
▁쌓이	-11.6969
▁씻기	-11.6969
▁아쉽지	-11.6969
▁안돌아오나	-11.6969
▁엊그	-11.6969
▁예식장	-11.6969
▁웨딩	-11.6969
▁웨딩드레스	-11.6969
▁위로받	-11.6969
▁은퇴후	-11.6969
▁의사표시	-11.6969
▁익숨함	-11.6969
▁인형뽑기	-11.6969
▁일반화	-11.6969
▁재택근무	-11.6969
▁죄송해	-11.6969
▁중소기업	-11.6969
▁쥐꼬리	-11.6969
▁지옥이네	-11.6969
▁짱나	-11.6969
▁찔러	-11.6969
▁찾아갔습니다	-11.6969
▁춘곤증인가	-11.6969
▁취뽀	-11.6969
▁카풀	-11.6969
▁컨트롤	-11.6969
▁클스마스	-11.6969
▁탓인지	-11.6969
▁텅비	-11.6969
▁퇴사	-11.6969
▁편식	-11.6969
▁포근포근	-11.6969
▁풀었	-11.6969
▁피어싱	-11.6969
▁헌팅	-11.6969
▁호박씨	-11.6969
▁화풀이	-11.6969
▁확실해졌	-11.6969
▁황당해	-11.6969
▁후련해졌	-11.6969
걍	-11.6969
귤	-11.6969
깃	-11.6969
꽂	-11.6969
꿩	-11.6969
넛	-11.6969
넥	-11.6969
넹	-11.6969
녔	-11.6969
뇨	-11.6969
눴	-11.6969
닭	-11.6969
뚱	-11.6969
띰	-11.6969
랭	-11.6969
렉	-11.6969
룰	-11.6969
룸	-11.6969
룽	-11.6969
메이크업	-11.6969
밭	-11.6969
벨	-11.6969
벴	-11.6969
뵈	-11.6969
붓	-11.6969
뷔	-11.6969
빽	-11.6969
뻤	-11.6969
뽀송	-11.6969
뽕	-11.6969
뿅	-11.6969
삔	-11.6969
섯	-11.6969
섹	-11.6969
솜	-11.6969
쇠	-11.6969
쑤	-11.6969
씰룩	-11.6969
왼	-11.6969
웁	-11.6969
윙	-11.6969
잊기싫은	-11.6969
잊혀지려	-11.6969
젝	-11.6969
조언부탁	-11.6969
줍	-11.6969
즙	-11.6969
짤	-11.6969
층	-11.6969
컷	-11.6969
템	-11.6969
▁가르쳐	-11.6969
▁반배정	-11.6969
▁정동진	-11.6969
▁갱신	-11.6969
▁관절염	-11.6969
▁금사빠	-11.6969
▁깜깜	-11.6969
▁동문서답	-11.6969
▁두근두근	-11.6969
▁드러내	-11.6969
▁들켰	-11.6969
▁무뎌졌	-11.6969
▁식욕폭발	-11.6969
▁쌓아	-11.6969
▁애키우	-11.6969
▁은퇴해야	-11.6969
▁잠겼	-11.6969
▁조명빨	-11.6969
▁주눅들	-11.6969
▁허전해	-11.6969
닦	-11.6969
징글	-11.6969
▁말았네	-11.6969
▁못믿겠	-11.6969
▁일반적이	-11.6969
▁쿨하	-11.6969
딨	-11.6969
쥬	-11.6969
하소연	-11.6969
▁고구마	-11.6969
▁조교하면	-11.6969
▁진부한	-11.6969
▁처량하	-11.6969
▁행동일수도	-11.6969
빌어먹을	-11.6969
▁거슬려	-11.6969
▁괴로웠을	-11.6969
▁존경	-11.6969
뮤	-11.6969
오른다	-11.6969
▁감미로	-11.6969
▁입소문	-11.6969
▁허무해	-11.6969
▁견딜	-11.6969
▁식도염	-11.6969
;;	-11.6969
▁이별하신	-11.6969
년동거	-11.6969
▁넘어질뻔	-11.6969
▁씨앗	-11.6969
걸레질	-11.6969
▁유세부	-11.6969
▁쳐다봄	-11.6969
▁황사	-11.6969
▁근황	-11.6969
▁애매모호	-11.6969
▁폭식	-11.6969
▁친절하	-11.697
▁깐깐	-11.697
▁댓글	-11.697
▁댄디	-11.697
▁일어난	-11.697
▁한심하네	-11.697
▁서먹해	-11.697
▁어장관리	-11.697
▁쓸모	-11.697
▁양면과	-11.697
▁노처녀	-11.697
▁내키는	-11.697
▁체육	-11.697
▁태몽	-11.697
▁쪽팔	-11.697
투덜	-11.697
▁건물주	-11.697
▁호텔	-11.697
▁해결방안	-11.697
▁헤어졋	-11.697
▁탄생	-11.697
▁탄탄	-11.697
▁타입인	-11.697
▁문화센터	-11.697
▁가라앉혀	-11.697
▁팔뚝	-11.697
▁소홀	-11.697
▁봄방학	-11.697
▁선연하	-11.697
▁발등	-11.697
▁시누	-11.697
▁팔찌	-11.697
▁잠식시키	-11.697
▁슈퍼문이	-11.697
▁수십번	-11.697
▁부작용	-11.697
▁영화보재	-11.697
▁스킨	-11.697
▁출국	-11.697
▁독학하	-11.697
잡히네	-11.697
▁감추는	-11.697
▁머물	-11.697
▁뻔뻔	-11.697
▁경제력	-11.697
▁강해지	-11.6971
▁그만할래	-11.6971
▁헤어졌을때	-11.6971
▁무뎌져	-11.6971
▁처방	-11.6971
▁담담하	-11.6971
▁대리님	-11.6971
▁폭식증	-11.6971
▁소액	-11.6971
▁문콕	-11.6971
▁알뜰	-11.6971
▁짜증난다	-11.6971
▁언제부터인지	-11.6971
▁국경	-11.6971
▁복합적	-11.6971
▁마음가짐	-11.6971
▁다가온	-11.6971
▁야구장	-11.6971
▁변덕스러운	-11.6971
▁신입	-11.6971
▁파악	-11.6971
▁불타오르	-11.6971
▁비참하	-11.6971
▁후덜덜	-11.6971
▁매순간	-11.6972
▁절망적	-11.6972
험해	-11.6972
▁비교돼	-11.6972
▁양다리	-11.6972
▁잊었다	-11.6972
▁환상	-11.6972
▁구분짓	-11.6972
▁짝사랑이었네	-11.6972
국물	-11.6972
합시다	-11.6972
▁동성애	-11.6972
▁털어내	-11.6972
▁무뎌진	-11.6972
▁사치인	-11.6972
순위	-11.6972
▁맞출까	-11.6972
▁변할까	-11.6972
주정	-11.6972
▁장거리연애	-11.6972
▁광탈	-11.6972
▁씌었나봐	-11.6972
▁원망스럽	-11.6972
▁돌아온	-11.6972
▁잡담	-11.6972
▁시절	-11.6973
▁청강	-11.6973
▁나머지	-11.6973
▁떠나갔네	-11.6973
▁친추	-11.6973
될것같	-11.6973
▁여행지에서	-11.6973
쳐올	-11.6973
▁잊어버려	-11.6973
▁반복될까	-11.6973
▁퇴근시간	-11.6973
▁지워버리	-11.6973
▁성급	-11.6973
▁변명거리	-11.6973
▁무색해지네	-11.6974
▁대충했	-11.6974
▁부담된다	-11.6974
▁내려놔	-11.6974
▁사갈까	-11.6974
섭섭하	-11.6974
▁산이네	-11.6974
▁가운데	-11.6974
▁살려줘	-11.6974
▁어색할까	-11.6974
▁끝냈는데	-11.6974
▁명언	-11.6974
▁잊어야한다는	-11.6974
▁외박	-11.6974
▁영역	-11.6975
▁전남자친구	-11.6975
뜨문	-11.6975
달반	-11.6975
미칠꺼	-11.6975
▁남은걸까	-11.6975
▁씁쓸하네	-11.6975
▁자제하는	-11.6975
▁되어갑니다	-11.6975
▁무덤덤한데	-11.6975
각인가	-11.6975
▁수상한데	-11.6975
▁욕먹	-11.6976
▁새롭	-11.6976
▁이용당	-11.6976
▁바래다	-11.6976
▁이쁘	-11.6976
▁바보짓	-11.6976
▁잔인하네	-11.6976
키니	-11.6976
▁꼬셔	-11.6976
근무	-11.6976
▁체질	-11.6976
▁해주기	-11.6976
▁활발	-11.6977
▁불러준	-11.6977
▁냉정해	-11.6977
▁야외	-11.6977
추세	-11.6977
▁구걸하	-11.6977
▁필요했을텐데	-11.6977
▁취급	-11.6977
▁떠나갔어	-11.6977
▁괴로운	-11.6977
▁공허하네	-11.6977
꾸룩	-11.6977
▁장난친	-11.6977
▁오늘밤	-11.6978
▁귀국	-11.6978
▁기계	-11.6978
▁해낸	-11.6978
▁기름값	-11.6978
▁되돌리	-11.6978
▁못났	-11.6978
▁조심스	-11.6978
킬	-11.6978
▁자야하는데	-11.6979
▁학교생활	-11.6979
▁어디있을까	-11.6979
▁식당	-11.6979
▁직감	-11.6979
▁불효자	-11.6979
▁신기해	-11.6979
▁따위	-11.6979
▁긴장돼	-11.698
▁괜찮은거	-11.698
▁괴롭혀	-11.698
▁잠들기	-11.698
▁나이먹	-11.698
▁서운한거	-11.698
진행중	-11.698
▁솔직했으면	-11.698
▁하품	-11.698
보내버렸네	-11.698
▁초초	-11.6981
▁주름	-11.6981
모닝	-11.6981
▁결재	-11.6981
냈는데	-11.6982
▁두분이	-11.6983
▁떠났습니다	-11.6983
▁외로울	-11.6983
▁착각일까	-11.6983
▁해결해줄	-11.6983
▁또라이	-11.6983
▁휴우	-11.6983
▁나날이었	-11.6984
▁달라질까	-11.6984
액션	-11.6984
않으려고	-11.6984
▁여부	-11.6984
▁눈빛	-11.6985
환해	-11.6985
▁느끼나	-11.6985
▁아른거	-11.6985
▁번복	-11.6985
▁비례	-11.6985
▁정량	-11.6985
▁돌아올거	-11.6985
▁작별	-11.6985
▁어째서	-11.6985
▁겁이	-11.6985
▁연애끝	-11.6986
▁스크	-11.6986
▁맞추려고	-11.6986
▁회복되	-11.6986
우니	-11.6987
▁부담돼	-11.6987
▁지쳐가네	-11.6987
느껴진다	-11.6987
▁맞는거겠죠	-11.6987
▁걸어다니	-11.6987
▁애써봐	-11.6987
▁가족같은	-11.6987
▁냄새날	-11.6988
▁심란	-11.6989
▁받았습니다	-11.6989
쓰담	-11.6989
▁주차장	-11.6989
▁고백해도될까	-11.699
▁정리되었길	-11.699
▁순간들이	-11.699
▁받아드리	-11.699
주룩	-11.699
▁같을까	-11.6991
▁간지러	-11.6991
▁괜찮았는데	-11.6991
▁답답하신가	-11.6991
▁사랑했다는	-11.6992
▁골인	-11.6992
▁잘해준	-11.6992
▁식단	-11.6992
▁꼬시지	-11.6992
▁파마	-11.6992
개월간의	-11.6993
참아왔	-11.6993
▁원두	-11.6993
크림	-11.6993
로우니	-11.6994
▁지침	-11.6994
람을	-11.6994
비꼬는	-11.6995
▁완벽해지	-11.6995
실수했다	-11.6995
▁인간적	-11.6995
▁시린	-11.6995
던곳	-11.6995
▁원하던	-11.6995
▁겁이나	-11.6995
▁그립지만	-11.6996
▁힘든거네	-11.6996
▁울었어	-11.6996
▁솔로야	-11.6997
▁담아	-11.6997
▁만나지말	-11.6998
▁만나고왔어	-11.6998
▁너그	-11.6998
▁방구	-11.6998
▁심정	-11.6999
리마	-11.6999
▁봐야겠다	-11.6999
▁촉이	-11.6999
▁아이구	-11.6999
▁떨어진	-11.7
초반	-11.7
▁비추	-11.7
▁들었는데	-11.7001
▁한쪽	-11.7001
▁지키기	-11.7002
▁파혼했어	-11.7002
▁아물어	-11.7003
▁배부르	-11.7004
▁무난	-11.7004
▁같았나	-11.7004
▁몸매	-11.7004
▁써야	-11.7004
▁않았을텐데	-11.7004
▁임신	-11.7004
▁붙어	-11.7005
▁돌봐	-11.7005
▁느끼게	-11.7005
할꺼야	-11.7005
▁답일까	-11.7006
▁귀엽대	-11.7006
▁먹여주나	-11.7006
▁마법	-11.7007
▁면세	-11.7007
▁무서운건	-11.7007
▁기부	-11.7007
바싹	-11.7007
정말끝이	-11.7008
▁꺼질	-11.7008
▁엉망	-11.7008
▁화살	-11.7009
▁초라해	-11.7009
▁죽음	-11.7009
▁휘둘리	-11.701
▁결혼해야할까	-11.7011
▁책보	-11.7011
▁헤어지신	-11.7011
보내주려	-11.7012
겟죠	-11.7012
▁내려놓으면	-11.7012
▁무사	-11.7012
▁자식	-11.7013
▁경과	-11.7013
▁잘생긴	-11.7013
▁오르고	-11.7013
▁안내는	-11.7014
▁기운내	-11.7015
▁온천	-11.7016
하던가요	-11.7017
▁다시만나	-11.7017
▁안열	-11.7017
▁매달리	-11.7017
▁잡으려	-11.7017
▁사줄까	-11.7018
▁이번주	-11.7018
▁과제	-11.7019
▁오후	-11.7019
혼전	-11.702
▁지독	-11.702
개월동안	-11.7021
▁자유로워질까	-11.7021
갔네요	-11.7021
▁사랑꾼	-11.7022
▁쓰디	-11.7022
▁설레발	-11.7022
▁오나	-11.7023
▁헤어졌으니까	-11.7023
근한	-11.7023
상화	-11.7023
▁구해야	-11.7024
어버리	-11.7025
▁내릴까	-11.7025
▁반성	-11.7027
▁보조	-11.7028
▁너덜너덜해	-11.703
▁입맛없	-11.7031
▁졸리	-11.7031
▁못잊을	-11.7032
▁위대한	-11.7032
▁몇번	-11.7032
▁상메에	-11.7033
▁밤인	-11.7033
▁힘드네ᅮ	-11.7034
▁불만만	-11.7034
▁먹었나봐	-11.7034
▁떠오르네	-11.7035
스럽다	-11.7035
▁회의	-11.7035
▁쓰여	-11.7036
리스	-11.7036
▁들어줄래	-11.7036
▁사이트	-11.7038
▁서글	-11.7039
▁한순간에	-11.704
▁물건	-11.7041
▁해봤어요	-11.7042
▁대신	-11.7042
▁먹방	-11.7043
학번	-11.7043
생에	-11.7043
▁앞서서	-11.7044
쓰레기통	-11.7046
▁모른	-11.7046
출할	-11.7048
▁긴여	-11.7049
▁생활비	-11.705
▁바본	-11.7051
▁말로만	-11.7052
직한	-11.7053
▁쓰이네	-11.7055
▁레고	-11.7056
▁부질없는	-11.7057
▁속지말	-11.7058
걸리겠어	-11.7059
던가요	-11.706
▁차임	-11.706
▁적응해	-11.7061
▁내려놓는	-11.7061
▁해야겠어	-11.7061
▁모자	-11.7063
끌리	-11.7063
▁모질	-11.7063
▁어머나	-11.7063
▁없었나봐	-11.7065
▁한사람	-11.7065
▁제사	-11.7065
▁생겼대	-11.7066
▁남아있나	-11.7066
개월이네	-11.7068
▁약이라는	-11.707
▁정치	-11.707
▁서운한	-11.7072
▁소통	-11.7073
▁연기	-11.7075
▁찾아오길	-11.7075
▁무섭다	-11.7076
▁정상인가	-11.7076
▁어쩌죠	-11.7077
쓸까	-11.7079
▁상처들	-11.7079
▁자금	-11.708
▁찾아볼까	-11.7083
▁다른반	-11.7083
▁장수	-11.7084
유발	-11.7084
▁사실일	-11.7085
▁덤덤해	-11.7085
건너	-11.7085
▁사랑이였	-11.7086
▁노래들	-11.7087
▁짝사랑중	-11.7088
주정도	-11.7089
▁질린다	-11.709
▁답장해	-11.709
▁몇시	-11.7092
▁그대로인	-11.7092
▁받을까	-11.7092
▁오늘부	-11.7095
려질	-11.7095
▁사랑스럽	-11.7096
정식	-11.7096
▁미안함	-11.7096
▁수수한	-11.7096
▁괜찮아지길	-11.7098
▁나올까	-11.7099
▁가혹	-11.7101
전거	-11.7104
▁힘드나	-11.7104
▁오긴	-11.7105
▁일주일째	-11.7105
▁구상	-11.7106
▁그놈	-11.7107
▁사줄	-11.7108
▁안올	-11.711
▁가까워지	-11.7111
▁놀려	-11.7111
▁초기	-11.7113
관에	-11.7113
▁강요하는	-11.7114
어보	-11.7117
샤워해	-11.7121
▁잊혀져가	-11.7121
▁친해지	-11.7123
▁예를	-11.7124
었나	-11.7124
▁무색하게	-11.7126
던게	-11.7127
것인가	-11.7127
▁잘되고	-11.7128
▁가출	-11.7128
▁버리기	-11.7131
▁순진	-11.7134
▁노력해야	-11.7135
▁티비	-11.7137
▁화나고	-11.7137
▁대쉬해	-11.714
▁양심	-11.7141
▁못하나봐	-11.7142
▁안오	-11.7144
▁받았나	-11.7144
반짝	-11.7144
▁주체할	-11.7145
▁집사	-11.7147
▁살릴	-11.7149
▁오니	-11.7151
▁자유시간	-11.7151
▁설레게하	-11.7152
▁연애하다	-11.7152
▁그분과	-11.7152
물이라	-11.7153
▁기차	-11.7154
착이	-11.7155
▁단어	-11.7157
▁안난다	-11.7161
▁아끼는	-11.7162
▁못내는	-11.7162
▁훈훈하	-11.7163
▁남이죠	-11.7166
▁수순	-11.7167
아리	-11.717
▁그렇겠지	-11.7176
▁잘했다	-11.7177
▁없었어	-11.7179
▁필요할까	-11.718
▁감기약	-11.7182
▁사귀면서	-11.7182
라구	-11.7184
▁찾아갔네	-11.7192
놓은	-11.7196
▁없음	-11.7199
트인	-11.7201
▁나오는데	-11.7202
마디	-11.7206
거같은데	-11.7207
민가	-11.7208
▁놀라	-11.7209
▁어떠하	-11.7217
▁좋으면서	-11.7217
▁힘들줄	-11.7218
일째인데	-11.7218
시니	-11.7221
셨을	-11.7224
▁아깝다	-11.7225
▁식상	-11.7225
있구나	-11.7225
▁의미일까요	-11.7227
▁구하는	-11.7228
▁궁금한게있	-11.7228
▁필요없어	-11.7229
여기	-11.7229
▁이마	-11.7231
▁냉정할	-11.7231
된다	-11.7232
▁이후	-11.7232
▁맘대로	-11.7232
▁화내는	-11.7233
▁질리게	-11.7238
▁응원해주면	-11.7239
▁누구니	-11.724
움에	-11.7244
▁것이겠죠	-11.7244
▁술이야	-11.7247
▁바보라	-11.725
▁떨어지지	-11.7254
▁벌어	-11.7255
지망	-11.7269
이다	-11.7273
▁공감되	-11.7278
▁이별할때	-11.7278
▁본인만	-11.7278
▁비싸다	-11.728
▁여친과	-11.7285
려야	-11.7285
▁잘못이지	-11.7286
▁밤이	-11.7291
▁같기도	-11.73
거지같이	-11.73
은것같	-11.73
▁덜해	-11.7303
▁장난치	-11.7306
▁이길	-11.7308
▁독한	-11.7314
▁받아들여요	-11.7321
았다	-11.7329
▁잊어가	-11.7331
▁결혼할까	-11.7336
▁마주보	-11.7336
▁수학	-11.7344
▁카톡하는	-11.7349
지우는게	-11.7352
맞는다면	-11.7365
▁그후	-11.7365
▁지우는	-11.7372
▁침대에	-11.7373
▁않겠지	-11.7378
▁붙잡으려	-11.7388
고쳤	-11.7388
해본적	-11.7389
▁술기운	-11.739
▁계절	-11.739
▁시간인	-11.7394
▁왔	-11.7394
왔을	-11.7398
기지	-11.7399
▁뿌리	-11.7401
천하	-11.7402
▁다정	-11.7413
▁기분이야	-11.742
▁새장	-11.7421
▁취직이	-11.7424
▁헌신하	-11.743
만두	-11.7453
▁힘들대	-11.7453
▁전화할	-11.7455
되니	-11.7456
▁하니	-11.7457
▁다음주	-11.7469
▁못했는	-11.7471
▁싫은가	-11.7472
있는건지	-11.7473
▁날이야	-11.7473
▁사랑이란	-11.7477
표인	-11.7477
수라	-11.748
▁이별인가봐	-11.7482
▁높이는	-11.7484
▁타이밍인	-11.7489
▁마무리하	-11.7492
▁영화보자	-11.7503
▁경우에	-11.7505
해졌나봐	-11.7506
▁지키는	-11.7516
▁어떤거	-11.7526
▁될거	-11.7526
▁기억할	-11.7529
체가	-11.7533
▁아프죠	-11.7534
▁모르나봐	-11.7535
▁성숙해	-11.7543
▁답답한가	-11.7545
▁불렀	-11.7553
적이	-11.7559
▁봐달라	-11.756
▁모임이	-11.7561
으셨	-11.7562
사니	-11.7577
타이	-11.7593
▁유학간	-11.7597
▁잘라야	-11.7598
▁다가갈	-11.7599
전제	-11.7603
▁그만둬야	-11.7604
▁커지기	-11.761
▁좋아하는건가	-11.7614
▁가볼까	-11.7615
▁이루어질	-11.7616
▁지금까지	-11.7624
를까	-11.7626
▁했네	-11.763
▁존중하는	-11.7633
▁죄인	-11.7636
▁재회하고	-11.7637
▁추우니	-11.7639
답이야	-11.7651
▁동거중	-11.7653
▁속지	-11.7657
▁이별후에	-11.7658
▁노력한	-11.7658
▁엄청나	-11.7659
▁수용	-11.7662
▁사라지	-11.7665
▁봐야	-11.7668
▁붙잡을	-11.7668
▁만나러가	-11.7672
▁풀어주	-11.7682
▁음악이	-11.7682
▁비워보	-11.7691
▁생각했을	-11.7703
할텐데	-11.7715
▁냉정하	-11.7717
▁놈이	-11.7721
▁처음만	-11.7726
▁도자기	-11.7732
구만	-11.7735
▁깊이	-11.7735
▁애야	-11.774
▁반가	-11.7744
▁잡기	-11.7747
▁왕따인	-11.7762
▁잘지내고있	-11.7768
▁없었겠	-11.7771
▁잊은	-11.7773
▁같았	-11.7781
▁연애할	-11.7782
▁알아주	-11.7782
▁적절	-11.7783
▁직장인이	-11.7794
▁보수적이	-11.7802
했었	-11.7812
▁최악이	-11.783
▁울었	-11.7836
▁모르지	-11.7846
▁다녀온	-11.7848
적을	-11.786
▁데이	-11.7861
▁모의	-11.7862
▁전화하고	-11.7865
▁습관이라	-11.7868
▁내장	-11.7873
▁키워보	-11.7878
▁거래	-11.7894
▁끝이보	-11.7906
▁다가가야	-11.7913
안했을	-11.7916
▁불공평	-11.7931
▁첫사랑인	-11.7934
▁하셔야	-11.7938
▁참아야겠	-11.7939
▁느리	-11.794
▁기복	-11.7946
▁부르는	-11.795
하게하	-11.7952
▁많을까	-11.7952
▁하는건가	-11.7956
▁전여친이	-11.796
뭐냐	-11.796
만이라	-11.7968
▁타로	-11.7969
▁대상이	-11.7985
▁말려	-11.7989
▁참으	-11.7993
▁브	-11.8007
▁받아들여야할	-11.8008
덤덤해졌	-11.8017
▁사장	-11.8017
▁낸다	-11.8047
▁사람이네	-11.8051
월해	-11.8051
▁받으려	-11.8056
▁단톡방에	-11.8073
▁찰랑	-11.8107
▁못잊는거	-11.8108
▁밑	-11.8119
▁단계라	-11.8121
▁부모	-11.8121
▁푸석	-11.8122
▁툭	-11.8123
▁썩	-11.8123
▁존	-11.8126
▁병	-11.8127
▁돌아오기	-11.8127
▁꼈어	-11.8129
▁치킨	-11.813
▁불쌍	-11.813
나네	-11.8132
▁주절	-11.8132
▁잊어보려	-11.8136
▁당했습니다	-11.8139
잘못으로	-11.814
▁모양	-11.8142
▁덜하	-11.8145
▁근질	-11.8146
▁감수	-11.8151
오는데	-11.8162
▁메일	-11.8166
들음	-11.818
▁운명같	-11.8189
▁소개해	-11.8197
▁투자하는	-11.8198
▁클럽가	-11.82
▁남긴	-11.8205
▁살인	-11.8208
▁제길	-11.8212
▁구질	-11.8213
거였네	-11.8239
▁전해지	-11.824
▁둬	-11.8249
▁잘된	-11.8251
▁공부한	-11.8252
▁상처에	-11.826
▁부담스러워해	-11.8267
▁안돼나	-11.8272
이러니	-11.828
▁신기	-11.829
▁보드	-11.8297
네ᅮ	-11.8298
▁수신	-11.8302
었다는	-11.8305
통이	-11.8315
▁미쳤	-11.8316
▁단순하	-11.8321
▁여자야	-11.8328
관계인가	-11.8338
별이에요	-11.8339
▁전부였	-11.8348
▁막혔	-11.8352
▁잊어야해	-11.8355
▁좋아하면서	-11.8357
▁약속잡	-11.8362
▁선물할	-11.8364
▁까먹지	-11.8368
▁기억안	-11.8381
▁리액션	-11.8393
▁지쳐가	-11.8398
▁터졌	-11.8398
▁정리하려	-11.8401
▁먼저하는	-11.8404
▁잊혀지네	-11.8404
▁짜증나게	-11.8416
▁잠들	-11.8421
▁혼자있	-11.8428
▁안해야	-11.8432
▁신청해	-11.8435
▁취업하	-11.8449
▁털어버	-11.8456
▁올라오	-11.8476
▁헤어진다	-11.8478
떠나려	-11.8493
▁남을까	-11.8495
▁이별했어	-11.8501
▁짝사랑하	-11.8514
▁때문일까	-11.8519
▁운동하자	-11.8525
▁카톡에	-11.8526
아볼	-11.8541
▁만날수	-11.8542
▁별이	-11.8542
▁후회되	-11.8559
▁연락해보	-11.8564
데이	-11.8568
▁울적하	-11.8574
▁쓰다	-11.8595
▁놀리	-11.8598
▁혼자라는	-11.86
리가	-11.8605
▁내릴	-11.8608
▁척도	-11.8628
▁필요없	-11.8649
▁포기하려	-11.865
▁일이었	-11.8659
했잖아	-11.8659
▁않음	-11.8663
▁관심있는	-11.8671
▁익숙해졌	-11.8678
▁힘들기	-11.8681
▁좋아보여	-11.8681
▁할래	-11.872
갔	-11.8723
버리겠	-11.8727
점이	-11.8734
▁순간에	-11.8736
▁생겼다는	-11.8756
▁과식했	-11.877
로라	-11.8775
▁가수	-11.8838
본지	-11.8841
▁후련할거	-11.8852
대하면	-11.8853
▁술마시면	-11.8868
▁잊어야겠	-11.8873
▁든다	-11.8876
꺼야	-11.8892
▁바람이	-11.8895
긴했는데	-11.8915
들이지	-11.8935
▁피곤할	-11.8946
▁진지한	-11.8961
▁풀어보	-11.897
▁조심해야겠	-11.8976
주면	-11.9009
▁가득한가	-11.9035
▁보고싶어요	-11.9042
지려고	-11.906
해줄까	-11.9076
▁운명인	-11.9082
▁따듯해	-11.9089
▁투자라	-11.9099
▁알아버렸	-11.9129
▁표현하	-11.9145
다는데	-11.9161
▁절친이	-11.9164
못된	-11.9164
▁저장할	-11.917
▁그사람은	-11.9173
인과	-11.9176
다는걸	-11.9226
▁지우려	-11.9252
▁일일	-11.9276
남보다	-11.9282
▁미치네	-11.9285
났었지	-11.93
상대로	-11.9308
▁보름달이	-11.9309
▁이별하려	-11.9336
▁잠수이별인	-11.9369
▁프사가	-11.9394
▁매달렸	-11.945
드나	-11.9451
▁밤이네	-11.9469
▁불행해	-11.9476
▁다른일	-11.9489
▁지켜야	-11.9532
오려나	-11.9537
주신	-11.9543
▁군대가	-11.9551
▁여행가는	-11.956
보고싶어	-11.9567
진한	-11.9583
▁아들	-11.9643
▁망설여지	-11.9686
▁차렸을	-11.9707
▁하는거	-11.971
주라	-11.9723
▁나을가	-11.9757
▁놓으려	-11.9758
▁싶어서	-11.9785
시간동안	-11.9801
▁공시생이	-11.983
▁짝사랑일	-11.9833
▁평가해	-11.9846
울렸	-11.9881
▁챙겨줄	-11.9883
▁철벽치	-11.9911
올라	-11.9946
▁아니었나봐	-11.9982
▁당황스러	-11.9985
여행이	-11.9993
▁무리하	-12.0017
싶어지네	-12.0028
▁싱숭생숭하	-12.006
▁나으	-12.0064
낸	-12.0068
▁왕	-12.0073
▁잘못했다	-12.0076
▁말들	-12.0077
▁간에	-12.0081
▁그리워지	-12.0119
▁그만하	-12.0186
▁반이라	-12.0191
▁제자리걸음이	-12.0192
▁끌	-12.0202
▁잼	-12.0234
▁두려운가	-12.0237
▁타나봐	-12.0245
▁중이	-12.0256
거래	-12.0281
▁달래	-12.0288
▁헤어진건	-12.03
▁중요하겠지	-12.0305
▁못하니	-12.0312
한건지	-12.0321
에나와	-12.034
▁답답하겠	-12.0344
났는	-12.0347
연애인데	-12.0377
▁힘들일이	-12.038
▁더럽	-12.0442
▁축	-12.047
떠세요	-12.0485
▁질거	-12.0492
▁연애상담	-12.0501
식이	-12.0505
▁화냈	-12.051
▁신청했	-12.0565
▁패	-12.0572
여친	-12.0573
▁했더	-12.0581
▁기름	-12.0586
▁복잡하네	-12.0589
▁빙	-12.059
▁살았다	-12.0607
▁방향	-12.0623
▁키스	-12.0646
려지	-12.065
▁주차	-12.066
었을까	-12.0685
▁못하는거	-12.0686
▁안해서	-12.0735
▁얼마전	-12.0739
이었는데	-12.0739
▁건네	-12.0744
▁도서관에	-12.0753
ᄒ	-12.076
▁세포	-12.0762
▁추억을	-12.0766
▁어떤건	-12.077
▁낀	-12.0796
져야	-12.0802
▁비슷한가	-12.081
▁운동해	-12.0812
▁좋아한	-12.0845
고픈	-12.0849
맘이	-12.0856
▁살랑	-12.0903
으시는	-12.0904
네ᄒ	-12.0905
▁헤어지겠	-12.0916
▁감성적	-12.0919
인거죠	-12.092
▁잊었는	-12.0953
▁필요하다	-12.0987
▁지내자	-12.0997
▁꿈이라	-12.1005
▁기억하	-12.1021
가운	-12.1023
▁아침이에	-12.1027
▁차단한	-12.1051
▁힘드신	-12.1111
▁끝내려	-12.1121
느	-12.1127
▁거절인	-12.1148
▁싫어할	-12.1151
▁돌아왔	-12.1261
▁연애상담해	-12.1265
만나다	-12.131
▁추	-12.1343
▁밥도	-12.137
사람들	-12.1376
갈까	-12.1393
▁답답했	-12.1402
▁되버렸	-12.1409
만난	-12.1465
▁휴지	-12.1471
▁써보	-12.1501
▁돌아가면	-12.1522
▁남이	-12.1526
▁그러려	-12.1564
▁되었어	-12.1572
▁터지겠	-12.1583
▁해봐야	-12.1588
▁잔소리	-12.1596
▁봐봐	-12.1599
▁진정하	-12.161
인가보다	-12.1625
척이	-12.1646
▁잘못했다는	-12.1665
아들	-12.1667
▁떨리네	-12.1667
▁피곤하겠	-12.1673
할지	-12.1722
▁서운하겠	-12.1738
▁지나갔네	-12.174
▁깨졌는	-12.18
▁못하겠네	-12.1817
▁철벽치는	-12.1844
▁생각나기	-12.1853
춘	-12.2872
핑	-12.2873
꾹	-12.3058
객	-12.3061
홀	-12.3097
깜	-12.3105
쥐	-12.3114
잇	-12.3132
똥	-12.3133
밀	-12.3364
틀	-12.3712
흘	-12.3905
았	-12.3944
잡	-12.4095
둬	-12.4208
빠	-12.4226
쓰	-12.4262
브	-12.4388
왔	-12.4434
존	-12.4467
펴	-12.4481
툭	-12.4484
썩	-12.4484
밑	-12.4491
굴	-12.4553
켜	-12.4575
왜	-12.4605
경	-12.464
났	-12.4697
효	-12.47
활	-12.4715
협	-12.4755
쭉	-12.4755
털	-12.4774
즐	-12.4802
듣	-12.4816
밤	-12.4831
응	-12.4848
덕	-12.4849
술	-12.4857
칼	-12.4859
떼	-12.4867
쫄	-12.4867
윗	-12.4867
농	-12.4871
냉	-12.4873
교	-12.4913
밟	-12.4929
꼬	-12.493
광	-12.493
놀	-12.4931
귀	-12.4945
막	-12.4946
탔	-12.4952
낳	-12.4966
누	-12.4974
뜻	-12.4978
베	-12.4984
멋	-12.4988
덜	-12.4989
찼	-12.4992
얼	-12.4994
혼	-12.4998
꼭	-12.5004
모	-12.5024
숨	-12.5028
쓴	-12.5037
손	-12.504
9	-12.504
잠	-12.5042
깊	-12.5045
등	-12.5046
곧	-12.5056
8	-12.5057
쐬	-12.5057
봄	-12.5057
졸	-12.5063
떠	-12.5077
떨	-12.5094
잊	-12.5162
좋	-12.5205
찾	-12.548
끔	-12.57
쳤	-12.5863
큼	-12.6652
랐	-12.6677
람	-12.6831
쁘	-12.6896
긋	-12.6918
험	-12.6947
련	-12.6949
벼	-12.695
딛	-12.6951
맙	-12.6952
꼈	-12.6953
렴	-12.6957
렀	-12.6957
쁠	-12.6958
빴	-12.6962
뜰	-12.6964
황	-12.6964
깝	-12.6964
봇	-12.6965
닿	-12.6966
섭	-12.6966
욜	-12.6966
톱	-12.6966
쩔	-12.6968
낭	-12.6968
턴	-12.6968
콤	-12.6968
램	-12.6969
댄	-12.6969
칭	-12.6969
딜	-12.6969
측	-12.6969
긍	-12.6969
냄	-12.6969
묵	-12.6969
률	-12.6969
딘	-12.6969
쎄	-12.6969
령	-12.6969
첩	-12.6969
춤	-12.6969
콘	-12.6969
퓨	-12.6969
옮	-14.0329
얇	-14.033
씸	-14.0331
씰	-14.0332
썰	-14.0333
숏	-14.0334
섰	-14.0335
섣	-14.0336
섞	-14.0337
샐	-14.0338
뺏	-14.0339
륜	-14.034
띵	-14.0341
덮	-14.0342
댔	-14.0343
논	-14.0344
꼴	-14.0345
깼	-14.0346
깬	-14.0347
괘	-14.0348
o	-14.0349
g	-14.035
홧	-14.0351
홈	-14.0352
헹	-14.0353
헐	-14.0354
텼	-14.0355
텅	-14.0356
텀	-14.0357
턱	-14.0358
쿵	-14.0359
캬	-14.036
쪘	-14.0361
젊	-14.0362
옛	-14.0363
엿	-14.0364
엊	-14.0365
앱	-14.0366
볕	-14.0367
묘	-14.0368
몬	-14.0369
렐	-14.037
랖	-14.0371
뜬	-14.0372
떴	-14.0373
눕	-14.0374
눌	-14.0375
꿰	-14.0376
꽝	-14.0377
꽉	-14.0378
깰	-14.0379
겜	-14.038
겉	-14.0381
갱	-14.0382
훔	-14.0383
핫	-14.0384
텁	-14.0385
컸	-14.0386
총	-14.0387
짰	-14.0388
좌	-14.0389
웹	-14.039
얽	-14.0391
숫	-14.0392
밉	-14.0393
몫	-14.0394
멘	-14.0395
맺	-14.0396
맴	-14.0397
릇	-14.0398
랙	-14.0399
뚫	-14.04
꼰	-14.0401
겪	-14.0402
갠	-14.0403
C	-14.0404
헌	-14.0405
폼	-14.0406
팠	-14.0407
탓	-14.0408
쿨	-14.0409
켰	-14.041
왠	-14.0411
엮	-14.0412
씌	-14.0413
쏠	-14.0414
쏟	-14.0415
삐	-14.0416
빚	-14.0417
렜	-14.0418
렛	-14.0419
뇌	-14.042
넷	-14.0421
흑	-14.0422
헥	-14.0423
팀	-14.0424
툼	-14.0425
퀴	-14.0426
촬	-14.0427
찜	-14.0428
젯	-14.0429
옳	-14.043
썹	-14.0431
쌍	-14.0432
슈	-14.0433
쉴	-14.0434
쁨	-14.0435
볍	-14.0436
묻	-14.0437
롤	-14.0438
둠	-14.0439
늠	-14.044
낚	-14.0441
굳	-14.0442
곱	-14.0443
휘	-14.0444
틋	-14.0445
툴	-14.0446
쪼	-14.0447
싼	-14.0448
릎	-14.0449
돋	-14.045
끓	-14.0451
A	-14.0452
훈	-14.0453
켠	-14.0454
짱	-14.0455
징	-14.0456
젖	-14.0457
얻	-14.0458
씁	-14.0459
뽀	-14.046
맡	-14.0461
뢰	-14.0462
땡	-14.0463
늙	-14.0464
낙	-14.0465
낄	-14.0466
탐	-14.0467
찔	-14.0468
웬	-14.0469
쌩	-14.047
섬	-14.0471
땀	-14.0472
닮	-14.0473
넓	-14.0474
샤	-14.0475
벚	-14.0476
띄	-14.0477
딪	-14.0478
녹	-14.0479
검	-14.048
헬	-14.0481
컴	-14.0482
빡	-14.0483
밝	-14.0484
뤄	-14.0485
렬	-14.0486
깎	-14.0487
곁	-14.0488
겹	-14.0489
잃	-14.049
씻	-14.0491
뽑	-14.0492
렘	-14.0493
랫	-14.0494
뛰	-14.0495
낮	-14.0496
n	-14.0497
춥	-14.0498
옥	-14.0499
앉	-14.05
딴	-14.0501
닫	-14.0502
넣	-14.0503
꼼	-14.0504
걔	-14.0505
푹	-14.0506
씹	-14.0507
렌	-14.0508
딸	-14.0509
뉴	-14.051
규	-14.0511
귈	-14.0512
웨	-14.0513
썼	-14.0514
슷	-14.0515
뒷	-14.0516
깍	-14.0517
갚	-14.0518
N	-14.0519
7	-14.052
컨	-14.0521
잤	-14.0522
셀	-14.0523
뀔	-14.0524
뀌	-14.0525
획	-14.0526
눠	-14.0527
깔	-14.0528
걷	-14.0529
텨	-14.053
샀	-14.0531
녁	-14.0532
엽	-14.0533
됩	-14.0534
희	-14.0535
쌓	-14.0536
싱	-14.0537
밍	-14.0538
헛	-14.0539
틱	-14.054
멈	-14.0541
꿔	-14.0542
옆	-14.0543
북	-14.0544
권	-14.0545
삼	-14.0546
삭	-14.0547
쇼	-14.0548
끄	-14.0549
탁	-14.055
벗	-14.0551
높	-14.0552
헷	-14.0553
숭	-14.0554
삶	-14.0555
멍	-14.0556
잖	-14.0557
읽	-14.0558
낫	-14.0559
멀	-14.056
득	-14.0561
뎌	-14.0562
렵	-14.0563
녕	-14.0564
엇	-14.0565
빌	-14.0566
흐	-14.0567
끊	-14.0568
괴	-14.0569
짧	-14.057
랜	-14.0571
퇴	-14.0572
덤	-14.0573
밌	-14.0574
픔	-14.0575
흔	-14.0576
핸	-14.0577
뭔	-14.0578
슴	-14.0579
똑	-14.058
꽃	-14.0581
풍	-14.0582
뻐	-14.0583
닐	-14.0584
0	-14.0585
씀	-14.0586
맨	-14.0587
평	-14.0588
풀	-14.0589
챙	-14.059
첫	-14.0591
죽	-14.0592
뭘	-14.0593
럼	-14.0594
떤	-14.0595
최	-14.0596
슨	-14.0597
엄	-14.0598
겼	-14.0599
걱	-14.06
앞	-14.0601
쉽	-14.0602
믿	-14.0603
택	-14.0604
닌	-14.0605
접	-14.0606
랄	-14.0607
봅	-14.0608
몰	-14.0609
럴	-14.061
억	-14.0611
변	-14.0612
싫	-14.0613
맞	-14.0614
렇	-14.0615
떻	-14.0616
졌	-14.0617
편	-14.0618
괜	-14.0619
찮	-14.062
뭐	-14.0621
받	-14.0622
습	-14.0623
썸	-14.0624
않	-14.0625
많	-14.0626
힘	-14.0627
싶	-14.0628
없	-14.0629
같	-14.063
