<pad>	0
<s>	0
</s>	0
<unk>	0
<sep>	0
▁	-1.71585
.	-2.53098
가	-4.47413
요	-4.50664
?	-4.55425
을	-4.60364
도	-4.76958
이	-4.85548
게	-4.89773
는	-4.99272
고	-5.11136
은	-5.12475
▁거예요	-5.14505
지	-5.29399
를	-5.3101
보세요	-5.34382
▁수	-5.50156
의	-5.53881
네요	-5.59166
▁너무	-5.59302
▁좋아하는	-5.69868
서	-5.70038
세요	-5.70514
▁더	-5.73184
▁잘	-5.77324
▁거	-5.79691
에	-5.80165
▁사람	-5.80426
▁안	-5.83206
한	-5.84872
▁것	-5.86477
면	-5.96701
▁사랑	-6.01168
▁좋은	-6.03081
해보세요	-6.07226
▁많이	-6.07639
▁나	-6.08552
죠	-6.08811
만	-6.09355
봐요	-6.13633
히	-6.13855
▁그	-6.19447
▁같아요	-6.21462
▁좀	-6.21525
나	-6.23177
▁사람이	-6.24778
랑	-6.25454
으로	-6.27164
▁있을	-6.29093
▁싶어	-6.29671
▁있어요	-6.30096
길	-6.30377
▁생각	-6.30378
로	-6.30808
▁없어	-6.3181
▁이별	-6.31946
▁마음	-6.35097
하고	-6.35133
▁말	-6.3745
▁썸	-6.40557
▁같아	-6.43523
▁내	-6.43524
▁때	-6.4405
!	-6.44538
할	-6.49405
다	-6.55525
▁마세요	-6.57489
네	-6.59281
▁건	-6.60574
▁이제	-6.62305
▁오늘	-6.63085
▁다	-6.63312
으면	-6.64582
는데	-6.64983
▁마음이	-6.65251
▁내가	-6.67436
▁있는	-6.68391
데	-6.70469
▁있	-6.71167
▁왜	-6.73074
하는	-6.74491
일	-6.74784
이에요	-6.748
에서	-6.75651
▁어떻게	-6.75973
▁여자친구	-6.76297
▁다른	-6.77585
▁남자친구	-6.77937
▁싶다	-6.80029
▁연락	-6.81514
하세요	-6.82306
▁시간이	-6.83249
▁저	-6.84436
▁뭐	-6.87196
▁다시	-6.87423
▁또	-6.88155
▁정말	-6.88987
▁있어	-6.90124
겠어요	-6.91144
▁좋을	-6.91362
▁연애	-6.92329
▁게	-6.93224
어	-6.93673
▁좋아	-6.95416
▁않아	-6.95653
니다	-6.96824
▁친구	-6.96903
하지	-6.98088
야	-6.98361
▁수도	-6.98947
기	-7.00533
▁못	-7.0164
▁걸	-7.02097
▁바	-7.02813
▁지금	-7.0338
▁조금	-7.04265
▁같이	-7.04294
▁자신	-7.04855
▁해보세요	-7.05506
▁될	-7.05947
인데	-7.06046
해	-7.06701
▁하는	-7.07088
▁그런	-7.07996
▁여자	-7.0814
▁당신	-7.08723
▁남자	-7.09005
가봐요	-7.11393
▁아니	-7.12178
과	-7.13422
▁자꾸	-7.13634
에요	-7.14482
▁일	-7.15201
▁시간	-7.15508
▁것도	-7.15553
▁해	-7.16047
거예요	-7.16924
년	-7.17784
인	-7.18079
거	-7.19212
▁혼자	-7.19335
▁일이	-7.20992
한테	-7.21474
▁바랄게요	-7.21666
든	-7.22127
▁먼저	-7.22272
▁진짜	-7.22707
▁없는	-7.2359
▁돼요	-7.24703
▁헤어진지	-7.25134
▁제가	-7.25835
▁저도	-7.27307
▁하나	-7.27398
▁힘든	-7.27596
▁힘들	-7.27687
주세요	-7.27882
▁만나	-7.30084
하면	-7.30234
▁아무	-7.30742
하게	-7.31887
▁선물	-7.31908
▁있을까	-7.33348
▁살	-7.33711
▁계속	-7.3376
▁될까	-7.35293
▁하고	-7.35542
상	-7.3573
보다	-7.36131
니까	-7.36243
▁할	-7.36377
▁한	-7.36707
어요	-7.36915
▁좋아요	-7.37148
▁짝녀	-7.37196
라	-7.37428
▁힘들어	-7.38345
▁그럴	-7.38407
랍	-7.39974
▁서로	-7.39999
운	-7.41098
▁먹고	-7.41766
▁사랑이	-7.42264
에게	-7.42647
▁전	-7.43515
▁드세요	-7.43751
▁좋죠	-7.43762
해도	-7.43785
라고	-7.43902
▁방법	-7.44825
봅니다	-7.45349
나를	-7.46704
▁술	-7.47225
와	-7.47455
▁짝사랑	-7.48315
▁참	-7.4842
지만	-7.4953
까	-7.49685
▁이야기	-7.50758
▁준비	-7.51043
▁결혼	-7.51572
씩	-7.51581
던	-7.52686
▁아직	-7.528
▁몰라	-7.53653
▁좋겠어요	-7.54376
▁눈	-7.54439
▁그렇	-7.54911
했어	-7.55502
▁말해보세요	-7.55585
,	-7.5577
▁들어	-7.5581
▁많은	-7.56801
▁충분	-7.56845
수	-7.57102
▁생각해요	-7.58022
▁짝남이	-7.59206
▁애	-7.59352
▁데이트	-7.59377
▁중	-7.59971
지도	-7.60122
▁날	-7.61193
▁보고	-7.61418
▁무슨	-7.61665
래	-7.61764
▁그냥	-7.6241
▁생각해	-7.62738
▁어떤	-7.62869
▁없	-7.64121
▁않	-7.64869
▁있나	-7.64906
▁너	-7.66295
▁돈	-7.66608
▁이렇게	-7.67051
▁친구가	-7.67602
합니다	-7.67981
▁해요	-7.68151
▁사	-7.68357
▁나만	-7.68632
▁대화	-7.68819
▁공부	-7.68848
니	-7.69092
까지	-7.69137
▁힘드네	-7.69721
해요	-7.69769
▁카톡	-7.70152
▁알	-7.70427
▁싫어	-7.70937
해주세요	-7.7109
해서	-7.71466
나봐	-7.71665
▁하루	-7.71713
▁함께	-7.71841
▁줄	-7.7216
입니다	-7.72228
▁내일	-7.72263
다고	-7.72279
▁사랑하는	-7.72312
대로	-7.72373
▁오래	-7.72806
진	-7.72917
▁타는	-7.73085
▁새로운	-7.73264
자	-7.73639
▁머리	-7.73768
질	-7.73788
▁1	-7.73958
▁짝남	-7.7426
▁2	-7.74351
▁후	-7.74962
▁고민	-7.752
▁좋겠	-7.75874
▁관심	-7.76682
▁어떨까요	-7.77264
심	-7.77408
▁여행	-7.77566
▁감정	-7.77634
리	-7.77665
▁하세요	-7.78173
사람은	-7.78715
예요	-7.78737
▁그래	-7.78939
▁고백	-7.78983
▁하지	-7.79381
대	-7.79383
▁찾아	-7.7971
▁있는데	-7.7976
▁헤어진	-7.79897
▁시작	-7.79944
자고	-7.8042
▁할까	-7.80658
▁3	-7.81193
할까	-7.81243
걸	-7.8204
▁이유	-7.82831
건	-7.83229
▁연락이	-7.84335
거라	-7.84366
▁안돼	-7.84649
▁않는	-7.85291
차	-7.86143
▁마음에	-7.86194
▁돼	-7.8662
겠죠	-7.87187
▁많아	-7.87349
▁아	-7.87387
▁듯	-7.87523
▁그녀	-7.8824
▁생각이	-7.8882
른	-7.89458
▁운동	-7.89762
록	-7.89807
▁말고	-7.90998
▁싶은	-7.91241
▁가고	-7.91639
▁끝	-7.91893
▁제	-7.91965
인지	-7.92016
함	-7.92082
부터	-7.92159
▁하	-7.92386
▁만날	-7.92582
▁남	-7.92783
▁이젠	-7.92902
장	-7.93102
▁도움	-7.9341
는게	-7.9345
▁항	-7.93767
▁기억	-7.94315
▁누구	-7.94329
▁열	-7.94386
려	-7.94457
▁쉽지	-7.94461
▁스트레스	-7.94461
▁따라	-7.94508
▁올	-7.9451
▁맘	-7.94565
▁나한테	-7.94777
▁같은데	-7.94866
점	-7.95556
긴	-7.95799
▁후회	-7.95816
▁우리	-7.95928
시	-7.96498
▁좋겠다	-7.96733
▁쉬	-7.96743
▁모르겠어	-7.96793
▁바라요	-7.97857
▁곳	-7.98056
▁이별을	-7.98298
▁정리	-7.9853
습니다	-7.99183
▁때문	-7.99912
만큼	-7.99924
▁기분	-7.9995
▁꿈	-8.00168
▁보	-8.00324
하네	-8.00748
▁않을	-8.01584
▁않았	-8.01694
▁벌	-8.02057
▁얼	-8.02086
봐	-8.021
하는데	-8.02191
▁반	-8.02809
것도	-8.02878
▁언제	-8.02963
▁타	-8.03189
▁만큼	-8.03597
▁전화	-8.04363
▁기대	-8.04715
▁괜찮아요	-8.048
주	-8.04986
▁직접	-8.05599
▁꼭	-8.06372
▁한달	-8.06421
▁만들어	-8.06432
거나	-8.06914
▁해야	-8.07062
▁변화	-8.07925
▁없네	-8.08062
자기	-8.08306
▁집	-8.08318
▁문제	-8.08331
▁하면	-8.0854
▁좋겠어	-8.08787
▁볼	-8.08903
▁피	-8.092
▁같은	-8.09628
▁요즘	-8.09758
하기	-8.0991
려고	-8.10683
간	-8.1098
▁좋을까	-8.11247
▁되는	-8.11374
▁어디	-8.12025
▁결국	-8.12755
▁해도	-8.12855
▁가는	-8.13309
▁아직도	-8.13405
▁비	-8.13439
▁믿어	-8.13484
▁않은	-8.13494
▁어제	-8.13507
대한	-8.14397
▁모르는	-8.14649
▁있죠	-8.14719
적인	-8.1494
이라	-8.15014
▁나는	-8.15092
여	-8.15233
처럼	-8.15287
▁연락을	-8.15371
▁말아	-8.1538
▁주세요	-8.15402
들	-8.15477
▁아파	-8.15887
▁필요해	-8.16138
드	-8.16273
▁알아	-8.1647
천	-8.17736
▁마음의	-8.17848
▁시간을	-8.18229
▁인생	-8.18232
다면	-8.18328
▁노래	-8.18428
▁중요한	-8.19222
▁완전	-8.19368
겠네	-8.19576
▁커피	-8.19638
방	-8.19692
사람을	-8.19756
▁좋아해	-8.20126
▁집에	-8.20155
제일	-8.20307
적	-8.20516
▁없다	-8.21065
달라고	-8.21187
아	-8.21196
▁큰	-8.21353
▁썸남	-8.21354
이죠	-8.21362
▁매일	-8.21903
▁중요해	-8.22497
▁점	-8.22589
▁싶은데	-8.22687
날	-8.22896
군요	-8.23405
▁아니라	-8.23415
▁나쁜	-8.23469
개월	-8.2351
▁오늘도	-8.23539
▁나이	-8.23599
▁가장	-8.23764
기도	-8.24473
▁어때	-8.24503
▁기다려	-8.24607
▁늦	-8.24668
▁상처	-8.2481
▁마지막	-8.25117
▁아침	-8.25358
▁관계	-8.25436
져	-8.25473
하면서	-8.25768
정	-8.26218
▁와	-8.26575
음	-8.26587
면서	-8.27185
▁가지	-8.27626
▁갑	-8.27676
▁남자애	-8.27822
발	-8.28005
▁현실	-8.28192
▁재회	-8.28414
제	-8.28508
▁딱	-8.28544
▁여친	-8.2876
▁이런	-8.29059
▁결정	-8.29641
▁연락해	-8.29706
이야	-8.29834
했던	-8.29867
▁헤어짐	-8.29969
▁모든	-8.30052
써	-8.302
▁해볼까	-8.30683
▁밥	-8.30708
▁사랑에	-8.30714
▁살고	-8.31013
▁마	-8.31033
▁얼마	-8.31177
▁조심하세요	-8.31749
금	-8.3186
때	-8.31901
▁같애	-8.32291
▁자주	-8.3233
▁만나는	-8.32619
▁잘할	-8.33214
▁오	-8.33449
까요	-8.3362
▁미련	-8.34044
러	-8.34609
▁어느	-8.34611
▁스스로	-8.34614
▁어떡해	-8.34614
▁핸드폰	-8.34614
▁용기	-8.34726
▁맛있	-8.34727
▁예의	-8.34923
된	-8.34939
▁헤어지고	-8.35007
▁오세요	-8.3515
마세요	-8.35465
▁되나	-8.35922
치	-8.3623
▁당신이	-8.36318
▁사람들이	-8.3633
▁보내	-8.3653
▁인연이	-8.36646
▁필요	-8.36659
임	-8.36672
겠지	-8.36779
▁뭘까	-8.36995
▁엄마	-8.36995
마다	-8.37138
▁알았는데	-8.37341
▁몸	-8.37551
▁물어	-8.3789
▁기분이	-8.38315
▁사진	-8.38441
이나	-8.3866
하죠	-8.38934
▁회사	-8.39091
찍	-8.39218
▁남친	-8.39433
▁가끔	-8.39443
▁한번	-8.3951
▁물	-8.39564
▁보는	-8.39663
▁날씨	-8.39765
▁상대방	-8.39795
▁자	-8.39817
▁난	-8.39905
▁정	-8.40001
▁사는	-8.40177
▁없을	-8.40189
▁잘하는	-8.40317
▁거라	-8.40699
▁가져	-8.40853
▁선택	-8.40854
▁엄청	-8.41678
▁싶네	-8.41934
▁확신	-8.41945
▁의미	-8.42021
릴게요	-8.42205
▁걱정	-8.42237
▁덜	-8.42405
▁짝남한테	-8.42418
▁소개팅	-8.42457
▁모두	-8.42813
줄	-8.43054
▁놀	-8.43064
▁아닌	-8.43458
▁정리가	-8.43688
▁사이	-8.44021
▁왔어	-8.44215
▁필요한	-8.44448
냐	-8.44509
▁나와	-8.44509
▁맞는	-8.44518
▁쉬운	-8.4457
▁이해	-8.44755
▁처음	-8.44893
통	-8.44903
▁잠	-8.45125
▁후폭풍	-8.4543
▁사람한테	-8.45556
▁진심	-8.45683
▁좋아할	-8.46277
▁모르겠어요	-8.46362
▁5	-8.4653
야지	-8.46575
▁되	-8.46675
▁받아	-8.46676
▁많았	-8.46966
구	-8.46992
▁모습	-8.47113
▁있다면	-8.47374
▁정도	-8.47504
내	-8.47869
▁새	-8.47931
▁앞에	-8.48606
▁몇	-8.48812
▁그만	-8.49244
▁손	-8.49399
신	-8.49709
▁날이	-8.4976
었어	-8.49857
▁기다리	-8.49921
▁신경	-8.50097
▁빨리	-8.50193
더니	-8.50226
▁영화	-8.50761
▁화	-8.50773
▁막	-8.50773
▁아픈	-8.50827
▁생각나	-8.51159
▁상대	-8.51192
▁이별이	-8.51398
▁번	-8.51582
▁바람	-8.51999
▁말이	-8.52016
▁했는데	-8.52507
▁잘하고	-8.52513
▁사람들	-8.52625
~	-8.53046
며	-8.53107
했나봐	-8.53132
졌어	-8.53166
것	-8.53177
▁부모님	-8.53205
▁행복	-8.53428
▁만나고	-8.53439
실	-8.53607
▁연습	-8.53993
달	-8.54137
줘	-8.54439
했어요	-8.54552
▁추천	-8.54572
▁잔	-8.54742
▁추억	-8.54791
디	-8.54994
▁상황	-8.55008
트	-8.55054
▁물어보	-8.5522
▁차	-8.55276
▁싶어요	-8.55358
▁말씀해	-8.55467
▁잠시	-8.55506
▁자기	-8.55591
▁예뻐	-8.55611
볼까	-8.55647
▁귀	-8.55827
▁괜찮은	-8.56244
했는데	-8.56257
▁입	-8.56372
▁6	-8.56456
▁약	-8.5676
▁이상	-8.5698
▁언젠	-8.56999
▁천	-8.57526
▁있었나	-8.57534
용	-8.57911
▁슬픈	-8.58409
▁자신이	-8.58411
▁무	-8.58564
▁느낌	-8.58789
▁만난	-8.58983
▁사세요	-8.59421
▁4	-8.59682
▁감기	-8.59983
듯	-8.60128
▁얼굴	-8.60182
일까	-8.60303
▁된	-8.6094
▁되길	-8.60983
번	-8.61142
▁아픔	-8.61195
▁걸까	-8.61288
없이	-8.61376
▁아닌데	-8.61582
▁힘내세요	-8.6165
▁신경쓰지	-8.61756
▁남편이	-8.6186
▁갖	-8.61954
▁되지	-8.62452
▁안해	-8.6253
▁다가가	-8.62662
이랑	-8.63101
보	-8.63438
▁만남	-8.63522
▁두	-8.63748
▁갈	-8.63926
▁쓰	-8.64038
만에	-8.64508
▁부	-8.6452
있는	-8.64551
▁힘이	-8.64563
▁받고	-8.64564
▁어려워	-8.64566
▁원하는	-8.64836
▁곧	-8.64967
다니	-8.65193
▁바쁘	-8.65303
▁여친이	-8.65328
해야	-8.65371
지는	-8.6539
일째	-8.65454
▁만들	-8.6557
▁같네	-8.65729
▁소리	-8.65773
▁사귀고	-8.65794
▁넘	-8.65881
▁힘들다	-8.65918
▁표현	-8.66105
▁예쁘	-8.66172
답	-8.66396
▁먹	-8.66486
소	-8.66494
▁호감	-8.66828
사	-8.6684
▁고민이	-8.67639
▁학교	-8.67647
▁주무	-8.67793
▁귀찮아	-8.67803
▁티	-8.679
▁직장	-8.681
▁일어나	-8.68286
▁궁금해	-8.68342
▁끝나	-8.68418
▁않죠	-8.6847
▁아는	-8.69342
▁알바	-8.695
▁사귀는	-8.69952
째	-8.70008
▁힘들지	-8.70282
▁꿈에	-8.70321
▁힘들겠지	-8.7074
▁건강	-8.71035
▁합니다	-8.71163
▁화장	-8.7119
▁소중	-8.71203
▁확실한	-8.71294
▁줘	-8.71544
▁사랑했던	-8.71637
▁뭐야	-8.71714
▁것이	-8.71871
텐데	-8.71896
▁실수	-8.72301
▁연락하고	-8.72437
!!	-8.72614
▁놀아	-8.72683
인가	-8.7271
가서	-8.72803
▁옷	-8.7292
▁여자애	-8.73432
▁차단	-8.73663
거야	-8.73817
릴	-8.73996
▁재미	-8.74155
▁나서	-8.74216
▁힘들게	-8.74292
▁물어보는	-8.74396
▁게임	-8.7446
울	-8.74553
▁나중에	-8.7458
▁자체	-8.74633
▁썸남이	-8.74717
▁위해	-8.74737
▁여유	-8.75025
▁떠나	-8.75065
▁첫사랑	-8.75249
▁좋	-8.75315
하	-8.75484
▁챙겨	-8.75541
▁못하겠어	-8.75742
▁그녀를	-8.75773
▁미리	-8.75796
▁중에	-8.7617
게요	-8.76212
▁가기	-8.76277
▁전에	-8.7636
▁좋았	-8.77068
갈	-8.77837
▁생겼	-8.77954
집	-8.78048
보면	-8.78132
▁즐거	-8.78174
▁만났어	-8.78217
▁먹어야지	-8.78237
▁괜찮을까	-8.7826
▁다음에	-8.78317
▁고민이야	-8.78321
란	-8.78326
▁짝녀한테	-8.7845
▁동	-8.79156
▁그분	-8.79165
▁차이	-8.79174
▁편이	-8.79297
▁하죠	-8.80365
▁끝이	-8.8104
▁행복해	-8.81119
▁있지	-8.81428
▁드는	-8.81842
▁보통	-8.81903
▁좋아하면	-8.82058
▁거죠	-8.82213
▁확인해	-8.82323
▁싫다	-8.82333
▁됐어	-8.82473
▁지켜	-8.8252
▁따뜻	-8.82585
▁맛있는	-8.82717
▁좋아하게	-8.82936
▁위로	-8.83099
▁아프	-8.83172
▁먹으면	-8.83263
해야지	-8.84048
▁알게	-8.84133
▁좋다	-8.84168
▁다를	-8.84255
▁세상	-8.84419
▁헤어지	-8.84826
▁금	-8.85276
▁못하는	-8.85437
▁비싸	-8.85506
▁마시	-8.85522
했으면	-8.85539
▁우산	-8.85695
▁적	-8.85703
▁작은	-8.85758
이별한	-8.85777
▁대해	-8.85793
▁중요하지	-8.86045
▁절대	-8.86103
▁친구한테	-8.86189
▁하늘	-8.86199
▁헤어졌습니다	-8.86211
▁법	-8.86428
▁이별의	-8.86875
▁잠이	-8.8689
럽	-8.86919
▁맨날	-8.87041
▁뿐	-8.87051
▁잘못	-8.87073
▁봐	-8.87114
▁연인	-8.87135
걸까	-8.87289
▁주	-8.87454
두	-8.87707
▁책	-8.87869
▁남자들	-8.88128
▁설레	-8.88599
가면	-8.88621
▁많아요	-8.8871
▁안되는	-8.88806
▁좋아하는데	-8.88902
▁편하	-8.88938
▁이별후	-8.89189
▁말해	-8.89252
▁받는	-8.89497
▁목	-8.89599
▁받을	-8.89619
전	-8.89624
▁종교	-8.89693
▁분위기	-8.89693
▁바쁜	-8.89698
▁기회	-8.89698
▁알려줘	-8.897
▁생길	-8.8976
▁보면	-8.8977
▁코	-8.89817
▁자신감	-8.89825
인가봐	-8.89894
▁곳이	-8.89972
▁카페	-8.90034
그리고	-8.90192
▁시험	-8.90216
▁잠깐	-8.90219
▁좋지	-8.90402
애가	-8.90439
▁알고	-8.90702
비	-8.90875
▁당	-8.91218
▁타고	-8.91238
▁진정	-8.91335
▁생각할	-8.91578
▁가능	-8.91849
린	-8.91943
▁정신	-8.92042
▁고생	-8.92095
▁간다	-8.9221
▁배	-8.92455
▁도전	-8.92497
▁자연스러	-8.92524
단	-8.92713
▁대	-8.93093
선	-8.93248
▁일을	-8.93301
▁전여친	-8.93404
▁하는데	-8.93597
▁주는	-8.93601
▁살아	-8.93649
▁만나지	-8.93756
▁친구들이	-8.93837
▁뭔가	-8.93859
▁뭔지	-8.93859
가슴이	-8.93859
덧	-8.93859
▁멋진	-8.93869
▁같습니다	-8.93893
▁시켜	-8.94068
중	-8.94475
▁좋겠죠	-8.94666
▁아닌지	-8.94708
▁노력	-8.94742
▁행동	-8.95129
▁돈이	-8.9526
하다	-8.9537
▁매	-8.95432
이라면	-8.95814
▁살펴	-8.95906
돼	-8.95938
▁맛	-8.95944
▁사람에	-8.95951
우	-8.96275
▁보지	-8.9632
▁거짓말	-8.96485
낼	-8.96536
다가	-8.96615
▁이제는	-8.96629
▁상관	-8.96754
▁오는	-8.96879
▁안녕	-8.97114
▁약속	-8.97122
증	-8.97221
살	-8.97243
▁세	-8.9727
스	-8.97363
▁힘들었	-8.97371
▁들	-8.97506
▁그래요	-8.97557
▁기	-8.97801
▁관리	-8.97813
림	-8.98155
▁드디어	-8.98207
▁자존감	-8.98207
▁자책하지	-8.98217
▁남친이	-8.98223
▁않는다면	-8.98305
▁순간	-8.98382
▁연락해도	-8.98403
▁받아들이는	-8.98515
▁봄	-8.98548
▁조	-8.98641
▁죽을	-8.9881
▁복	-8.98846
▁위	-8.98851
▁시기	-8.9893
▁서로에	-8.99258
난	-8.99303
▁되네	-8.99314
▁인정	-8.99397
▁해봐요	-8.99459
▁감	-8.99702
▁가야	-8.99747
▁여자애가	-8.99799
▁되어	-8.99839
▁말하는	-8.99852
▁괜찮	-8.99996
▁먹을	-9.00085
▁세상에	-9.00256
▁사랑하면	-9.0058
동안	-9.00634
▁글	-9.00761
마	-9.00811
▁못해	-9.00957
겠어	-9.00957
▁건지	-9.0148
되면	-9.01743
▁사귀	-9.01937
라면	-9.0196
▁밤	-9.02063
감	-9.02115
▁미련이	-9.02233
▁욕	-9.02271
▁개	-9.02364
더라	-9.02374
▁모	-9.02501
짝	-9.02601
▁월급	-9.02703
▁둘	-9.02724
엔	-9.02752
▁예쁜	-9.02752
▁떨려	-9.02777
▁생기	-9.02864
▁인기	-9.0291
같은	-9.02997
▁파	-9.03058
▁아닐까요	-9.03115
▁그러면	-9.03344
크	-9.03413
▁이상형	-9.03612
▁뭐라고	-9.03838
▁괜찮을	-9.03843
▁해보는	-9.03975
▁괜찮아	-9.04247
들이	-9.04391
하려고	-9.04477
▁선	-9.04939
줬	-9.05115
▁없이	-9.05346
▁상담	-9.05404
▁습관	-9.05509
▁가세요	-9.0557
▁긴	-9.05606
▁정리하는	-9.0569
▁보러	-9.05723
▁잊는	-9.05854
▁문자	-9.05934
▁사랑하고	-9.06102
▁잊지	-9.06113
▁사랑한다	-9.06465
▁있습니다	-9.06855
▁능력이	-9.06873
▁폰	-9.06978
▁환승	-9.07088
▁되고	-9.0709
▁두려워	-9.07135
▁꾸준	-9.07196
▁없나	-9.07284
▁짜증나	-9.0729
▁먹는	-9.07482
▁이별에	-9.07489
▁기다리는	-9.07489
▁편지	-9.07514
▁무서워	-9.07516
▁질투	-9.07516
▁적당히	-9.07523
▁썸녀	-9.07594
▁축하해요	-9.07732
▁싸	-9.07759
▁후회하지	-9.07994
▁내려	-9.08039
▁조언	-9.08146
후	-9.08399
▁눈물	-9.08413
▁좋아하	-9.0851
▁주변	-9.08514
▁물어봐	-9.08901
▁상황이	-9.09107
▁방법이	-9.09128
고생	-9.09669
▁아프네	-9.09943
▁사랑해	-9.10099
▁성격이	-9.10459
아요	-9.10536
▁두달	-9.10648
말	-9.10721
오면	-9.10823
▁척	-9.10918
▁구	-9.11013
▁그러	-9.11572
▁프사	-9.1159
▁안나	-9.1185
셔	-9.11981
을까	-9.12069
▁나랑	-9.12119
▁되겠	-9.12151
혀	-9.12472
▁비밀	-9.12512
▁옆에	-9.12514
▁최선	-9.12514
▁어려운	-9.12535
▁헤어졌어	-9.12547
▁있잖아	-9.12557
▁별로	-9.12867
▁않을까요	-9.13088
▁뭐라	-9.13098
▁일상	-9.13124
▁싶지	-9.13163
▁좋아하나	-9.13191
더라고요	-9.13305
▁청소	-9.13365
▁잊을	-9.13388
▁보이	-9.13408
▁주면	-9.13433
▁사랑할	-9.13524
▁경우	-9.13902
▁같	-9.13944
▁로맨틱	-9.14009
▁뿐이	-9.14246
▁쇼핑	-9.14286
▁앞	-9.14464
▁전남친	-9.14555
별	-9.14808
놓고	-9.15836
▁사람과	-9.15849
▁알면	-9.1588
▁지났네	-9.15949
▁답	-9.15993
▁잊혀지	-9.16287
▁짝사랑하는	-9.16374
▁잊고	-9.16403
▁나을	-9.1647
▁이사	-9.16623
▁사랑한	-9.16626
▁필요하겠	-9.16751
나요	-9.17118
▁탈	-9.17243
같아	-9.17466
▁느낌이	-9.17639
▁헷갈리	-9.17671
건가	-9.17678
▁여러	-9.17703
▁생각만	-9.17772
▁받지	-9.17777
땐	-9.17777
론	-9.17777
▁오빠	-9.17778
▁병원	-9.17779
▁바빠	-9.17781
▁어플	-9.17788
▁원래	-9.17824
▁용기내	-9.17897
▁제대로	-9.17958
▁누가	-9.18198
▁쉬어	-9.18312
▁저에게	-9.18459
▁현상	-9.18469
▁인사	-9.18667
▁자신에게	-9.18691
▁그대로	-9.18699
▁이번	-9.18726
▁행복하	-9.18732
▁행복한	-9.18786
▁있으니까	-9.188
▁드시	-9.19301
해볼까	-9.19588
▁것보다	-9.19609
▁좋아할까	-9.19612
▁시작이	-9.19673
▁인연	-9.19676
했	-9.19679
▁연락하는	-9.19704
가요	-9.19797
▁주말	-9.19859
었으면	-9.19997
▁친구들	-9.20261
▁노력하	-9.20394
▁감정이	-9.20772
▁눈에	-9.20789
▁온	-9.20868
▁모르	-9.20913
▁속이	-9.20978
▁마련	-9.21123
보고	-9.21165
식	-9.21288
▁군대	-9.21338
▁썸이	-9.21433
▁끝을	-9.21486
▁유	-9.21494
▁모르겠네	-9.21621
▁분	-9.221
법	-9.22203
ᅲᅲ	-9.22261
종	-9.22327
한다면	-9.22441
ᅲ	-9.22465
▁성공	-9.22721
조	-9.22757
다는	-9.22958
됐어	-9.23008
성	-9.23026
▁보고싶어	-9.23228
▁아닐	-9.23248
▁스킨십	-9.23253
예	-9.23326
▁10	-9.23333
▁버텨	-9.23333
▁연예인	-9.23333
▁발표	-9.23334
▁담배	-9.23337
▁집안일	-9.23361
▁화장실	-9.23366
▁부담스럽	-9.23374
▁감사	-9.23375
▁안들어	-9.23469
▁의사	-9.2357
▁눈치	-9.2359
▁후회할	-9.23811
▁있나요	-9.23861
▁받았어	-9.23905
년째	-9.23935
▁등	-9.24058
잠을	-9.24091
▁가능성	-9.2418
▁종	-9.24193
▁우울	-9.24451
는건	-9.24454
▁힘내	-9.24498
▁사람에게	-9.24542
▁달라지는	-9.24625
▁되기	-9.24759
▁그녀가	-9.2485
▁확실	-9.24859
▁호감이	-9.25036
▁보여	-9.25089
들을	-9.25169
▁한잔	-9.2534
야겠다	-9.25462
▁놓아주	-9.25745
▁못하고	-9.2592
▁생겼어	-9.26138
▁얘기	-9.26729
▁시원	-9.26731
▁깨	-9.26806
▁끝내	-9.26826
▁만나자	-9.2709
▁이야기해	-9.27229
시군요	-9.2723
▁가족	-9.27274
할때	-9.27311
왔어	-9.27611
겠다	-9.27666
▁속	-9.27714
ᅮ	-9.27808
▁따	-9.27845
▁극복	-9.27875
▁고민하	-9.27905
하니까	-9.28134
▁강	-9.28158
▁별	-9.28249
밖에	-9.28271
▁톡	-9.28281
▁확인	-9.28365
▁안하고	-9.28666
▁만남이	-9.28717
▁마셔	-9.28845
칠	-9.28933
▁최고	-9.28981
▁본인	-9.29001
메	-9.29138
워	-9.29141
▁어쩔	-9.29148
▁숨	-9.29175
박	-9.2918
▁기다릴	-9.29191
케	-9.29205
▁축하드려요	-9.29216
▁새벽	-9.29216
▁음식	-9.29263
원	-9.29263
▁오랜만에	-9.29272
▁장난	-9.29297
▁답장	-9.29321
▁스타일	-9.29331
▁아이	-9.29339
▁발전	-9.29377
▁한동안	-9.29377
▁집중	-9.29477
▁헤아리	-9.29526
▁필요할	-9.29535
돈	-9.29634
▁해주세요	-9.29791
▁무엇이	-9.29853
▁만나면	-9.29866
말고	-9.29931
▁취미	-9.29987
▁이상한	-9.30152
겠지만	-9.30184
▁눈물이	-9.30218
▁심해	-9.30657
▁아는데	-9.30775
▁것을	-9.30832
▁자연스	-9.30995
▁이해해	-9.31001
▁단	-9.31282
라는	-9.31313
▁꿈이	-9.31476
▁커플	-9.31937
▁부분	-9.32028
▁적어	-9.32112
▁언젠가	-9.32138
▁다르겠지	-9.32198
▁존중	-9.32278
▁웃	-9.32445
▁따로	-9.32888
▁중요하	-9.32899
▁생각하는	-9.33019
▁변하	-9.33121
▁연락하면	-9.33162
▁상처받	-9.33172
▁부담	-9.33219
▁선물이	-9.3358
▁영	-9.33875
▁알아보	-9.33902
▁하다보	-9.34025
▁그렇지	-9.34049
▁먹어	-9.34058
▁적극적	-9.34841
▁다르	-9.3485
▁좋겠지	-9.34966
▁다음	-9.35124
작	-9.3529
▁해결	-9.35363
료	-9.35373
▁생각나는	-9.35406
▁SNS	-9.35465
▁다이어트	-9.35465
▁목소리	-9.35467
▁안경	-9.35478
▁없애	-9.35495
▁걱정돼	-9.35498
▁떠난	-9.35501
▁치과	-9.35505
▁미래	-9.35508
▁상사	-9.35512
▁괜찮아질	-9.35525
▁휴식	-9.35529
이라는	-9.35642
▁좋을텐데	-9.35663
이란	-9.35688
▁이상해	-9.35794
▁살까	-9.35917
▁지나갈	-9.35996
▁주고	-9.3602
▁소식이	-9.36098
▁졸	-9.36134
겨	-9.36154
▁칭찬	-9.36201
▁울어	-9.36222
▁여자친구와	-9.36251
▁버스	-9.36298
▁뭐하지	-9.36586
▁바보	-9.36632
▁없으면	-9.36775
야죠	-9.36789
피	-9.36902
▁생일	-9.36922
▁갈까	-9.3699
양	-9.36997
▁상처를	-9.37024
매	-9.37046
▁싫은	-9.37097
었는데	-9.3716
▁해줘	-9.37228
▁키	-9.37292
▁잊어버리	-9.37385
느라	-9.37414
▁적응	-9.37475
보는	-9.37477
▁붙잡고	-9.37487
▁혼자만	-9.37496
▁빼	-9.37706
▁중인	-9.37842
▁존재	-9.37964
▁차분	-9.38053
당	-9.38142
▁버리	-9.38226
▁쉬는	-9.38328
▁썸타는	-9.38366
병	-9.38374
▁선택일	-9.38806
▁신경쓰	-9.38865
▁어때요	-9.38941
잡고	-9.39117
▁주지	-9.39364
▁맞춰	-9.39511
▁그리워	-9.39597
▁추억이	-9.39703
▁솔직하	-9.39788
▁운명	-9.40278
▁학	-9.40417
▁하기	-9.40711
▁망	-9.40727
냈어	-9.40758
르	-9.40765
▁여자들	-9.4077
▁위로해	-9.40889
▁걸어	-9.40948
하거나	-9.41205
이라고	-9.41653
▁볼까	-9.41966
▁재밌	-9.42038
▁쓰레기	-9.42054
락	-9.421
션	-9.42117
▁졸업	-9.42123
께	-9.42125
▁많죠	-9.42132
▁바뀔	-9.42132
▁사귈	-9.42132
▁안타깝	-9.42132
▁외로워	-9.42139
▁연락처	-9.42152
▁소화	-9.42161
▁누군가	-9.42178
▁지쳤나	-9.42256
▁만났는데	-9.42264
▁실감	-9.42355
▁어쩌지	-9.42366
▁앞으로	-9.42393
▁걱정하지	-9.42399
건지	-9.42445
▁보기	-9.42626
▁다행이	-9.42652
▁있겠지	-9.4281
▁쐬	-9.43009
▁편할	-9.43031
▁않으면	-9.4316
▁곳에	-9.43185
바	-9.43254
▁동거	-9.43272
한다	-9.43272
▁나오	-9.43311
▁꿈에서	-9.4335
분	-9.43426
못한	-9.43548
▁커	-9.43577
▁도서관	-9.43585
동	-9.43764
▁놀고	-9.43846
▁써	-9.43997
▁사랑해서	-9.44025
약	-9.44032
▁하셨	-9.44045
▁있고	-9.44085
▁사야	-9.44096
한데	-9.4416
▁안와	-9.44229
▁죽	-9.44241
어서	-9.44465
▁이거	-9.4452
▁지내	-9.44523
▁빌려	-9.44528
▁미워	-9.44535
▁정리하	-9.44553
▁여기	-9.44711
저	-9.44738
▁듣	-9.44801
▁풀어	-9.44989
될	-9.45044
▁당당하	-9.45228
좀	-9.45329
▁뜻	-9.45467
초	-9.45474
▁나가	-9.45474
준	-9.45491
▁뒤	-9.45614
새	-9.45661
▁되었	-9.45896
이면	-9.45952
▁떠	-9.45966
▁원	-9.46015
하니	-9.46027
었길	-9.46028
▁궁금하네	-9.46292
▁잊	-9.46354
▁키우	-9.46367
▁휴	-9.46399
▁과정	-9.46422
▁같다	-9.46632
▁괜찮아졌	-9.46919
▁피해	-9.47157
쳐	-9.47205
▁것들	-9.47358
▁신	-9.47449
▁주변에	-9.47775
▁만났	-9.47859
▁연락하지	-9.47968
해줬	-9.48093
▁후련하	-9.48124
거리	-9.48566
▁공	-9.48599
▁쓰는	-9.48646
▁배려	-9.48701
▁왔다	-9.48746
▁장	-9.48768
▁다행	-9.48817
달째	-9.48911
▁않네	-9.48913
▁끝났	-9.4908
▁자격	-9.49261
토	-9.49274
▁기념일	-9.49275
▁마스크	-9.49275
▁면접	-9.49275
▁편한	-9.49275
▁평소	-9.49275
▁추워	-9.49276
▁느려	-9.49276
▁시계	-9.49279
▁미친	-9.4928
▁대학	-9.49281
▁통보	-9.49334
▁결과	-9.49334
▁벗어나	-9.49334
▁관심사	-9.49373
▁친구들과	-9.49386
▁꿨어	-9.494
▁놓	-9.49521
▁배우	-9.4955
▁어울리	-9.49556
▁되는데	-9.49735
▁좋지만	-9.49829
는거	-9.49891
▁크게	-9.49976
▁이건	-9.5
▁소	-9.50031
주가	-9.50131
▁포기	-9.50158
▁그것	-9.50163
▁상관없	-9.50165
▁처음에	-9.50167
▁8	-9.50218
▁식	-9.50221
▁장거리	-9.50234
▁발	-9.50282
▁만드	-9.5037
▁고통	-9.50403
▁했어	-9.50519
▁달라	-9.50602
▁어디서	-9.50629
▁무엇	-9.51201
▁돌려	-9.51236
▁답답해	-9.5127
▁결혼식	-9.51327
▁찾아보	-9.51342
▁못할	-9.51353
▁피곤해	-9.51358
▁힘들겠	-9.51447
▁휴가	-9.51523
▁직접적	-9.51573
▁증거	-9.51636
▁챙겨드	-9.51647
▁될까요	-9.51862
▁않으니	-9.51907
▁했습니다	-9.51965
▁무시하	-9.52085
▁마련이	-9.52215
▁생각나네	-9.52449
▁취업	-9.52615
▁초	-9.52638
▁거절	-9.52863
▁꾸	-9.52865
▁드	-9.52992
하다가	-9.5304
▁인생이	-9.53287
부	-9.53298
▁안하는	-9.53409
끼	-9.53466
▁됨	-9.53552
먹기	-9.53567
으세요	-9.53639
▁집에서	-9.53667
주는	-9.53806
꺼	-9.53935
▁반대	-9.53938
두고	-9.53989
위	-9.54104
허	-9.54515
되	-9.54583
▁본	-9.54621
런	-9.54687
▁소개	-9.54832
었던	-9.5509
▁싸우	-9.55132
줄까	-9.55182
▁미	-9.55226
▁생각하지	-9.5523
▁모아	-9.55437
▁한달이	-9.55485
움	-9.55651
글	-9.55703
▁그랬	-9.55736
했네	-9.55843
었나봐	-9.55998
왔으면	-9.56155
▁짐	-9.56449
인듯	-9.5646
▁조심	-9.56594
▁준	-9.56612
▁듣고	-9.56827
▁이어	-9.56828
▁결정이었을	-9.56886
▁멋있	-9.56922
팅	-9.56927
▁계획	-9.56965
▁권태기	-9.56967
▁샀어	-9.56967
▁심호흡	-9.56967
▁귀여워	-9.5697
▁선톡	-9.56972
▁분명	-9.56973
▁인형	-9.56977
▁떨어져	-9.56986
▁온전	-9.56988
▁여전	-9.56993
▁피부	-9.57
창	-9.57016
▁헤어졌는데	-9.57028
▁은근	-9.5703
▁떨어졌어	-9.57045
▁잘해줘	-9.57086
년이	-9.57102
▁기운	-9.57111
▁친한	-9.57111
▁어떡하지	-9.57114
▁지난	-9.57133
▁과거	-9.57141
▁공부하	-9.57144
▁필요하죠	-9.57196
▁예민한	-9.57205
▁똑같은	-9.57242
▁최고죠	-9.57277
▁그동안	-9.57338
▁먹을까	-9.57499
▁크리스마스	-9.57657
▁보고싶다	-9.57687
▁번호	-9.57718
▁맞았	-9.5792
▁흘렀네	-9.57952
렸어	-9.57972
▁희망	-9.57997
을지도	-9.58
▁미세먼지	-9.58003
▁밖에	-9.58035
▁말투	-9.58042
▁사귀기	-9.58046
▁아니야	-9.58078
▁저한테	-9.58153
▁찾아올	-9.58263
▁순간이	-9.58452
▁잡	-9.58465
하시	-9.58529
▁찾아가	-9.5862
▁자세	-9.58717
▁있다는	-9.58733
기는	-9.58764
▁거울	-9.5879
▁학원	-9.5886
▁감정에	-9.58874
기만	-9.58983
리는	-9.59163
▁헤어져야	-9.59219
▁방학이	-9.5936
▁어찌	-9.59466
▁돌	-9.59467
▁말할	-9.59485
▁심하	-9.59487
▁습관이	-9.5951
▁충전	-9.59612
▁그러게	-9.59833
▁달	-9.59846
▁자신만	-9.59868
▁왔는데	-9.59879
▁거니	-9.59889
▁할텐데	-9.59992
▁저도요	-9.60436
전에	-9.60493
▁차별	-9.60647
▁행복할	-9.6066
하셨	-9.60679
▁올려	-9.60737
지내고	-9.60752
▁있네	-9.6087
▁없지	-9.60883
▁흐르	-9.60979
▁일주일	-9.61401
하나	-9.61447
▁문득	-9.61623
▁여	-9.61975
▁내리	-9.6215
▁들어가	-9.62179
▁양	-9.62189
▁않게	-9.62527
▁고백하는	-9.62629
▁그사람	-9.62743
▁미치겠	-9.6283
형	-9.63001
급	-9.63069
터	-9.63225
향	-9.63299
▁어렵	-9.63419
▁부모님이	-9.63489
▁잊어	-9.63514
▁안돼요	-9.63592
체	-9.63663
▁연	-9.63673
지지	-9.63674
탈	-9.63693
김	-9.63719
오세요	-9.63854
▁걱정이	-9.64051
▁살아야	-9.64114
나면	-9.64155
▁부러워	-9.64159
▁개인	-9.64278
▁드네	-9.64292
▁지쳐	-9.64301
▁슬퍼	-9.64377
코	-9.64514
배	-9.6459
▁준비하	-9.64684
▁재	-9.64737
▁친구로	-9.64739
▁사이에	-9.64775
하고싶어	-9.64825
▁순	-9.65249
▁완벽	-9.65265
▁무서운	-9.65269
숙	-9.6527
▁많지	-9.653
콩	-9.653
ᄏ	-9.653
▁드라마	-9.653
▁딸기	-9.653
▁멈추	-9.653
▁짧은	-9.653
▁하루하루	-9.653
곰	-9.653
닉	-9.653
링	-9.653
▁이별통보	-9.653
▁스키	-9.65302
▁이겨낼	-9.65302
▁혹시	-9.65302
▁축구	-9.65303
▁진급	-9.65309
▁전환	-9.65312
▁불러	-9.65313
▁응원합니다	-9.65317
▁이겨내	-9.65318
▁언제쯤	-9.6532
됐는데	-9.65323
▁맞는걸까	-9.65348
▁남겨	-9.65352
차근	-9.6536
▁잡아	-9.65361
▁막말	-9.65368
▁부럽네요	-9.65376
▁인간	-9.65392
▁이성으로	-9.65402
▁사소	-9.65443
▁끝난	-9.65485
▁내는	-9.65514
▁기본	-9.65519
▁즐기세요	-9.65568
▁채워	-9.65573
▁몰랐	-9.65575
▁차라	-9.65579
▁습관이에요	-9.65615
▁안됐는데	-9.65646
▁인상	-9.65668
▁지금처럼	-9.65713
▁오해	-9.65817
▁헤어지자고	-9.65905
▁깊은	-9.65913
▁성공하	-9.65955
각	-9.65964
▁회사에서	-9.66019
▁없어서	-9.66233
▁독	-9.66252
▁많은데	-9.66293
드리	-9.66422
▁시어머니	-9.66429
▁그대	-9.66457
▁부러워요	-9.66458
▁행복하게	-9.66733
▁안전	-9.66905
▁더워	-9.6691
▁떨	-9.66911
▁거겠죠	-9.6718
▁사귀어	-9.67181
▁배우는	-9.67407
▁명	-9.67515
하던	-9.67594
▁통해	-9.67611
▁있을거예요	-9.67646
▁복잡하	-9.67768
구나	-9.67813
▁거야	-9.67899
▁배워	-9.67979
▁추천해	-9.68003
▁생겼네	-9.68111
▁깊	-9.68224
▁쉬어가	-9.68237
▁부족한	-9.68314
▁됐으면	-9.6835
봐도	-9.68376
▁조절	-9.68378
▁표현해	-9.68652
▁남기	-9.68657
▁과정이	-9.68865
▁성격	-9.68883
▁지나가	-9.68924
▁떨리	-9.69042
▁않나	-9.69061
▁비교하	-9.69137
▁있겠죠	-9.69458
거같아	-9.69528
▁절	-9.69556
▁분이	-9.69647
어도	-9.6966
▁사실	-9.69716
▁살펴보	-9.69963
▁타이밍이	-9.70013
▁부분이	-9.70165
줬어	-9.70378
되는데	-9.70409
▁재미있	-9.70435
▁됩니다	-9.70516
▁집착	-9.70545
▁우	-9.70552
▁싸우면	-9.70699
▁나올	-9.71279
▁데려다	-9.71287
듯이	-9.71399
▁남들	-9.71406
▁놀러	-9.71479
▁방학	-9.71526
▁참아	-9.71769
연	-9.71892
▁안되	-9.72008
▁마주치	-9.72048
▁지나갔	-9.72057
▁건가	-9.72231
▁답답한	-9.72306
▁돌아가	-9.72318
▁짝사랑이	-9.72494
다가도	-9.72519
▁시작해	-9.72547
▁비가	-9.72637
▁사고	-9.72872
▁많을	-9.72894
재	-9.72937
때도	-9.72975
타	-9.73019
▁마무리	-9.73139
▁피하	-9.73261
▁건강에	-9.73346
반	-9.73445
▁스	-9.73533
▁전부	-9.73535
▁바다	-9.7369
▁가능할	-9.73909
고싶어	-9.73939
문	-9.73949
▁괴롭	-9.74207
플	-9.74217
▁다리	-9.74348
▁아름다	-9.74381
▁가벼	-9.74383
▁곁에	-9.74391
▁기분전환	-9.74391
▁냉장고	-9.74391
▁받은	-9.74391
▁설렘	-9.74391
▁오랫	-9.74391
▁페북	-9.74391
▁평생	-9.74391
▁현재	-9.74392
▁맥주	-9.74392
▁외롭	-9.74393
▁고마워	-9.74394
▁아빠	-9.74394
▁빠르	-9.74396
▁각자	-9.744
▁그리움	-9.744
▁멋져	-9.74405
▁골라	-9.74407
▁진실	-9.74418
▁달달	-9.74428
학	-9.74435
▁집들이	-9.74468
▁행운	-9.7447
짐	-9.74493
▁남을	-9.74497
해줄	-9.74506
▁상상	-9.74521
▁고백했는데	-9.74527
▁지칠	-9.74539
▁허리	-9.74547
▁않겠지만	-9.74552
▁챙겨주	-9.74566
▁잠수	-9.74589
▁없겠지	-9.74617
▁외로	-9.74635
▁받으면	-9.7466
▁없겠네	-9.74662
▁걸릴	-9.7467
▁과일	-9.74683
만나기로	-9.74844
이별	-9.74848
▁봄이	-9.74866
▁나왔어	-9.74876
▁출근	-9.7494
▁새로	-9.75055
▁중간	-9.75345
▁접	-9.7536
결	-9.75442
폰	-9.75445
▁의심	-9.75471
▁맞아	-9.7559
▁넌	-9.75615
▁느끼는	-9.75619
▁근처	-9.75624
혼자	-9.7564
▁전공	-9.75655
▁두번	-9.75681
▁쓴	-9.75695
▁바꾸	-9.75695
따라	-9.75719
▁알려	-9.75724
2	-9.75734
남자	-9.75827
▁애들	-9.75846
▁믿음이	-9.75871
▁맘이	-9.75913
▁주말이	-9.76015
하러	-9.76024
▁자리	-9.76122
▁말까	-9.76129
▁사귄	-9.76133
▁둘이	-9.76149
▁해주는	-9.76194
버리	-9.76246
▁살기	-9.76365
▁바라	-9.76458
▁헤어지면	-9.76848
▁능력	-9.769
▁상대에	-9.76961
▁빠지	-9.77014
속에서	-9.77123
▁알려주	-9.77151
▁사과	-9.77246
▁중요	-9.7726
▁야근	-9.77286
▁됐네	-9.77297
▁남자랑	-9.77345
▁나에게	-9.77442
▁헤어지는	-9.7752
▁사람들에	-9.77571
▁이용	-9.77586
을텐데	-9.77747
▁어린	-9.7776
▁철	-9.77764
▁상태	-9.77777
▁환승이별	-9.77999
▁유지하	-9.78069
▁차리	-9.78156
▁생각하면	-9.78159
▁무시	-9.78509
▁반지	-9.78706
▁생각이에요	-9.78818
▁갔	-9.78957
▁타다	-9.79304
▁있었을	-9.79375
▁썸타	-9.79407
▁궁금	-9.79546
으	-9.79589
▁했으면	-9.79618
▁노력해	-9.79982
▁널	-9.79984
▁맘에	-9.80153
▁힘들었을	-9.8022
거죠	-9.80366
추	-9.80408
였어	-9.80448
▁표현이	-9.80946
만으로	-9.81014
▁선생님	-9.81311
▁취	-9.8187
▁잊으	-9.82221
▁갔다	-9.82241
▁다녀	-9.82575
녀	-9.82639
▁있으니	-9.82737
▁클럽	-9.82872
▁취향	-9.82897
셨나봐	-9.82905
년간	-9.82907
▁흘렀	-9.82961
▁남편	-9.82972
치고	-9.83239
▁음악	-9.83374
▁긍정적	-9.83464
관	-9.83467
▁결심	-9.8355
▁생각에	-9.83675
▁지워	-9.83758
▁당연	-9.83775
▁담	-9.83883
▁몸에	-9.84074
▁지우	-9.84104
▁역시	-9.84171
레	-9.84179
▁판단	-9.84261
▁입어	-9.84303
▁했나	-9.84329
량	-9.84332
곤	-9.84355
▁공통	-9.84385
염	-9.8439
▁공무원	-9.84391
▁밝혀	-9.84391
▁보험	-9.84391
▁스트레칭	-9.84391
▁싶습니다	-9.84391
▁아까워	-9.84391
▁아무렇지	-9.84391
▁억지로	-9.84391
▁인정받	-9.84391
▁청첩장	-9.84391
▁편해	-9.84391
▁휴대폰	-9.84391
▁조급해	-9.84391
▁달콤	-9.84392
▁허전하	-9.84392
▁목표	-9.84394
▁회식	-9.84394
▁앞머리	-9.84395
▁배고파	-9.84397
▁태어난	-9.84397
▁언니	-9.84408
▁간접적	-9.84415
꼬박	-9.84416
▁기원	-9.84446
▁향수	-9.84451
▁힘든가봅니다	-9.84452
▁노력하는	-9.84456
▁다녀오세요	-9.84458
▁되었습니다	-9.84461
▁필요하다면	-9.84478
▁경쟁	-9.84501
▁좋아해주는	-9.84502
▁솔직한	-9.84527
▁여름	-9.84547
▁부자	-9.84558
▁긴장	-9.84596
▁헤어질	-9.84636
▁먼지	-9.84643
▁버려	-9.84694
▁많으	-9.84729
▁아프다	-9.84807
테니	-9.84879
▁들어와	-9.8496
▁주말에	-9.84997
은연	-9.85085
시간	-9.8521
▁표현하는	-9.85259
안	-9.85306
▁어서	-9.85341
▁사랑했나봐	-9.85373
▁회사에	-9.85403
▁잊기	-9.85413
▁이불	-9.85735
▁연애에	-9.85745
▁9	-9.85751
▁sns	-9.85764
▁소비	-9.85811
선이	-9.85874
▁신나	-9.85881
▁나을까	-9.85885
▁맛난	-9.85889
▁당황	-9.85908
▁동물	-9.85944
▁극복할	-9.86007
▁찾기	-9.86016
▁가사	-9.86109
▁시	-9.8612
▁경험이	-9.86137
겠습니다	-9.8621
화	-9.86267
▁생각했나봐	-9.86281
▁지나	-9.86403
▁간절	-9.86427
▁마시면	-9.86514
하는거	-9.86517
▁선택이	-9.86606
▁잘못인	-9.86635
▁찍	-9.86656
▁터	-9.8667
짓	-9.86727
▁심한	-9.86734
되는	-9.8681
▁남사친이	-9.86849
드려	-9.86953
▁청	-9.8704
▁사람만	-9.87147
▁늘어	-9.87214
남	-9.87264
▁허	-9.87351
▁뿌	-9.87351
▁남았	-9.87383
▁가능하	-9.8741
▁보니	-9.87472
▁선생님이	-9.87569
▁귀엽	-9.87593
▁바라는	-9.87681
▁헤어지자	-9.877
먹고	-9.87873
▁아프지	-9.87905
▁봐도	-9.88001
▁고치	-9.881
또	-9.88112
▁거의	-9.8816
맛	-9.88189
▁심리	-9.88269
▁있으	-9.88274
▁노래방	-9.88309
▁들었어	-9.88352
친	-9.88396
▁후에	-9.88409
봤	-9.88491
▁마셔야	-9.88638
물	-9.88651
▁의지	-9.88771
▁자신에	-9.8893
▁썸인	-9.89151
▁놀이	-9.89221
야하나	-9.89243
▁용	-9.89385
▁놓고	-9.89558
▁재미있어	-9.8956
로부터	-9.89631
▁생활	-9.89771
스러운	-9.90269
도시	-9.90287
▁있다	-9.90452
어보세요	-9.90591
▁생각한	-9.90593
▁슬	-9.90604
▁온다	-9.90638
▁두고	-9.90646
▁꿀	-9.90681
▁신고하	-9.91238
▁기다리면	-9.91299
▁했던	-9.91423
▁불행	-9.91488
▁나온	-9.91653
▁먹으	-9.91709
▁사정	-9.92063
▁짓	-9.92321
오네	-9.92335
▁이름이	-9.92406
으니까	-9.92425
▁실망	-9.925
▁아니니	-9.92644
▁문	-9.92881
▁재밌는	-9.92961
뿐	-9.93192
▁길어	-9.93377
웠	-9.934
▁매력	-9.93479
▁계절이	-9.93556
▁상대방에	-9.93918
▁최악	-9.93941
▁싫어하는	-9.93971
▁별로라	-9.94246
▁모르겠	-9.94402
▁냄새	-9.94407
▁생긴	-9.9451
력	-9.94596
▁소원	-9.94598
▁자유	-9.94854
▁않을까	-9.9491
하지만	-9.94951
▁맞을	-9.95151
▁공감	-9.95152
▁무섭	-9.95153
▁견뎌	-9.95159
▁오랜	-9.95217
▁피곤한	-9.95226
▁기본이	-9.95237
▁보냈	-9.95254
세	-9.95317
▁라면	-9.95323
님	-9.9542
콜	-9.9546
릿	-9.955
▁멀리	-9.95502
▁30	-9.95502
▁빼빼로	-9.95502
▁콩깍지	-9.95502
껏	-9.95502
팍	-9.95502
▁악몽	-9.95502
▁핑계	-9.95502
▁메모	-9.95503
▁심경	-9.95503
▁염색	-9.95503
▁위로봇	-9.95503
▁외모	-9.95503
▁깨끗	-9.95504
▁명절	-9.95505
▁생겨	-9.95512
▁노후	-9.95514
▁에휴	-9.95515
▁버릴	-9.95516
▁일어났	-9.95517
▁대출	-9.95518
▁싸워	-9.95526
▁있겠	-9.95531
▁성향	-9.95531
▁이미	-9.95535
▁말해주	-9.9554
▁맛집	-9.95549
▁기준	-9.95555
▁좋으면	-9.95564
▁인내	-9.95564
▁다음부터	-9.95573
▁달라진	-9.95575
▁외로움	-9.95643
▁별거	-9.95695
▁고맙다	-9.957
▁안되네	-9.95703
▁거기까지인	-9.95734
▁나아질	-9.95762
▁찾는	-9.95763
▁줄여	-9.95803
▁지울	-9.95809
▁이러지	-9.95849
▁멋지	-9.95852
▁빠를	-9.95863
▁그저	-9.9588
▁있었으면	-9.95893
▁말해볼까	-9.95953
▁그녀에게	-9.9606
▁질	-9.96163
▁놓아	-9.96233
▁취해	-9.96247
▁도와줘	-9.96257
▁글로	-9.96423
▁뭐할까	-9.96425
▁고백해도	-9.96446
▁올라	-9.96491
▁결혼하면	-9.96494
▁불	-9.96496
▁가능해요	-9.96541
▁나가기	-9.9656
고싶은데	-9.96707
일이	-9.96725
▁일하는	-9.96733
▁보이지	-9.96765
▁끝났어	-9.96783
▁가능할까	-9.96865
▁고쳐	-9.96952
▁꼬	-9.96963
▁밀당	-9.97039
▁정류장	-9.97045
▁센스	-9.97045
▁힘듭니다	-9.97048
▁안되겠지	-9.97133
▁헤어졌네	-9.97136
할수	-9.97248
아주	-9.97254
▁읽어	-9.97428
▁흔적	-9.977
▁괜찮아지	-9.97809
▁찍어	-9.97883
▁끝에	-9.97979
▁크	-9.98013
▁힘들겠어	-9.98071
▁궁금하	-9.98157
▁원망	-9.98199
양해	-9.98231
▁많아서	-9.98333
▁사람이니까	-9.98358
▁그럴만	-9.98619
▁미안해	-9.98663
▁흔들리지	-9.98775
만한	-9.98963
▁향	-9.99047
▁슬프	-9.99073
▁늦은	-9.9908
▁이해해주	-9.99162
▁가족이	-9.99251
▁나보다	-9.99336
▁못해요	-9.9951
학기	-9.99522
▁지치	-9.9956
사람	-9.99578
▁성장	-9.99605
▁여사친이	-9.99705
▁패턴	-9.99736
본	-9.99772
역	-9.99813
불	-9.99866
▁교회	-9.99878
▁입을	-9.99881
▁큰일	-9.999
극	-9.99928
▁신경쓰이	-10.0009
▁산책	-10.0025
▁도전해	-10.0033
▁생	-10.0039
▁생각해보세	-10.004
하나봐	-10.0043
▁노	-10.0053
더	-10.0057
채	-10.006
척	-10.0066
▁있기	-10.0066
합	-10.0077
▁즐기	-10.0079
행	-10.0085
▁이해가	-10.0091
▁우울해	-10.0095
▁되었나	-10.0108
▁필요하	-10.0112
놈	-10.0113
말하지	-10.012
복	-10.0124
▁혼자서	-10.0125
생활	-10.0128
애	-10.0143
▁재미없	-10.0151
꾸	-10.0164
보내는	-10.0165
▁이유는	-10.0169
▁속에	-10.0196
▁내보세요	-10.0198
건데	-10.0205
번호	-10.021
밥	-10.0227
었	-10.0231
정리를	-10.0235
▁팔	-10.0236
개	-10.0241
▁싱숭생숭	-10.0241
년의	-10.0243
티	-10.0247
방법	-10.0247
4	-10.0251
▁같지	-10.0253
들고	-10.0254
외	-10.0257
▁도와주	-10.0269
▁해야할까	-10.0304
▁수다	-10.0369
취	-10.0382
지네	-10.0385
▁돌아오	-10.0385
▁왔네	-10.0394
▁해야지	-10.0423
▁어렵네	-10.0424
▁준비하는	-10.0441
▁과식	-10.0458
▁흔들리	-10.0459
▁놔	-10.0459
야돼	-10.0481
▁기다리지	-10.0485
지면	-10.0501
우면	-10.0501
▁운명이	-10.0514
하긴	-10.0521
▁따뜻하	-10.0544
▁나타	-10.0547
▁선배	-10.0549
▁태도	-10.0557
▁끝일	-10.0563
▁이상형이	-10.0563
▁봤어	-10.0578
름	-10.0587
▁먹었	-10.0594
▁믿음	-10.0597
▁걱정되겠	-10.0602
▁결	-10.0605
▁살면	-10.0608
▁실	-10.062
▁맞나	-10.0631
▁잘해	-10.0663
▁받아들	-10.0673
▁텐데	-10.0687
되겠	-10.0693
▁어떨까	-10.0693
왔는데	-10.07
▁오네	-10.0715
▁달라지	-10.0717
▁영원	-10.0722
지고	-10.0723
▁답이	-10.0727
능	-10.0731
▁우선	-10.074
▁동안	-10.0768
▁여기까지	-10.0774
국	-10.0776
▁퇴근	-10.0778
▁착	-10.0785
제가	-10.0788
언	-10.079
▁기억이	-10.0791
▁파혼	-10.0794
▁맞추	-10.0796
궁	-10.08
▁신혼	-10.08
▁빌어	-10.08
▁신뢰	-10.08
▁그럼요	-10.08
▁느낄	-10.08
▁많다	-10.08
▁무기력	-10.08
▁삼겹살	-10.08
▁웬수	-10.08
▁의미부여	-10.08
▁자괴감	-10.08
굉	-10.08
봅시다	-10.08
뻑	-10.08
왤	-10.08
킁	-10.08
푼	-10.08
▁에너지	-10.08
▁택배	-10.08
▁잇몸	-10.08
▁두려움	-10.08
▁우선순위	-10.08
▁인턴	-10.08
▁나아졌	-10.08
▁업무	-10.08
▁회원	-10.0801
▁어필해	-10.0801
▁통화	-10.0801
▁애교	-10.0801
▁매너	-10.0801
▁특별	-10.0801
▁취미생활	-10.0801
▁한숨	-10.0801
▁잡으세요	-10.0802
테리	-10.0802
▁붙여	-10.0802
▁제자리	-10.0802
▁부담스러운	-10.0802
▁단단	-10.0802
▁느껴져	-10.0802
▁보일러	-10.0802
▁사업	-10.0803
▁정신차리	-10.0803
▁영화관	-10.0803
▁이기적인	-10.0803
교통	-10.0804
▁천재	-10.0804
▁까먹었다	-10.0804
▁여우	-10.0804
▁신중	-10.0804
▁실내	-10.0805
▁의욕	-10.0805
▁답답하네	-10.0805
▁우연	-10.0805
▁대단하	-10.0805
▁필름	-10.0805
더라구	-10.0807
▁지갑	-10.0807
▁받아들이기	-10.0807
▁이직	-10.0807
▁배우자	-10.0808
▁비난	-10.081
▁주식	-10.0812
▁들여	-10.0813
▁부드	-10.0814
▁길러	-10.082
▁가족들	-10.082
▁잊는다는	-10.0821
▁우연히	-10.0823
▁움직이	-10.0828
▁설	-10.0832
▁공허함이	-10.0833
▁알아차	-10.0833
오	-10.0836
▁느낌이야	-10.0837
▁성공할	-10.0837
▁속상해	-10.0838
▁맞을까	-10.084
▁나쁘지	-10.0841
▁새해	-10.0848
▁생겼으면	-10.085
▁지나간	-10.0851
▁시선	-10.0856
▁누구에게	-10.0858
거려	-10.0861
▁차가워	-10.0863
▁틀	-10.0863
개월째	-10.0867
▁포기하는	-10.0876
▁영원한	-10.0881
▁놓치	-10.0886
▁생각했는데	-10.0888
▁친해지는	-10.0889
▁느껴지	-10.0897
▁썸인가	-10.09
▁지진	-10.09
가는데	-10.0905
▁알기	-10.0906
▁먹어보세요	-10.091
▁상의	-10.0915
▁알았어	-10.0917
▁잘못된	-10.0925
였	-10.0932
▁위해서	-10.0951
▁참견	-10.0953
났어	-10.0954
▁경	-10.0959
▁운전	-10.0974
▁베	-10.0975
▁잤어	-10.0976
▁베터리	-10.0976
▁프로포즈	-10.0977
▁예감	-10.0978
▁교	-10.0979
▁노는	-10.098
▁있을지	-10.0983
싶어	-10.0984
▁바라지	-10.0986
이네	-10.0988
▁모르게	-10.0988
▁관리하	-10.0996
▁결혼할	-10.0997
▁아기	-10.0999
▁ᅲ	-10.0999
▁죄	-10.1007
▁착한	-10.1008
▁속도	-10.101
▁어장	-10.1011
줄게	-10.1022
▁없을까	-10.1025
▁돌아	-10.1049
▁위기	-10.1052
간다	-10.106
▁보여주	-10.1061
▁예민해	-10.1067
▁파도	-10.1078
▁무시하는	-10.1096
▁있었어	-10.1103
▁다양하	-10.1107
아지	-10.1114
▁산	-10.1131
▁물리적	-10.115
▁거기까지였	-10.115
▁간	-10.1152
▁애매하	-10.1158
▁놀랐	-10.1159
드려요	-10.1168
파	-10.1172
했다	-10.1177
할거야	-10.1185
▁소문	-10.1186
▁싸웠	-10.1201
▁삭제	-10.1217
▁시원하	-10.1221
지마	-10.1224
해질	-10.1228
▁받아보	-10.1236
▁답답할	-10.1241
해졌	-10.1241
▁보낼	-10.125
망이	-10.1252
나게	-10.1252
했나	-10.126
▁아니죠	-10.1273
근	-10.1276
▁찌	-10.1281
▁아침이	-10.1281
▁당신만	-10.1282
▁쓰이	-10.1289
▁자격증	-10.1289
▁아플	-10.1291
번호를	-10.1298
해보고	-10.1317
했지만	-10.1326
▁놀러가고	-10.133
인가봅니다	-10.1333
▁타이밍	-10.1342
▁거면	-10.1342
▁생긴다	-10.1344
▁취직	-10.1353
▁다르겠	-10.1357
▁술이	-10.1373
▁전해	-10.1386
▁잘못이	-10.1399
▁올해	-10.1406
▁당황했	-10.1418
▁있을까요	-10.1423
▁가자	-10.1429
▁좋아하는거	-10.1433
▁시키	-10.1439
진다	-10.1441
▁일에	-10.1466
가는	-10.1479
▁후회하	-10.148
함이	-10.1498
▁행복해지	-10.1501
▁지내는	-10.1507
▁잊으려	-10.1515
버려	-10.1553
▁왔습니다	-10.1558
▁동생	-10.1561
▁공부해야	-10.1561
▁착각	-10.1581
일까요	-10.1583
잼	-10.1585
▁때로	-10.1588
만해도	-10.1589
르고	-10.1604
▁치료	-10.1611
▁당했어	-10.1631
▁전남친이	-10.1641
▁차분하	-10.1644
참고	-10.1665
▁슬프네	-10.1686
리를	-10.169
판	-10.1703
▁야경	-10.1716
▁했	-10.1735
▁귀찮	-10.1746
▁직	-10.175
그	-10.1771
▁없나봐	-10.1778
명	-10.1797
▁다가가는	-10.1804
▁거기까지	-10.1813
청	-10.1821
대체	-10.1829
옴	-10.183
산	-10.1833
강	-10.1841
▁애매	-10.1843
▁해야겠다	-10.1844
죄	-10.1855
래요	-10.1872
▁복잡한	-10.1874
▁뭐하는	-10.1877
▁오늘이	-10.1877
▁해야할지	-10.1881
독	-10.1884
깨	-10.1891
▁계	-10.1893
▁사과하	-10.19
둘	-10.1903
▁비슷	-10.1904
잖아	-10.1912
▁집착하	-10.1915
리기	-10.1918
몸	-10.1919
▁죽고	-10.1925
▁단계	-10.1932
매일	-10.1939
▁하던	-10.1943
해줘	-10.1968
중입니다	-10.1972
주지	-10.1979
▁가만	-10.1997
▁부담스러워하	-10.2002
다시	-10.202
▁헤어	-10.2023
카드	-10.2025
하자	-10.2031
해주는	-10.2044
았는데	-10.2046
▁세상이	-10.2054
개월이	-10.2065
▁불편	-10.2067
▁후회해	-10.2086
▁이루어	-10.2086
니가	-10.2096
▁장소	-10.2101
▁하는건	-10.2104
▁당연하	-10.211
▁받았	-10.2111
시나	-10.2123
▁아닐까	-10.2133
▁가능해	-10.2146
▁어쩌	-10.2148
시간이	-10.2151
▁누	-10.2154
하겠죠	-10.2167
▁일부	-10.2182
려면	-10.2187
씨	-10.2219
쯤	-10.222
▁잊혀질	-10.2223
▁택시	-10.2227
왕	-10.2229
▁결혼적령기	-10.2229
▁깨닫	-10.2229
▁노트북	-10.2229
▁동호회	-10.2229
▁머리카락	-10.2229
▁무릎	-10.2229
▁바꿔야	-10.2229
▁변한	-10.2229
▁봉사활동	-10.2229
▁비싼	-10.2229
▁사랑받고	-10.2229
▁셀카	-10.2229
▁싶으	-10.2229
▁유효기간	-10.2229
▁자존심	-10.2229
▁잠재력	-10.2229
▁짧지	-10.2229
▁최근	-10.2229
▁출퇴근	-10.2229
▁트라우마	-10.2229
꽤	-10.2229
쩍	-10.2229
팸	-10.2229
햇	-10.2229
▁새출발	-10.2229
▁여드름	-10.2229
▁낭비	-10.2229
▁단둘이	-10.2229
▁아름답	-10.2229
▁챙기	-10.2229
▁발렌타인데이	-10.2229
▁월요일	-10.2229
▁마침표	-10.2229
▁즐겁	-10.2229
▁강렬	-10.2229
▁고쳐쓰는	-10.2229
▁좋으시	-10.2229
▁사회생활	-10.2229
▁괴로워	-10.2229
▁제주도	-10.2229
▁흘려	-10.2229
▁데려가	-10.2229
▁버티	-10.2229
▁표정	-10.2229
▁증오	-10.223
▁발목	-10.223
▁성별	-10.223
▁기울여	-10.223
▁축하합니다	-10.223
▁축복	-10.223
▁아름다워	-10.223
▁15	-10.2232
▁이쁜	-10.2232
▁문신	-10.2232
▁부부	-10.2233
▁깨달음	-10.2234
▁세워	-10.2234
▁자취	-10.2236
▁성공적	-10.2236
▁조용	-10.2237
유증	-10.2237
▁불편해	-10.2238
▁같음	-10.2239
▁소주	-10.2239
▁중국어	-10.2241
▁한강	-10.2242
▁불안해	-10.2245
▁방식	-10.2247
▁가능합니다	-10.2247
▁어른	-10.2248
▁어려	-10.225
▁먹었는데	-10.2251
▁욕심	-10.2254
▁익숙해지지	-10.2256
▁끝날	-10.2257
▁같아서	-10.2262
▁호의	-10.2265
▁계기	-10.2267
▁웃어보세요	-10.2267
▁응원해요	-10.2267
▁일들이	-10.2267
▁점심	-10.227
▁건조	-10.227
▁참는	-10.2275
▁떨어지	-10.2276
▁집착해	-10.2277
▁포장	-10.2278
▁먹었어	-10.2281
▁아닌거	-10.2281
▁뒤에서	-10.2282
▁좋아했는데	-10.2285
갔어	-10.2287
▁푸	-10.229
▁뻔	-10.2293
▁언제든	-10.23
이라니	-10.2303
▁하루에도	-10.2307
▁변명	-10.2314
▁이어나가는	-10.2321
▁걸려	-10.2332
▁결정할	-10.2338
▁좋아하지	-10.2344
▁충전하	-10.2354
▁가치	-10.2355
▁나아지	-10.2356
일차	-10.2357
시다	-10.236
▁좋아하시	-10.236
▁애기	-10.2364
▁생각날	-10.237
▁웃으면	-10.2379
았어	-10.2384
▁중요한데	-10.2386
▁있음	-10.2386
▁심어	-10.2395
▁지금보다	-10.2396
▁알아가	-10.2398
▁애정	-10.24
▁남는	-10.2402
▁기간	-10.2407
▁그럴까	-10.2415
▁행복해질	-10.242
▁안부	-10.2428
▁될거예요	-10.243
▁남았나봐	-10.243
▁충격	-10.2434
▁빠져	-10.2436
줘야	-10.2439
▁자는	-10.2444
바이	-10.245
▁걸음	-10.2453
▁나한테만	-10.2465
▁생각할까	-10.2466
▁기간이	-10.2466
▁심장	-10.2473
▁쓰지	-10.2487
▁그러는	-10.2489
하겠네	-10.2489
라니	-10.249
하려는	-10.2507
었습니다	-10.2507
▁샤워	-10.2511
▁봤	-10.2514
▁입지	-10.2521
▁ᅲᅲ	-10.2527
▁밤에	-10.2545
▁늦어	-10.2548
▁변하는	-10.2552
▁정의	-10.2553
▁깨요	-10.2561
▁고장	-10.2566
▁깔끔	-10.2572
▁여자와	-10.2576
▁까먹	-10.258
▁삭제하는	-10.2583
▁사랑하	-10.2588
▁있었	-10.259
▁카드	-10.2621
▁남자한테	-10.2623
▁잊어야	-10.2623
▁싸움	-10.2631
형이	-10.2637
▁돌리	-10.2637
▁고르	-10.2643
가세요	-10.2643
▁옴	-10.2644
▁찾아오	-10.2648
▁말해줘	-10.265
▁나가야	-10.2655
▁대체	-10.2657
▁좋아한다	-10.2664
▁되겠지	-10.2665
▁의외	-10.2665
▁잡았	-10.2666
▁부탁	-10.2675
나서	-10.2684
▁풀렸	-10.2689
▁해드	-10.2691
▁헬스장에	-10.2696
▁두근거리겠	-10.27
▁받아야	-10.2736
▁반응	-10.2737
▁연애하고	-10.2738
▁몰랐어	-10.2747
였나	-10.2747
▁행동이	-10.2747
난다	-10.2752
달이	-10.2753
▁피곤	-10.2759
▁쓸	-10.276
분이	-10.2777
▁사랑한다는	-10.2784
값	-10.2788
▁땅	-10.2795
▁짠	-10.2795
▁코스	-10.2795
▁덜할	-10.2802
▁끝났네	-10.2831
▁약이	-10.2833
이겠죠	-10.2837
▁없었	-10.2845
▁나왔	-10.2859
▁있었나요	-10.2865
▁그때	-10.2874
▁얼굴이	-10.2881
하며	-10.2897
▁한다	-10.2904
하겠습니다	-10.2905
▁절약	-10.2905
▁힘드신가	-10.293
▁붙잡	-10.2938
▁방	-10.2939
▁사람인가	-10.2947
려나	-10.2986
▁전화하는	-10.2993
뿐이	-10.2993
▁잘해주는	-10.2994
▁미련없	-10.3004
▁인정하	-10.3005
▁나아	-10.3012
▁서운하	-10.3023
▁생각하	-10.3039
받았어	-10.3056
▁보게	-10.3091
▁전화가	-10.3095
▁참지	-10.3106
▁여행가	-10.3115
▁진심이	-10.3116
▁용서	-10.314
▁살아가	-10.3149
▁가려	-10.3155
▁버	-10.316
▁있어야	-10.3162
▁이별하고	-10.3167
하는지	-10.3197
▁끝인	-10.3202
▁웃는	-10.3209
▁축하해주	-10.3215
▁소식	-10.324
이길	-10.3258
▁사람인	-10.3287
▁살지	-10.3291
여자들이	-10.3295
~~	-10.33
▁확실하	-10.3308
▁화가	-10.3313
▁잠수이별	-10.3314
▁좋을까요	-10.334
▁헤어져	-10.3388
▁부탁해	-10.3393
▁필	-10.3404
▁성적	-10.3411
▁마음만	-10.3444
일만	-10.3446
▁이성	-10.345
놓	-10.3461
▁가까	-10.3464
월	-10.3467
▁포	-10.3474
기를	-10.3484
▁빠	-10.3487
백	-10.3492
인걸까	-10.3494
ᄒᄒ	-10.3503
출	-10.3508
있어	-10.3511
▁몇일	-10.3527
▁다니	-10.3563
▁못하면	-10.3567
곳	-10.3569
▁군	-10.3591
▁조건	-10.3597
망	-10.3603
▁느껴	-10.3608
▁피곤하	-10.3617
지기	-10.3621
▁가치관	-10.3651
야할까	-10.3657
밖	-10.3661
우니까	-10.3665
색	-10.3668
'	-10.3671
버렸어	-10.3682
카	-10.3684
▁변해	-10.3691
▁물어보면	-10.3704
찬	-10.3711
야할	-10.3713
▁만나러	-10.3728
▁나온다	-10.3739
▁바르	-10.3741
올	-10.3749
▁흘러	-10.3758
같네	-10.3763
▁나네	-10.3776
이니	-10.3781
▁스타일이	-10.3782
▁초대	-10.3785
▁다르지	-10.3793
분들	-10.3794
▁이러	-10.3794
렸	-10.3797
순	-10.3801
해져	-10.3807
▁일년	-10.3809
무	-10.3815
있음	-10.3821
푸	-10.3823
둔	-10.3823
침이	-10.3829
▁똑같	-10.383
했네요	-10.3831
▁사라	-10.3836
▁생일이	-10.3842
설	-10.3845
▁술먹	-10.3847
▁떠보	-10.3848
▁부담스러워	-10.3849
▁짜증	-10.3853
▁바지	-10.3869
갑	-10.387
▁떠오르	-10.3878
▁정리해	-10.3879
▁안좋아	-10.388
넘	-10.3884
있지	-10.3884
▁때문일	-10.3888
▁회복	-10.389
▁그립	-10.389
정규직	-10.3892
즈	-10.3892
스러워	-10.3894
▁메뉴	-10.3895
흥	-10.3895
▁높아	-10.3895
▁득템	-10.3895
▁탈퇴	-10.3895
▁혼내	-10.3895
▁기프트콘	-10.3895
▁끊는	-10.3895
▁낚시	-10.3895
▁눈썹	-10.3895
▁맞지	-10.3895
▁무관심	-10.3895
▁믿으세요	-10.3895
▁받기	-10.3895
▁베풀	-10.3895
▁보이스피싱	-10.3895
▁셀프	-10.3895
▁스터디	-10.3895
▁슬픔	-10.3895
▁쌩얼	-10.3895
▁아이스크림	-10.3895
▁애정표현	-10.3895
▁애틋	-10.3895
▁어둠	-10.3895
▁어젯밤	-10.3895
▁웹툰	-10.3895
▁이벤트	-10.3895
▁잃어버	-10.3895
▁지겨워	-10.3895
▁찜질방	-10.3895
▁첫눈	-10.3895
▁첫인상	-10.3895
▁체육대회	-10.3895
▁축의금	-10.3895
▁층간소음	-10.3895
▁평온	-10.3895
▁합격	-10.3895
▁현금영수증	-10.3895
▁혼술	-10.3895
▁화이트데이	-10.3895
강습	-10.3895
댈	-10.3895
욱	-10.3895
▁관련	-10.3895
▁높겠	-10.3895
▁짜장면	-10.3895
▁흥미	-10.3895
▁누굴	-10.3896
▁추석	-10.3896
▁표시	-10.3896
▁신혼여행	-10.3896
▁로봇	-10.3896
▁치유	-10.3896
▁마주쳐	-10.3896
▁스테	-10.3896
▁안경테	-10.3896
▁무거워	-10.3896
▁소개시켜	-10.3896
▁익숙해질	-10.3896
▁분노	-10.3896
▁단호	-10.3896
▁실례	-10.3896
▁외국인	-10.3896
▁소유	-10.3896
▁일어날	-10.3896
▁분담	-10.3897
▁교양	-10.3897
▁서류에서	-10.3897
▁치매	-10.3897
▁조카	-10.3897
▁걱정된다	-10.3897
▁모자라	-10.3897
▁어려울	-10.3897
▁추운	-10.3898
칼로리	-10.3898
▁시간표	-10.3898
▁다가오	-10.3899
▁나누	-10.3899
▁더러워	-10.3899
▁먹어야겠다	-10.3899
▁우린	-10.39
▁소심해	-10.39
▁빠른	-10.39
▁의견	-10.39
▁이기적이	-10.39
▁바꿀까	-10.39
지긋	-10.3901
▁노려	-10.3902
▁미안하다	-10.3902
▁넘었네	-10.3902
▁달라져	-10.3902
▁추천해줘	-10.3902
▁동감	-10.3903
▁생리	-10.3903
▁아님	-10.3903
▁드라이브	-10.3903
▁이별했습니다	-10.3903
▁참았어	-10.3903
▁말해보는	-10.3903
▁차갑게	-10.3903
▁뭐하냐	-10.3904
▁정리될	-10.3905
▁전역	-10.3905
▁대우	-10.3905
▁공시	-10.3905
▁한계	-10.3905
목	-10.3906
모습	-10.3907
▁전세	-10.3907
관계	-10.3907
▁정신적	-10.3908
▁꺼내	-10.3908
▁책임	-10.3909
▁동성	-10.391
▁낫겠지	-10.3911
▁불만	-10.3911
▁불공평해	-10.3911
그래	-10.3911
▁가야겠죠	-10.3912
▁정답	-10.3912
▁끝낼	-10.3912
▁은행	-10.3912
▁장점	-10.3913
▁주제	-10.3914
3	-10.3914
▁일요일	-10.3915
맥이	-10.3918
▁보답	-10.3919
▁예전	-10.3919
▁쓸데없	-10.3919
▁대답	-10.392
위치	-10.3921
▁누나	-10.3921
▁아무말	-10.3922
▁금연	-10.3926
▁다짐	-10.3928
▁친해질	-10.393
▁수영	-10.3931
▁별로야	-10.3931
▁구멍이	-10.3933
▁안좋은	-10.3933
▁괜찮다면	-10.3934
▁행복할까	-10.3936
▁궁금할	-10.3937
▁행복해보여	-10.3937
▁결혼하	-10.3939
▁태어나	-10.3939
막힌	-10.3941
이렇게	-10.3942
▁생각할수	-10.3948
질러	-10.3949
▁어색해	-10.3949
▁견디고	-10.3949
거니	-10.3952
공	-10.3953
▁안녕하세요	-10.3955
▁무리	-10.3955
▁마다	-10.3956
짐에	-10.3957
▁바디	-10.3957
▁순간이었	-10.3962
▁사귀면	-10.3964
▁멀어지	-10.3968
▁아닌가요	-10.3968
▁안되나	-10.3968
▁티내	-10.3972
▁가능하면	-10.3973
망했어	-10.398
▁뭐임	-10.3981
▁사수	-10.3992
▁왔나	-10.3992
▁받아들이	-10.4001
▁남아	-10.4011
▁보이는	-10.4016
▁달리	-10.4023
리고	-10.4026
▁위험해	-10.4027
▁돌아가고	-10.4031
▁나갈	-10.4032
▁맛있어요	-10.4032
▁흘러가	-10.4036
▁거지	-10.404
▁크기	-10.4044
갈수	-10.4047
▁그만하고	-10.4049
▁지하철에	-10.405
▁간사하	-10.4051
▁기다렸	-10.4052
▁보여요	-10.4055
▁마음이라	-10.4055
▁연락해보는	-10.4056
▁분들	-10.4061
▁없지만	-10.4062
▁못했	-10.4069
▁있대	-10.4071
▁마음인	-10.4077
▁되었네	-10.4077
이야기	-10.408
▁당신에게	-10.4085
한번	-10.4088
▁전기	-10.4091
▁준비중	-10.4097
▁속은	-10.4101
▁가리	-10.4111
▁보고싶	-10.4112
▁탔	-10.4126
▁연휴	-10.4134
▁시간이겠	-10.4136
▁성형	-10.4141
▁기울이	-10.4142
▁자신과	-10.4143
▁차례	-10.4143
▁잘해야	-10.4143
▁당연한	-10.415
되어	-10.4151
▁들으면	-10.4158
▁활	-10.4159
거겠죠	-10.4161
▁가치관이	-10.4165
▁사랑하기	-10.417
▁늘	-10.4171
▁듣기	-10.4171
▁있는거	-10.4177
▁언제까지	-10.4197
▁그만두	-10.4202
▁신청	-10.4203
▁충전기	-10.4215
우는	-10.4215
▁옷이	-10.4226
▁해주고	-10.4231
▁만족	-10.4232
▁먹지	-10.4241
▁고기	-10.4241
막히는	-10.4245
▁빠졌	-10.4248
▁기술이	-10.425
▁무시해	-10.4254
▁재밌다	-10.4261
버는	-10.4261
▁했나봐	-10.4263
▁썸일	-10.4271
였을	-10.4274
▁하루에	-10.4285
▁시작하	-10.429
▁반장	-10.4311
수도	-10.4312
복이	-10.4315
▁연애하는	-10.4316
▁됐	-10.4335
▁고고	-10.4336
▁건가요	-10.4339
▁극복하	-10.4359
못했던	-10.4375
치는	-10.4396
▁내일이	-10.4401
나의	-10.4401
▁이름	-10.4422
이예요	-10.4424
▁인스타	-10.4429
▁좋아한다는	-10.4435
▁걱정되	-10.4437
▁하지마	-10.445
나가는	-10.4451
▁않겠	-10.4458
게임	-10.4468
▁중입니다	-10.4474
▁사내	-10.4477
▁칭찬해주	-10.4479
▁멋	-10.4482
▁놀까	-10.449
하는건	-10.4501
▁갖자	-10.4502
▁꺼	-10.4515
▁그리운	-10.4518
▁들리	-10.452
봐야지	-10.4525
인가요	-10.4531
▁야경이	-10.4538
▁해주면	-10.4543
▁열어	-10.4563
들면	-10.4564
▁간단하	-10.4566
▁외	-10.4571
▁육아	-10.4579
▁소모	-10.458
▁알았	-10.4618
▁들어올	-10.4621
▁말아야	-10.4637
▁너무나	-10.464
▁있었는데	-10.4641
▁하셨나	-10.4645
다니는	-10.4653
▁죽어	-10.4653
▁놈	-10.4663
▁살다	-10.4666
▁정신없	-10.4684
▁아껴	-10.4688
을때	-10.4701
▁이해할	-10.4702
▁힘드시겠	-10.4712
▁덜어	-10.4713
한거	-10.4728
▁사나	-10.4731
▁동생이	-10.4736
▁내요	-10.4752
▁정확하	-10.4754
▁못자	-10.4762
회	-10.4774
▁결정이었	-10.4778
▁울적	-10.4778
▁아닌가봐	-10.478
▁드릴	-10.4795
▁만나보	-10.4809
왔다	-10.4813
▁괜찮다	-10.482
▁한거	-10.4824
▁힘드	-10.4829
야겠지	-10.4834
▁투자	-10.4859
▁괜찮지	-10.4863
▁드려	-10.4871
▁요리	-10.4904
▁있으신가	-10.4906
받아	-10.4908
▁비슷한	-10.4928
▁즐기면	-10.4939
▁어머	-10.4946
▁참다	-10.4947
드세요	-10.4952
▁아니네	-10.4967
▁사랑하는지	-10.4981
▁마주하	-10.4982
▁걸까요	-10.4989
려주세요	-10.4991
▁호	-10.5002
▁맛있을	-10.5014
▁헤어졌	-10.5016
▁처음이	-10.5045
▁생각하기	-10.5045
▁점이	-10.5052
해주지	-10.5057
하려	-10.5077
▁때려	-10.5078
▁중고	-10.508
▁손해	-10.5089
▁쓰면	-10.509
▁업	-10.5102
▁나지	-10.5108
▁아니지	-10.5112
▁걸리겠	-10.5112
될까	-10.5125
음이	-10.5139
▁마음에서	-10.5161
▁아니라는	-10.5169
▁성장하	-10.5172
▁남은	-10.5177
▁된다	-10.5193
느냐	-10.5194
▁접어두	-10.5213
▁함께할	-10.5228
▁주기	-10.524
발이	-10.5243
해야겠지	-10.5258
였나봐	-10.5261
▁많겠	-10.5271
▁올까	-10.5274
▁여행이	-10.5275
리지	-10.5291
▁웃어	-10.5292
워질	-10.5328
▁오지	-10.5331
▁차가	-10.5334
▁좋을거	-10.5363
▁끝인가	-10.5378
▁도와	-10.5383
▁결혼해야	-10.5401
▁사귀자	-10.5415
▁술마시	-10.542
▁마셨	-10.5477
으려	-10.5517
▁혼자인	-10.5517
이별이란	-10.5521
▁첫사랑이	-10.5525
▁클	-10.5525
▁시작해보	-10.553
▁비오는	-10.5543
먹	-10.5544
▁대단	-10.5547
▁힘들고	-10.5547
데요	-10.5563
듬	-10.5563
거지	-10.5579
려구	-10.5586
▁어장인	-10.5588
▁연애하면	-10.5617
▁모르겠지	-10.5634
시면	-10.5639
▁무너	-10.565
▁유학	-10.5652
▁그런가	-10.5662
기로	-10.5663
▁답답	-10.5669
▁막히	-10.567
▁공부할	-10.5678
공원	-10.5688
되지	-10.5689
보여요	-10.5691
으니	-10.57
▁말한	-10.5702
구경	-10.5702
▁보내주	-10.5706
▁침대	-10.5712
▁보일	-10.5713
▁반복	-10.5725
▁선택할	-10.5725
▁하고싶	-10.5755
▁맘같	-10.5762
치기	-10.5775
▁공부하면	-10.5781
▁헤아	-10.5786
▁놀러가	-10.5787
▁나나	-10.5796
담	-10.5802
▁미치	-10.5803
▁심심	-10.5807
▁경험	-10.5808
▁가능하다	-10.5811
▁견디	-10.5821
너무	-10.5822
▁작아	-10.5837
▁화내	-10.5844
주고	-10.5852
▁좋을지	-10.5857
▁개강	-10.5857
▁점심시간	-10.5863
찰	-10.5864
랬	-10.5874
석	-10.5875
봤어	-10.5875
납	-10.588
례	-10.5882
류	-10.5885
▁쓸데	-10.5885
▁드라이	-10.5887
▁어떨	-10.5887
▁변덕	-10.5888
탕	-10.589
00	-10.589
육	-10.5892
▁진행	-10.5892
념	-10.5893
▁사라질	-10.5894
뽑기	-10.5895
▁필요했을	-10.5895
▁갚아	-10.5895
▁믿었	-10.5895
▁사춘기	-10.5895
▁형편	-10.5895
B	-10.5895
▁20	-10.5895
▁갠톡	-10.5895
▁걷다	-10.5895
▁금수저	-10.5895
▁끄는	-10.5895
▁나눠보는	-10.5895
▁놀이동산	-10.5895
▁당분간	-10.5895
▁뒷담화	-10.5895
▁랜선	-10.5895
▁모쏠	-10.5895
▁믿는	-10.5895
▁바뀌어	-10.5895
▁부딪혔	-10.5895
▁서툴러	-10.5895
▁섬유유연제	-10.5895
▁셀프웨딩	-10.5895
▁스타트업	-10.5895
▁쌓인	-10.5895
▁아팠	-10.5895
▁원동력이	-10.5895
▁유부남	-10.5895
▁읽씹	-10.5895
▁좋으련만	-10.5895
▁지저분해	-10.5895
▁컴퓨터	-10.5895
▁특징	-10.5895
▁흑역사	-10.5895
긁	-10.5895
딩	-10.5895
릅	-10.5895
바퀴	-10.5895
벅	-10.5895
쫌	-10.5895
찐	-10.5895
츠	-10.5895
툰	-10.5895
힐	-10.5895
▁격려	-10.5895
▁끓여	-10.5895
▁리폼	-10.5895
▁배터리	-10.5895
▁설렜	-10.5895
▁염탐하	-10.5895
▁편의점	-10.5895
▁프라이버시	-10.5895
▁허전한	-10.5895
▁허전함	-10.5895
▁몸무게	-10.5895
▁비하하지	-10.5895
▁싶을	-10.5895
▁침묵	-10.5895
▁호칭	-10.5896
▁마음정리	-10.5896
▁무의식	-10.5896
센터	-10.5896
▁맞춤법	-10.5896
▁뱃살	-10.5896
▁갑작스럽	-10.5896
▁농담	-10.5896
▁찢어지	-10.5896
▁예능	-10.5896
▁부탁드립니다	-10.5896
▁늦잠	-10.5896
▁와닿	-10.5896
▁명품	-10.5896
▁시골	-10.5896
▁자장가	-10.5896
▁똑같애	-10.5896
▁실패	-10.5896
▁감싸	-10.5896
▁바꿀	-10.5896
▁그리울	-10.5896
▁공유	-10.5896
▁종지부	-10.5896
▁빈자리	-10.5897
▁찬성	-10.5897
▁구속	-10.5897
▁기다림	-10.5897
▁화장품	-10.5897
▁개념	-10.5897
▁연락두절	-10.5897
▁망했다	-10.5897
▁등산	-10.5897
▁인공	-10.5897
▁찾아온	-10.5897
▁택시비	-10.5898
▁방문	-10.5898
▁무너져	-10.5898
▁이틀	-10.5899
▁졸업식	-10.5899
▁배울	-10.5899
▁짜증날	-10.5899
▁똑같아	-10.5899
▁찌질한	-10.5899
▁들이대	-10.59
▁간식	-10.59
▁반갑	-10.59
▁주량	-10.59
▁입학	-10.59
▁배워볼까	-10.5901
▁고마운	-10.5901
드립니다	-10.5901
▁빨래	-10.5901
활용	-10.5901
▁쳐다	-10.5901
▁사탕	-10.5901
▁마실까	-10.5902
▁부담스러워할까	-10.5902
▁변덕스럽	-10.5902
▁서운해	-10.5903
▁통장	-10.5903
▁싸울	-10.5903
년연애	-10.5904
▁크시겠	-10.5905
▁흘리	-10.5905
▁나가볼까	-10.5905
▁좋더라	-10.5905
▁어리게	-10.5905
▁줄어들	-10.5906
▁신경쓰여	-10.5906
▁사생활	-10.5906
▁다정한	-10.5906
▁남자분들	-10.5907
같이	-10.5907
▁군인	-10.5908
▁양말	-10.5908
▁후배	-10.5908
▁없으니까	-10.5908
▁세월	-10.591
쟁이	-10.591
▁못참고	-10.5911
▁귀여	-10.5911
▁식었어	-10.5911
▁두셨네요	-10.5911
플라	-10.5912
▁마실	-10.5912
▁신경써	-10.5917
들었나봐	-10.5917
▁한국	-10.5918
▁편하겠죠	-10.5919
▁아마	-10.5919
▁어색한	-10.592
▁망상	-10.592
력이	-10.5921
▁팔아	-10.5923
▁갑작스러	-10.5925
▁포근	-10.5925
▁미치겠어	-10.5925
▁좋대	-10.5926
▁미워하지	-10.5927
▁가능한	-10.5928
▁수업	-10.5928
▁점심시간에	-10.5929
▁목적	-10.593
▁재밌어	-10.593
▁받으시	-10.5931
▁해야돼	-10.5933
했을까	-10.5937
▁어렵다	-10.5937
▁도망가	-10.5938
▁나갔어	-10.5939
▁들까	-10.594
런지	-10.5944
▁확인하는	-10.5944
▁사냐	-10.5945
▁치워	-10.5945
▁지낼	-10.5946
▁마주쳤	-10.5946
▁사겨도	-10.5948
▁걸린	-10.5953
▁견뎌내	-10.596
▁좋아지고	-10.5963
▁받아들여야	-10.5964
▁뒤에	-10.5968
▁입장	-10.5969
▁떠났	-10.5969
▁배고프	-10.5972
셨나	-10.5973
▁시작하기	-10.5974
▁연락하	-10.5975
▁한다는	-10.5976
▁표현해보	-10.5977
▁아니겠지	-10.5978
▁차단하는	-10.5978
▁후회할까	-10.598
▁지나면	-10.5982
▁보자	-10.5984
▁똑똑해	-10.5984
▁연락했는데	-10.5985
▁학교에	-10.5988
▁달려있	-10.599
▁귀찮은	-10.5997
▁심심해	-10.5998
▁고백할	-10.6006
▁가스	-10.6006
▁이러는	-10.6008
겠	-10.601
들어	-10.6018
▁위험	-10.6018
코인	-10.6018
▁구분	-10.6023
페	-10.6026
뒀	-10.6032
쪄	-10.6032
렸나봐	-10.6032
▁슬프게	-10.6041
▁무덤덤해지	-10.6042
엉	-10.6042
▁다가왔	-10.6049
▁연애하는데	-10.605
▁답답하다	-10.6059
▁향기	-10.6066
▁틀리	-10.6067
▁당한	-10.6086
▁근	-10.6089
▁왔나봐	-10.609
▁매력이	-10.6096
▁효	-10.6108
머	-10.6109
▁준비할	-10.6112
연애	-10.6114
▁사랑하나	-10.6116
▁이루	-10.6117
▁많았나	-10.6118
▁알지	-10.6124
갑니다	-10.6125
▁나타나	-10.6129
군	-10.6132
▁붙잡아	-10.6138
받으세요	-10.6142
▁해보려	-10.6143
영상	-10.6146
해야겠죠	-10.6149
▁우리집	-10.6152
▁여자에게	-10.6153
처리	-10.6154
▁모를	-10.6167
▁이어주	-10.6169
유	-10.6174
▁자다가	-10.6177
▁의지해	-10.618
▁속상	-10.6194
▁창업	-10.6196
▁낳	-10.6201
▁밟	-10.6201
▁찼	-10.6201
▁주택	-10.6202
▁다툼	-10.6202
▁설명	-10.6203
▁프로필	-10.6203
▁축제	-10.6203
▁질리	-10.6205
▁남길	-10.6207
▁바늘	-10.6207
▁먹어야	-10.6208
▁키울	-10.6208
▁짜	-10.6208
▁덕	-10.6214
데이트	-10.6215
친구와	-10.6217
▁넘었는데	-10.6218
▁헤어지기	-10.6218
이래	-10.6219
▁그분에	-10.6219
시간에	-10.6219
가봅니다	-10.6223
▁아파트	-10.6228
하기로	-10.6229
▁벽	-10.623
▁편안하	-10.6234
계절	-10.6236
버	-10.6239
톡	-10.6242
▁감각	-10.6244
▁어이	-10.6249
특	-10.625
▁척하는	-10.6251
▁지났어	-10.6252
▁그걸	-10.6253
▁일과	-10.6257
▁할줄	-10.6258
여자	-10.626
어머	-10.6261
▁편하고	-10.6264
▁켜	-10.627
▁일정	-10.6275
운을	-10.6278
클	-10.6278
▁바보같	-10.6283
▁뭐해	-10.6287
자마	-10.6289
▁되시	-10.6291
▁요구	-10.6293
싸움	-10.6303
포	-10.6306
있습니다	-10.6309
조건	-10.6311
계	-10.6312
▁지켜보	-10.6317
참	-10.632
부지	-10.632
영	-10.6325
필	-10.6326
▁연속	-10.6331
▁들으	-10.6334
온다	-10.6335
선배	-10.6335
▁어떻게해	-10.6336
잔	-10.6336
놔	-10.6339
문이	-10.634
▁망가	-10.6342
▁고백할까	-10.6343
▁해봤	-10.6344
건강에	-10.6357
준비	-10.6359
년만	-10.636
▁멀었	-10.6372
▁아픔이	-10.6383
욕	-10.6384
올려	-10.6386
▁만들기	-10.6392
안녕	-10.6398
오래	-10.64
5	-10.6403
옷	-10.6408
▁기억에	-10.641
벌	-10.6411
▁미안	-10.6426
▁위험하	-10.6433
▁쓰일	-10.6435
▁헛헛하	-10.6452
▁짝사랑만	-10.6455
되길	-10.6456
▁도와줄	-10.6458
▁흐르는	-10.6459
▁복잡한가	-10.6459
▁오려나	-10.6475
▁커지	-10.6484
▁놓으	-10.6487
▁모아야	-10.6494
▁아이돌이	-10.6495
신이	-10.6497
셨어	-10.6509
▁지속	-10.6513
성적이	-10.6524
▁겨울	-10.6527
▁얘기해	-10.6528
▁늦는	-10.6534
▁기억해	-10.6537
▁울적해	-10.6553
▁중독	-10.6556
▁줄까	-10.6563
▁친구라	-10.6564
▁내기	-10.6566
▁착각이	-10.6571
▁결혼한	-10.659
▁지르	-10.6602
▁후회없	-10.6611
▁연락할	-10.6626
▁결혼에	-10.6636
▁태	-10.6638
▁불면증	-10.6665
납니다	-10.6666
하냐	-10.6671
▁버리는	-10.6672
▁설레는	-10.6681
▁먼	-10.6684
▁꿈같	-10.6719
▁헤	-10.672
▁정상	-10.6721
▁응원	-10.6724
▁운명인가	-10.6727
▁그럴수	-10.6747
▁포기해야	-10.6758
▁케이스	-10.6759
▁밀어	-10.6761
스럽	-10.6771
▁감성	-10.6772
인거	-10.6774
▁사람일	-10.6779
▁퍼	-10.6782
▁거짓말이	-10.68
▁맞춰가	-10.6806
▁놓아줄	-10.6807
▁했다	-10.6821
▁친	-10.6822
이었나봐	-10.6823
▁먹은	-10.6825
▁존중해	-10.6839
▁떡	-10.685
▁했을	-10.6865
▁이별하는	-10.6872
▁들을	-10.6879
조심하세요	-10.6884
▁궁금하다	-10.6895
▁주말이네	-10.6901
끄러워	-10.6912
▁복잡하겠	-10.6913
▁머릿속	-10.6935
▁취직하	-10.6956
▁정확	-10.6968
해봐요	-10.6972
해야할지	-10.6977
▁아니었을	-10.6977
줘서	-10.6979
▁전과	-10.6981
▁삭제하	-10.6986
▁안주	-10.6987
▁못하	-10.6992
▁사랑해요	-10.7006
▁될지	-10.7007
▁힘들까	-10.7048
▁보고싶네	-10.7063
는지	-10.708
해도될까	-10.7082
가봐	-10.7098
▁연습해	-10.7098
▁따지	-10.7112
▁재미있는	-10.7125
▁안하지	-10.7143
기적	-10.7154
▁검색	-10.717
았으면	-10.7173
해야겠다	-10.7202
▁봤네	-10.7204
▁축하해	-10.7205
▁평가	-10.7212
▁욕해	-10.7225
▁머릿속에	-10.7228
▁대화하는	-10.7231
▁어울	-10.7236
▁재밌을	-10.7252
▁못하겠	-10.7258
▁아껴주	-10.7271
▁적이	-10.7274
▁필요한가봐	-10.7291
없어	-10.7292
▁끊기	-10.7322
▁빨	-10.7334
▁깊었	-10.7345
▁빵	-10.7351
▁안정적	-10.7351
▁말로	-10.7358
는구나	-10.7358
정도	-10.7376
▁행복이	-10.7383
▁나빠	-10.7398
할까요	-10.7404
▁인연이었	-10.741
기니	-10.7421
여행	-10.7426
▁여사친	-10.7448
▁실수한	-10.7451
▁복잡	-10.7461
▁보이네	-10.7465
▁않았을	-10.7475
▁자야	-10.7476
없는	-10.7503
▁적응해야	-10.7518
▁않지	-10.7524
▁많아지	-10.7539
▁부족한가	-10.7545
네여	-10.7561
리가	-10.7564
▁따듯	-10.7568
리면	-10.757
▁뭐하면	-10.7594
▁아니었나	-10.7611
▁일인	-10.7618
▁결정이	-10.7621
▁소문이	-10.7623
▁이용해	-10.763
▁배워보	-10.7635
▁어떻	-10.7643
▁타나	-10.7651
내고	-10.7658
▁말해봐	-10.7664
▁반에	-10.768
▁이것	-10.772
▁되는거	-10.7721
▁고치고	-10.7723
▁헛헛	-10.7724
▁깔끔하	-10.7733
▁되려	-10.7744
부를	-10.7748
▁할지	-10.7767
웠어	-10.7773
인건가	-10.7783
▁상태인	-10.7789
▁단순	-10.7808
▁면도	-10.7809
▁잘해주	-10.7823
▁기술	-10.7865
▁없는거	-10.787
사람에게	-10.7873
▁하시	-10.7888
보여	-10.7925
▁특	-10.7926
돌	-10.7932
▁간절하	-10.7947
▁겨	-10.7957
▁언제가	-10.7959
▁고백해	-10.7975
▁받아들여	-10.7987
야겠어	-10.8025
▁기다려야	-10.8055
▁아쉽	-10.8075
▁왕따	-10.8075
왔네	-10.8076
▁많은가	-10.8077
해줘서	-10.8085
▁보시	-10.8113
▁페	-10.8116
친구가	-10.8132
▁모으	-10.8144
달라는	-10.8145
▁못난	-10.8146
▁떨쳐	-10.8157
▁키워	-10.8157
▁것만	-10.817
▁이상하	-10.8178
았습니다	-10.8188
▁솔직	-10.8212
▁안될	-10.8215
▁제안	-10.8223
▁잡는	-10.8233
▁듣는	-10.8237
셔야	-10.8246
▁서운	-10.8246
▁치열	-10.8252
▁봐주	-10.8255
민	-10.8256
▁기다	-10.8257
▁맞춰주	-10.8266
나는	-10.8272
▁참을	-10.828
▁아깝	-10.8283
▁사랑해주	-10.8295
▁집중하	-10.8298
▁붙	-10.83
롭	-10.8301
고싶다	-10.8313
▁어떡하	-10.8318
▁잘지내	-10.8321
힌	-10.8325
▁접는	-10.8332
▁지쳤	-10.8336
▁태어	-10.8337
올까	-10.8345
▁갔는	-10.8345
▁무뎌지	-10.8349
▁타인	-10.8355
▁모른척	-10.8357
겁	-10.8358
족	-10.8368
▁급	-10.8373
럴까	-10.8373
▁보았	-10.8375
냥	-10.8375
즘	-10.8376
룩	-10.8383
으신가	-10.8384
▁끊겼	-10.8384
▁두근거	-10.8385
압	-10.8385
▁중국	-10.8385
▁오해하	-10.8387
▁솔로	-10.8388
립니다	-10.839
닝	-10.8391
깐	-10.8393
쑥	-10.8394
▁슈퍼	-10.8395
완	-10.8395
뿅	-10.8395
▁아물	-10.8395
▁그린라이트	-10.8395
넋	-10.8395
▁끊으	-10.8395
▁레시피	-10.8395
▁몰려	-10.8395
눅	-10.8395
▁각질제거	-10.8395
▁객관적	-10.8395
▁건강습관이	-10.8395
▁글쎄요	-10.8395
▁꼰대	-10.8395
▁낮잠	-10.8395
▁넣어	-10.8395
▁녹여	-10.8395
▁닮아	-10.8395
▁뒷감당	-10.8395
▁뒹굴	-10.8395
▁무한리필	-10.8395
▁벗으	-10.8395
▁본받	-10.8395
▁브랜드	-10.8395
▁선풍기	-10.8395
▁소액결제	-10.8395
▁손편지	-10.8395
▁수면양말	-10.8395
▁승진	-10.8395
▁식습관	-10.8395
▁쌓여	-10.8395
▁쌓였	-10.8395
▁애프터	-10.8395
▁어떡함	-10.8395
▁옳은	-10.8395
▁유부녀	-10.8395
▁의존	-10.8395
▁이뤄지	-10.8395
▁이모티콘	-10.8395
▁입냄새	-10.8395
▁좌절	-10.8395
▁짧아	-10.8395
▁컴터	-10.8395
▁풀리	-10.8395
▁하우스웨딩	-10.8395
▁혼나	-10.8395
▁훔쳐보	-10.8395
껄	-10.8395
덥	-10.8395
맷	-10.8395
맹	-10.8395
샌	-10.8395
앨	-10.8395
엠	-10.8395
옵	-10.8395
율	-10.8395
젤	-10.8395
줌	-10.8395
째깍	-10.8395
쭤	-10.8395
팁	-10.8395
팬	-10.8395
펑	-10.8395
풋	-10.8395
흠	-10.8395
▁교양수업	-10.8395
▁마찬가지	-10.8395
▁버릇	-10.8395
▁베트남	-10.8395
▁변신	-10.8395
▁비정상이	-10.8395
▁설득	-10.8395
▁아울렛	-10.8395
▁인터넷	-10.8395
▁확률	-10.8395
놨	-10.8395
▁고시원	-10.8395
▁꾹꾹	-10.8395
▁대기업	-10.8395
짚	-10.8395
▁케익	-10.8396
▁비행기표	-10.8396
▁어리석	-10.8396
▁주인공	-10.8396
▁무언가	-10.8396
▁메뉴얼	-10.8396
▁바꿨어	-10.8396
▁현타	-10.8396
▁넘어가네	-10.8396
▁손가락	-10.8396
▁골프	-10.8396
▁제정신	-10.8396
▁피부관리	-10.8396
▁외출하	-10.8396
▁월세	-10.8396
▁낭만적	-10.8396
▁뜨겁	-10.8396
▁한심해	-10.8396
▁알뜰폰	-10.8396
▁친절한	-10.8396
▁상종하지	-10.8396
▁뛰어넘	-10.8396
▁미용실	-10.8396
▁패션	-10.8396
▁허전할	-10.8396
▁희생양	-10.8396
▁베프	-10.8396
▁초기화	-10.8396
▁감정기복	-10.8396
▁어렸을때	-10.8396
▁증명	-10.8396
▁블록	-10.8396
▁대청소	-10.8396
▁똥차	-10.8396
▁주름살	-10.8396
▁떨린다	-10.8396
▁탈모	-10.8396
▁작동	-10.8396
▁당첨	-10.8396
▁조급하	-10.8396
▁열흘	-10.8396
▁환기	-10.8396
▁태연	-10.8396
▁부담스러울	-10.8396
▁친척	-10.8396
▁계산	-10.8396
▁롱디	-10.8396
▁접어야	-10.8396
▁잡념	-10.8396
▁무모	-10.8397
▁발견	-10.8397
▁학벌	-10.8397
폭력	-10.8397
▁미칠	-10.8397
▁예비	-10.8397
▁으아	-10.8397
▁외부	-10.8397
▁바쁠	-10.8397
▁비밀연애	-10.8397
▁알바생	-10.8397
듭니다	-10.8397
▁심심하다	-10.8397
▁청결	-10.8397
▁출발	-10.8398
▁실행	-10.8398
▁참석하는	-10.8398
▁음료	-10.8398
▁이제서야	-10.8398
▁시도해	-10.8398
▁선택이었을	-10.8398
▁태어났	-10.8398
▁나이테	-10.8398
▁아쉬운	-10.8398
▁장갑	-10.8398
▁유행	-10.8398
▁감출	-10.8398
▁사표	-10.8398
▁다녀왔어	-10.8398
▁먹먹	-10.8398
▁변화시켜	-10.8399
▁인지시켜	-10.8399
▁어느정도	-10.8399
▁설마	-10.8399
▁전여자친구	-10.84
▁지루	-10.84
▁원인이	-10.84
▁웃겨	-10.84
▁배워가는	-10.84
디오	-10.84
▁반영	-10.84
▁떠나보내	-10.84
잔하네	-10.84
▁알아볼	-10.84
▁속박	-10.8401
▁정해져	-10.8401
▁이겨야	-10.8401
▁차였는데	-10.8401
▁두근거려	-10.8401
▁비정규직	-10.8401
릴까	-10.8401
▁문제인가요	-10.8401
▁찍었네	-10.8402
▁연애세포	-10.8402
▁취소	-10.8402
▁익숙해져	-10.8402
▁졸린	-10.8402
▁부족해	-10.8402
▁복잡했나	-10.8402
▁겁나	-10.8402
▁감동	-10.8402
▁한번쯤	-10.8403
▁어떠세요	-10.8403
님들	-10.8403
차곡	-10.8403
▁숙제	-10.8404
▁배울까	-10.8404
추적	-10.8404
▁프로	-10.8404
▁증상이	-10.8404
식물	-10.8405
▁보냈습니다	-10.8405
▁지압	-10.8406
콜록	-10.8406
▁좋아한대	-10.8406
▁필수	-10.8407
들었겠	-10.8407
▁심해지는	-10.8407
▁끊겼어	-10.8407
▁구두	-10.8407
▁잊혀질까	-10.8407
▁오바	-10.8407
▁리드	-10.8407
▁역할	-10.8408
▁면도기	-10.8408
▁방금	-10.8408
▁구워	-10.8408
▁열받아	-10.8409
▁돌아와	-10.8409
스트	-10.8409
▁따져	-10.841
▁강제	-10.841
▁12	-10.841
▁끝났습니다	-10.841
▁무뎌질	-10.841
▁지웠어	-10.8411
▁무리하지	-10.8411
▁미화되기	-10.8412
▁기다릴게요	-10.8412
▁배신	-10.8412
▁괜찮겠지	-10.8413
▁메리	-10.8413
▁오셨	-10.8413
▁맛있어	-10.8413
▁아부	-10.8413
▁티나나	-10.8414
종료	-10.8414
▁진리	-10.8414
▁필기	-10.8415
▁습관처럼	-10.8415
▁실수했나	-10.8415
▁실천	-10.8416
하시는	-10.8416
▁방심	-10.8417
주물	-10.8417
▁운동하	-10.8418
재인가	-10.8418
사람친구	-10.8418
▁고독	-10.8418
▁다듬	-10.8418
▁지낸	-10.842
▁이별준비	-10.842
▁난방	-10.8421
▁지친	-10.8421
▁어떡하죠	-10.8421
탔어	-10.8421
▁감성적이	-10.8421
▁떠나간	-10.8422
올랐다	-10.8423
▁의심해	-10.8424
▁연상	-10.8424
▁냉면	-10.8424
▁일방적	-10.8425
침해	-10.8426
▁월급날	-10.8426
▁예상	-10.8428
▁되려면	-10.8428
▁표현하기	-10.8428
▁지각	-10.8428
▁글자	-10.8429
▁일반	-10.8429
▁보란	-10.843
▁좋긴	-10.843
▁단수	-10.843
▁중요하니까	-10.8431
▁상대적	-10.8431
▁잘못입니다	-10.8432
▁보냈네	-10.8433
▁아쉬움이	-10.8434
▁겨울에	-10.8434
▁성덕이	-10.8434
▁착잡하	-10.8435
▁싸운	-10.8436
체인	-10.8436
▁어디가지	-10.8436
▁신경쓰인	-10.8437
▁생각난다	-10.8437
▁운동화	-10.8438
▁보내지	-10.8442
▁개강이	-10.8447
▁영어	-10.8448
▁달력	-10.8449
▁끈을	-10.8449
▁위로해줄	-10.8449
▁죽을거	-10.845
▁한약	-10.845
▁반가워요	-10.845
▁놀러가세요	-10.8451
▁여러명	-10.8451
▁연락왔어	-10.8452
▁늙어가	-10.8453
▁물질	-10.8453
▁사줘	-10.8453
▁나왔네	-10.8454
▁일이라	-10.8455
▁좋으니	-10.8456
초록	-10.8457
▁없는걸까	-10.8458
▁하아	-10.8459
▁알아내	-10.846
하셔야죠	-10.846
식하는	-10.8461
▁대수	-10.8464
▁고마	-10.8464
마시며	-10.8465
직	-10.8469
냐구	-10.847
▁자연	-10.8473
두통	-10.8475
▁실력	-10.8475
▁봤나	-10.8477
▁헷갈리네	-10.8478
▁돌아서	-10.8479
▁다칠	-10.848
▁배정	-10.8482
▁일시적	-10.8483
▁화가나	-10.8485
보고싶네	-10.8485
▁알겠어	-10.8488
이너	-10.8489
▁오니까	-10.849
▁깨달았	-10.8492
▁붙이	-10.8496
움에	-10.8496
▁준비하느	-10.8497
▁있는걸까	-10.8498
▁수능	-10.8498
▁자르	-10.8501
▁결혼하기	-10.8503
▁표현하지	-10.8511
▁터질	-10.8511
▁많은걸	-10.8512
▁그렇다	-10.8512
▁현금이	-10.8514
▁차인	-10.8514
▁크리스마스에	-10.8518
▁효도	-10.8521
뻔	-10.8521
▁없대	-10.8523
▁손톱이	-10.8523
▁정성	-10.8524
▁카페에	-10.8524
▁어이없	-10.8526
▁사전	-10.8527
▁독서	-10.8532
▁나오네	-10.8532
시려	-10.8536
개시	-10.854
안보여	-10.8544
해줬어	-10.8549
▁시작할	-10.8551
▁만들었어	-10.8552
▁힘들어도	-10.8553
▁들어줄	-10.8555
▁돌아보	-10.8556
▁없는걸	-10.8557
▁잘생겼어	-10.8561
▁결정하는	-10.8565
▁울고	-10.857
▁기침	-10.8572
▁의자	-10.8572
있을까	-10.8582
볼때	-10.8583
▁보듬어주	-10.8584
▁꾸준한	-10.8586
▁떠날	-10.8586
주일	-10.8593
▁옷이요	-10.8595
▁맛있다	-10.8595
고치기	-10.8596
▁대하는	-10.8597
▁가득	-10.8603
▁세달	-10.8605
되가네	-10.861
▁남자입니다	-10.8618
▁먹기	-10.8619
▁공개	-10.8622
▁고백해야	-10.8626
▁사이로	-10.863
▁느껴보	-10.8631
▁애석하	-10.8633
▁사랑이라는	-10.8636
▁결심이	-10.8639
▁필요하지	-10.865
▁해야할	-10.865
▁냄새나	-10.8656
▁연락할까	-10.8659
▁힘들겠죠	-10.8659
▁뜨는	-10.8663
▁좋아졌어	-10.8664
▁친해	-10.8666
▁예뻐지	-10.8676
▁관심있	-10.8679
▁찬	-10.8683
▁반복되	-10.8684
▁돌아오지	-10.8684
▁불편하겠	-10.8685
▁지식	-10.8688
▁복잡해	-10.8712
▁카	-10.8713
▁남자에게	-10.8716
던데	-10.872
쳤어	-10.8731
▁약간	-10.8735
▁피로	-10.8735
볼	-10.874
▁일기	-10.8748
▁학생	-10.8752
▁이대로	-10.8754
▁색	-10.8757
▁노력해보	-10.8759
▁무서	-10.8763
한건가	-10.8765
▁냉	-10.8766
▁풀려	-10.8769
▁여지	-10.877
▁칼	-10.8779
▁진도	-10.8787
▁개인적	-10.8795
▁농	-10.8797
▁쫄	-10.8802
▁떼	-10.8802
▁윗	-10.8802
▁화해	-10.8803
▁예약	-10.8803
▁뛰어	-10.8804
서서	-10.8807
▁술한잔	-10.8809
▁외국어	-10.8811
▁웃음	-10.8816
▁견디기	-10.8819
▁시급	-10.882
라더니	-10.8821
▁공간	-10.8822
안한다	-10.8822
▁다녀와	-10.8822
▁동생한테	-10.8823
▁허무하네	-10.8832
▁놓쳤	-10.8836
▁다가	-10.8841
▁헤어짐에	-10.8842
▁잊어가는	-10.8846
▁결혼하고	-10.8848
▁해준	-10.8852
▁괜찮다가	-10.8856
▁힘들지만	-10.8861
▁굴	-10.8864
▁인연인	-10.8872
▁나갈까	-10.8877
▁운이	-10.8883
▁좋은점	-10.8889
▁반년	-10.8898
▁잊지못	-10.8898
▁사주	-10.89
▁별로인	-10.8911
되니까	-10.8911
▁생각하나	-10.8912
▁좋네	-10.8921
▁헤어졌다	-10.8927
이크	-10.8928
▁순수하	-10.8929
되었길	-10.8941
▁불안하	-10.8943
한대	-10.8948
▁이어가	-10.8973
▁취직할	-10.8995
투	-10.9
▁모르겠다	-10.901
▁연애였	-10.9019
▁귀찮다	-10.902
▁아프게	-10.9026
쌈	-10.9029
연이	-10.9035
져서	-10.9037
▁ᄒᄒ	-10.9042
S	-10.9042
패	-10.9052
▁났나봐	-10.9053
▁말보다	-10.9056
롱	-10.9058
▁매력있	-10.9076
오겠죠	-10.908
▁당당해	-10.9098
▁나니	-10.9105
하려면	-10.9109
▁사귀다	-10.9109
장이	-10.9121
되었는데	-10.9124
▁일하	-10.9129
정기	-10.9143
▁자신다	-10.9146
▁마주치면	-10.9152
었다	-10.9156
▁크겠	-10.9175
▁쓰게	-10.9179
▁좋아졌	-10.9179
▁이성이	-10.9181
▁지적	-10.9186
▁좋은거	-10.9192
프	-10.9194
침	-10.9195
▁끝내는	-10.9199
▁않기	-10.92
▁물어보고	-10.92
▁학생이	-10.9202
있	-10.9206
▁제자리걸음	-10.9231
▁지켜보는	-10.9239
▁화나	-10.925
▁많겠지	-10.9257
▁사먹	-10.9259
▁치맥이	-10.9262
▁부족하	-10.9264
▁현실이	-10.9265
▁사람이었나	-10.9267
▁살았	-10.927
되겠죠	-10.927
있어요	-10.9273
▁익숙해지	-10.9279
▁감당	-10.9292
빛	-10.9294
폭	-10.9304
▁친구인데	-10.9306
▁떨어	-10.9316
▁지났	-10.9327
악	-10.9338
친구	-10.9342
볶	-10.9348
팩	-10.936
▁되어요	-10.9364
빈	-10.9371
정이	-10.9371
▁든든하	-10.9377
▁반복하	-10.9388
▁생각하게	-10.9391
끈	-10.9395
▁부담되	-10.9413
▁진지	-10.9417
품	-10.9424
견	-10.9427
너	-10.9431
▁질린	-10.9448
▁나쁘	-10.9451
기한	-10.9453
안할	-10.9457
업	-10.9459
보니	-10.9468
▁깨지	-10.9475
콕	-10.9484
호	-10.9495
▁마지막이	-10.9498
▁거였	-10.9498
사는	-10.9501
▁세우	-10.9512
▁식었	-10.9513
얘	-10.9515
됩니다	-10.9518
▁그사람이	-10.9536
절	-10.9541
▁먹자	-10.9542
뜨	-10.9548
▁센	-10.9554
마음	-10.9555
▁액	-10.9558
▁주저리	-10.9559
▁미팅	-10.956
▁솔직해	-10.956
▁붙잡는	-10.9561
빵	-10.9562
빨	-10.9562
생	-10.9568
▁나약	-10.9569
보이네	-10.9575
오늘	-10.959
▁해야하는	-10.9597
▁단점	-10.9597
했던거	-10.9598
▁일주일이	-10.9601
▁부려	-10.9602
좋아	-10.9607
수건	-10.9612
스타일	-10.9614
맘	-10.9614
▁다치	-10.9619
속	-10.9629
탈이	-10.9631
▁났	-10.9641
▁간대	-10.9645
요일	-10.9646
속에	-10.9646
꿀	-10.9655
▁키우는	-10.9664
치료	-10.9665
▁비워	-10.9669
▁나겠	-10.967
하고싶다	-10.9671
꿈	-10.9674
팔	-10.9675
당했어	-10.9676
선물	-10.9676
▁무덤덤해	-10.9676
다른	-10.968
▁찾아오네	-10.9681
해야겠네	-10.9682
착	-10.9684
슬	-10.9686
동물	-10.9687
시켜	-10.969
널	-10.9691
노	-10.9692
문득	-10.97
머리	-10.9707
신청	-10.9708
됨	-10.9711
책	-10.9712
잡는	-10.9713
▁끼	-10.9716
뒤	-10.9717
▁달에	-10.9718
때문	-10.9718
상담	-10.9719
커플	-10.972
린다	-10.9721
1	-10.9723
커	-10.9726
그만	-10.9726
자랑	-10.9727
따로	-10.9729
노래	-10.973
지겠네	-10.973
항	-10.9737
고파	-10.9745
▁안됐	-10.9756
▁올리	-10.9761
▁원해	-10.9771
앞이	-10.9784
사진	-10.9789
생각이	-10.9798
▁감으	-10.9799
만남	-10.9805
▁인정해야	-10.9806
들지	-10.9812
보려구	-10.9821
다리	-10.9829
겠대	-10.9837
▁고백한	-10.984
이었을	-10.9855
하라	-10.986
나온	-10.9864
▁부리	-10.9882
▁용서하	-10.9899
▁버려야겠	-10.9905
▁깎아야	-10.9911
▁예쁘다	-10.9916
오길	-10.9931
▁나야	-10.9952
▁싶다는	-10.9956
▁당당	-10.9971
▁행	-10.999
▁뜨	-10.9993
▁해줄	-10.9999
한다는	-11.0007
주실	-11.0025
별의	-11.0035
만나자는	-11.0045
▁만나요	-11.0049
▁상처주	-11.0055
▁현실적	-11.0061
것만	-11.0069
▁안하면	-11.0072
야할지	-11.0077
▁잘하	-11.008
▁합	-11.01
갔다	-11.0104
지우	-11.0118
질까	-11.013
인과	-11.0166
▁절약해	-11.0176
▁후련하네	-11.0187
▁결혼준비	-11.0201
▁떨면	-11.0205
▁거겠지	-11.0207
▁도와드	-11.0212
▁들어왔	-11.0216
감이	-11.0256
감기	-11.0284
▁얘	-11.0296
▁사랑했	-11.0297
▁울	-11.0298
▁사랑이었으	-11.032
▁오락가락	-11.0351
▁안좋	-11.0354
▁초대하	-11.0357
된다는	-11.0372
▁그런거	-11.0372
▁착하	-11.0385
▁콕	-11.0386
▁무엇인	-11.0389
▁다양	-11.0391
▁견	-11.0398
당하기	-11.04
▁터지	-11.0409
하는걸	-11.0416
랑이	-11.0422
▁품	-11.0442
▁성	-11.0444
▁찾아가는	-11.0447
▁해봐	-11.0457
▁부르	-11.0468
▁그리운가	-11.0497
▁물가	-11.0499
▁끝인가봐	-11.0526
▁싫은가봐	-11.0534
▁알아봐	-11.0541
왔습니다	-11.0541
기세요	-11.055
보네	-11.0556
비가	-11.0559
▁든든	-11.0575
▁사랑이에요	-11.0577
▁연인이	-11.0597
인줄	-11.0607
▁야근이	-11.0614
▁두근거리	-11.0617
▁잊어버리는	-11.063
▁남자의	-11.0643
▁로맨틱해	-11.0646
▁할게	-11.0658
▁뻔했	-11.067
▁덤덤	-11.0682
▁우울하	-11.0698
▁들려	-11.0707
▁버려야	-11.0708
▁지속해	-11.0724
▁날까	-11.0725
▁건들	-11.0726
▁없고	-11.0735
▁아이돌	-11.0742
▁돌려보	-11.0764
▁미안해하	-11.0768
▁상황에	-11.0772
▁잘못한	-11.078
▁사실이	-11.0782
이었을까	-11.0787
▁안에	-11.0816
▁못잊는	-11.0818
를까	-11.0826
▁잘라	-11.0829
▁입으	-11.0835
▁안오	-11.0842
▁남사친	-11.0856
▁살려	-11.0858
▁예민	-11.0867
시도	-11.0886
▁학기	-11.0893
▁노력해야	-11.0898
야해	-11.0906
▁찾아야	-11.0906
간을	-11.092
▁살아가는	-11.0948
셨	-11.0976
▁만나기	-11.0993
▁지냈	-11.0995
▁연속이	-11.0996
▁됐나	-11.0997
▁가져가	-11.0998
▁멈춰	-11.1017
해야할까	-11.1036
아서	-11.1036
▁말만	-11.1048
라네	-11.1056
와야	-11.1066
▁읽어보	-11.1107
▁정리해야	-11.1112
▁짝사랑인	-11.1119
여친이	-11.1128
▁날들	-11.113
▁따라가	-11.1131
▁해야하나	-11.1136
있나봐	-11.1154
▁전하면	-11.1161
▁받으	-11.1166
▁풀어야	-11.1174
▁때인	-11.12
름이	-11.1204
▁내면	-11.1205
▁하니까	-11.121
▁해외여행	-11.1226
인데요	-11.1226
싶은데	-11.1228
▁물이	-11.123
당히	-11.1245
▁처리	-11.1288
▁관계에	-11.1301
테	-11.1302
▁아련	-11.1327
▁받으세요	-11.1344
▁영상	-11.1351
렀어	-11.1359
오게	-11.1375
절한	-11.1383
시키는	-11.1383
시다니	-11.1425
▁병신	-11.1428
▁죽겠	-11.1431
▁가져보	-11.1436
까운	-11.1438
▁해야겠지	-11.1451
하자는	-11.1459
▁죽는	-11.147
▁말자	-11.1482
▁장난인	-11.1495
▁건강하	-11.1504
▁줄일	-11.1513
을수	-11.1532
▁기억해주	-11.1535
▁갑니다	-11.1539
▁반가	-11.1554
▁불타	-11.1562
▁똑똑	-11.1572
▁수건	-11.1577
▁이별중	-11.1577
▁민	-11.158
▁많으시	-11.1603
▁시간이었	-11.1611
▁선물해	-11.162
▁의미일까	-11.162
▁무색하	-11.1635
▁움직	-11.1647
▁아니었	-11.1647
▁멀어진	-11.1665
▁사겨	-11.1672
처	-11.1674
▁사람이다	-11.1674
▁흔들	-11.1678
▁헷갈	-11.1688
었네	-11.1695
주인	-11.1696
▁벗어	-11.1697
꾼	-11.1697
▁상메	-11.1698
▁한순간	-11.17
▁헤어지고나	-11.1704
▁잘하니	-11.171
촉	-11.1711
▁돌아올	-11.1714
텐	-11.1716
현	-11.1717
닥	-11.1718
곡	-11.1718
▁자책	-11.1724
▁씁쓸	-11.1725
키기	-11.1725
▁집안	-11.1726
▁바랄	-11.1726
궈	-11.1726
블	-11.1728
실에	-11.1728
봉	-11.1728
둥	-11.1728
뱃	-11.1729
낌	-11.1729
범	-11.1729
-	-11.1729
▁심쿵	-11.1729
▁오지랖	-11.1729
▁최저	-11.1729
▁화풀이	-11.1729
렴	-11.1729
a	-11.1729
s	-11.1729
▁0	-11.1729
▁가슴은	-11.1729
▁격식	-11.1729
▁견과류	-11.1729
▁괘씸하	-11.1729
▁구남친	-11.1729
▁구썸남	-11.1729
▁권리	-11.1729
▁끊어야	-11.1729
▁낫지	-11.1729
▁눈꺼풀	-11.1729
▁뉴스	-11.1729
▁다닐까	-11.1729
▁답변	-11.1729
▁대리효도	-11.1729
▁돌아섰	-11.1729
▁두렵	-11.1729
▁드레스	-11.1729
▁딴짓	-11.1729
▁딸까	-11.1729
▁땡긴다	-11.1729
▁로맨스	-11.1729
▁많나	-11.1729
▁맞이	-11.1729
▁매몰	-11.1729
▁몰아	-11.1729
▁밑바닥	-11.1729
▁받네	-11.1729
▁배불러	-11.1729
▁벗겨	-11.1729
▁비혼주의	-11.1729
▁빌리	-11.1729
▁빌릴까	-11.1729
▁설렐	-11.1729
▁세탁	-11.1729
▁소개받	-11.1729
▁쇼핑몰	-11.1729
▁숫자	-11.1729
▁시간낭비인	-11.1729
▁싫으	-11.1729
▁싫지	-11.1729
▁썼다	-11.1729
▁씹어	-11.1729
▁아날로그	-11.1729
▁애매모호	-11.1729
▁어딘가	-11.1729
▁얻는	-11.1729
▁얼떨떨	-11.1729
▁엄마아빠	-11.1729
▁예측	-11.1729
▁옥상	-11.1729
▁우습	-11.1729
▁이혼이	-11.1729
▁잃을	-11.1729
▁잘생겨	-11.1729
▁저편	-11.1729
▁존경	-11.1729
▁창피해	-11.1729
▁첫이별	-11.1729
▁클스마스	-11.1729
▁토닥토닥	-11.1729
▁편린	-11.1729
▁평범	-11.1729
▁하객	-11.1729
▁호르몬	-11.1729
▁혼란스러워	-11.1729
▁혼란스럽	-11.1729
▁혼밥	-11.1729
▁혼인신고	-11.1729
▁흐려지	-11.1729
▁흐지부지	-11.1729
▁흔하	-11.1729
▁힘겨	-11.1729
겐	-11.1729
돕	-11.1729
됬	-11.1729
땜	-11.1729
띠	-11.1729
륵	-11.1729
벤	-11.1729
뷔	-11.1729
빽	-11.1729
뻤	-11.1729
샜	-11.1729
송	-11.1729
짼	-11.1729
춰	-11.1729
쿠	-11.1729
휙	-11.1729
▁낮술	-11.1729
▁느꼈	-11.1729
▁베란다	-11.1729
▁피시방	-11.1729
왓	-11.1729
▁간질간질	-11.1729
▁기쁨	-11.1729
▁낙이	-11.1729
▁뻐근	-11.1729
▁소름돋	-11.1729
▁씻어	-11.1729
▁억울	-11.1729
▁현관문	-11.1729
▁황당하	-11.1729
닷	-11.1729
▁엮여	-11.1729
▁견딜	-11.1729
▁떨어뜨려	-11.1729
▁예쁠	-11.1729
▁투잡	-11.1729
▁표출	-11.1729
▁넘어질뻔	-11.1729
▁힘이드네	-11.1729
▁낭만이	-11.1729
▁현명	-11.1729
▁식단조절	-11.1729
▁주워담	-11.1729
▁자극이	-11.1729
▁불가능	-11.1729
그램	-11.1729
블루	-11.1729
▁근교	-11.1729
▁비참한	-11.1729
▁환경	-11.1729
▁관찰	-11.1729
▁씨씨	-11.1729
▁공황	-11.1729
▁도저히	-11.1729
▁간섭	-11.1729
▁뒤돌아	-11.1729
▁뜨끈	-11.1729
▁비참해	-11.1729
▁스릴있	-11.1729
▁바람둥이	-11.1729
▁자유여행이	-11.1729
▁힘드셨	-11.1729
▁숙취	-11.1729
▁색다른	-11.1729
▁체력	-11.1729
▁예랑이	-11.1729
▁깜빡거려	-11.1729
▁으으	-11.1729
울컥	-11.1729
▁환심	-11.1729
둬야	-11.1729
▁명확	-11.1729
▁창문	-11.1729
▁빼앗	-11.1729
▁정열적	-11.1729
▁카공	-11.1729
▁안타까워	-11.1729
▁충실하	-11.1729
▁갈등	-11.1729
▁사로잡	-11.1729
▁친군	-11.173
▁투성이	-11.173
▁난감하	-11.173
▁계획적이	-11.173
▁태그	-11.173
▁떨어짐	-11.173
▁욜로	-11.173
게되네	-11.173
▁병행	-11.173
▁재설계	-11.173
았더니	-11.173
더군	-11.173
▁오랜연애	-11.173
▁찬물	-11.173
▁곤두	-11.173
▁절망적	-11.173
▁동성애	-11.173
▁스노	-11.173
▁위축	-11.173
▁짜증남	-11.173
▁생일선물	-11.173
베리	-11.173
▁불순	-11.173
▁환장	-11.173
▁나빴네	-11.173
▁도와준	-11.1731
▁태어났을까	-11.1731
▁잊혀진	-11.1731
▁서핑	-11.1731
▁뒤숭숭하네	-11.1731
하우스	-11.1731
▁응시	-11.1731
▁바꿔볼까	-11.1731
▁길거리에	-11.1731
▁휴유증	-11.1731
▁갈궈	-11.1731
하겠어	-11.1731
▁일어난	-11.1731
▁가벼워질	-11.1731
▁올랐어	-11.1731
▁계약	-11.1732
▁바나나	-11.1732
▁영화보러	-11.1732
▁갑작스러웠	-11.1732
▁누워	-11.1732
▁전남자친구	-11.1732
용품	-11.1732
▁감수성	-11.1732
▁제습기	-11.1732
▁공복이	-11.1732
▁심남	-11.1732
▁유명	-11.1732
▁미안하대	-11.1732
▁되돌아보	-11.1732
▁구박하	-11.1732
▁이끌어	-11.1732
▁미끄러질	-11.1733
▁아휴	-11.1733
▁직후	-11.1733
▁매달려	-11.1733
지나갑니다	-11.1733
▁불러준	-11.1733
▁예정	-11.1733
▁헷갈려	-11.1733
▁내딛	-11.1733
▁치마	-11.1733
▁어울릴까	-11.1733
설계	-11.1733
잔치	-11.1734
▁보여드리	-11.1734
▁깨짐	-11.1734
▁신기하	-11.1734
▁쉬었다	-11.1734
냈는데	-11.1734
▁호구	-11.1734
▁스쳐	-11.1734
▁탈출구	-11.1734
▁아까운	-11.1735
준비하는방법	-11.1735
▁단단해지	-11.1735
▁11	-11.1735
▁있었는지	-11.1735
▁스케	-11.1735
▁속아주	-11.1735
▁보인다	-11.1736
▁정리되길	-11.1736
▁정리했습니다	-11.1736
▁계신	-11.1736
▁돌아올까	-11.1736
▁또라이	-11.1736
▁외로울	-11.1736
▁유료	-11.1736
▁심난	-11.1737
▁대학원	-11.1737
▁분양	-11.1737
▁백수	-11.1737
▁경제	-11.1737
▁친구사이	-11.1737
▁느낀다면	-11.1737
▁식혀	-11.1737
▁천국	-11.1737
▁숨막히	-11.1738
▁지쳐가네	-11.1738
▁정신병	-11.1738
▁사과해야	-11.1738
▁연락했습니다	-11.1739
▁나쁜놈	-11.1739
▁받았습니다	-11.1739
▁구매	-11.1739
▁바닥	-11.174
▁한눈	-11.174
▁술자리	-11.174
▁느껴질	-11.174
▁무너졌어	-11.174
▁거둬	-11.174
▁부팅	-11.174
▁즐거워	-11.1741
▁끌지	-11.1741
▁연하	-11.1741
▁문화	-11.1741
▁꿈꾸	-11.1741
▁귀여운	-11.1742
▁봤습니다	-11.1742
▁식사	-11.1742
▁고백했다	-11.1742
▁사회에서	-11.1743
▁사무	-11.1743
▁바람피	-11.1743
하시겠	-11.1743
▁되돌	-11.1743
▁멍청	-11.1743
▁까먹었어	-11.1743
▁잘살고	-11.1744
▁벌레	-11.1744
▁공통점	-11.1744
▁알게되면	-11.1744
겁니다	-11.1744
▁뿌려	-11.1745
▁양치	-11.1745
▁공부방법	-11.1746
▁남녀	-11.1746
오르네	-11.1746
▁되어가네	-11.1746
▁결혼해야할까	-11.1747
▁그쪽	-11.1747
▁기다렸나봐	-11.1747
▁하셔	-11.1747
▁달라질	-11.1748
▁배려해야	-11.1749
▁자장면이	-11.1749
▁난방비	-11.175
▁취직이나	-11.175
▁공휴일에	-11.1751
▁화살	-11.1751
▁사랑했으니	-11.1751
▁일주일이네	-11.1752
▁들텐데	-11.1753
▁한달반	-11.1753
신가요	-11.1753
▁엇갈리	-11.1754
▁편안해질	-11.1755
간당	-11.1756
▁보약	-11.1756
방비	-11.1756
▁않으셨	-11.1756
▁구해야	-11.1756
빛으로	-11.1757
▁모여	-11.1758
▁퇴근길	-11.1758
해야할듯	-11.1758
▁모처럼	-11.1759
▁소심	-11.1759
▁전학가	-11.1759
▁지쳤어	-11.1759
▁매정	-11.176
▁밀려오	-11.1762
▁해외	-11.1762
▁가고싶다	-11.1763
▁무리일까	-11.1764
▁남아있	-11.1764
▁퇴근길에	-11.1765
▁추스리	-11.1766
▁미운	-11.1766
▁부러	-11.1767
▁나온대	-11.1767
기름	-11.1769
▁물건들	-11.177
▁버렸다	-11.1771
▁속상할거	-11.1772
▁살았는데	-11.1772
▁커플여행	-11.1773
▁힘드시	-11.1774
▁특히	-11.1775
▁졸라	-11.1776
▁편하대	-11.1776
▁다갔어	-11.1777
▁데려다주려	-11.1777
▁레고	-11.1777
▁쟁취하는	-11.1778
▁판단력	-11.178
▁때리기	-11.1781
▁허기	-11.1783
▁받으셨	-11.1783
▁모른척하	-11.1784
▁무섭네	-11.1784
▁내려놓고	-11.1784
▁어쩔수없	-11.1785
지는것	-11.1785
▁연락오네	-11.1787
▁필요한가요	-11.1787
▁오랜만	-11.1787
▁한달만에	-11.1788
▁질문이	-11.1788
로그	-11.179
▁요청	-11.1791
▁공기	-11.1791
▁산다	-11.1791
▁여기까지였	-11.1792
▁계절	-11.1793
▁안오지	-11.1793
▁쓰리	-11.1793
▁어색해졌어	-11.1793
▁흘렀는데	-11.1793
▁누구냐	-11.1793
▁출근하	-11.1794
▁분에게	-11.1794
▁안되겠죠	-11.1795
▁초기	-11.1795
▁하트	-11.1796
▁처음이라	-11.1796
▁발라	-11.1796
▁보셨나	-11.1796
▁헤어져야하는	-11.1796
소음	-11.1797
▁생생한	-11.1798
▁확실해	-11.1799
▁괴롭다	-11.18
▁지옥같	-11.18
▁되돌리	-11.1801
▁양심	-11.1803
올려봐	-11.1804
▁잘자요	-11.1804
▁보임	-11.1805
▁소통	-11.1805
▁서울	-11.1805
▁미안함	-11.1806
▁묻어두는	-11.1807
▁다되어가네	-11.1807
▁적당해	-11.1809
▁속시원해	-11.181
▁얘기하지	-11.1812
▁지우는	-11.1813
▁소식에	-11.1813
화가나네	-11.1813
▁만져	-11.1815
순수한	-11.1815
▁사랑이야기	-11.1815
▁깔끔한	-11.1815
▁역시나	-11.1816
▁출근길	-11.1816
▁찾은	-11.1817
▁지냈나	-11.1817
▁할말	-11.1817
▁예고	-11.1818
▁정신과	-11.1819
▁성숙해지	-11.182
차이	-11.1823
▁해결해	-11.1823
▁정리하려고	-11.1824
▁단어	-11.1825
▁싫어져	-11.1826
▁귀엽죠	-11.1828
▁벌려	-11.183
▁깨진	-11.1832
▁후련해	-11.1833
▁채우	-11.1833
▁찾으	-11.1834
▁작아지	-11.1838
▁이번달	-11.184
▁무뎌지는	-11.1842
▁나오는데	-11.1846
▁기적	-11.1848
▁무거	-11.1849
이상	-11.185
▁욕하는	-11.1852
▁약해지	-11.1854
기사	-11.1857
▁내려놓기	-11.1858
▁좋겠습니다	-11.1859
▁맞는거	-11.1859
▁아려	-11.186
▁흘렸	-11.1862
▁가을이	-11.1863
▁아는거	-11.1864
▁이래	-11.1867
▁고집	-11.1867
▁열까지	-11.1869
▁힘들어져	-11.1869
되어있는	-11.1872
로워	-11.1872
▁마라	-11.1875
▁구하는	-11.1875
난거	-11.1876
▁동거하다	-11.1876
▁모임에	-11.1877
▁궁금해하지	-11.1877
▁아니었어	-11.188
▁말하면	-11.1881
▁둘다	-11.1883
▁없습니다	-11.1884
▁이러고	-11.1887
▁둔한	-11.1888
▁덤덤해	-11.1889
일뿐	-11.1891
페이	-11.1891
안됩니다	-11.1892
▁날려	-11.1894
받았다	-11.1894
▁걸었어	-11.1895
▁꿨	-11.1899
▁남았어	-11.1899
마트	-11.19
▁안받아	-11.1903
▁자라	-11.1905
▁누락됐	-11.1913
▁친구로서	-11.1915
▁꼼꼼한	-11.1916
▁골랐	-11.1919
▁받아들여요	-11.192
▁받는다는	-11.192
▁거부	-11.1924
다녀야	-11.1927
▁지날	-11.1929
▁치우	-11.193
▁치열해	-11.1932
▁사람하고	-11.1932
때리는	-11.1933
▁준비해	-11.1938
▁집착하지	-11.1939
▁대리	-11.1962
▁불금이	-11.1962
▁수학여행가	-11.1963
▁포기하지	-11.1964
▁귀찮게	-11.1965
▁사회	-11.1967
▁생겼나봐	-11.1967
고쳤	-11.197
▁받아들여지	-11.1973
▁가능한가	-11.1975
▁카톡할	-11.1976
▁공개해	-11.1976
▁경험해	-11.198
▁돌아오는	-11.1982
▁썸타다	-11.1986
▁채워보세요	-11.1989
▁자다	-11.1999
▁아닌가	-11.2001
식을	-11.2002
주의	-11.2003
▁지나고	-11.2004
담하	-11.2009
▁누구야	-11.201
▁적절	-11.201
▁수분	-11.2011
▁생각일까	-11.2013
감한	-11.2016
▁나들이	-11.2018
▁청춘이	-11.2018
▁저주	-11.2018
▁철벽이	-11.2021
▁되어가	-11.2022
▁마음가는	-11.2027
▁저음이	-11.2031
▁뭐지	-11.2043
▁접은	-11.2045
▁소원이	-11.2047
있나	-11.2069
▁잊지마	-11.207
▁만들죠	-11.207
통이	-11.2071
▁못할까	-11.2072
▁웃기	-11.2072
▁안나나	-11.2075
▁정확한	-11.2079
▁긍정적이	-11.2085
▁상황인	-11.2086
▁허락하	-11.2087
▁연락하기	-11.21
▁안갈	-11.2114
▁너무너무	-11.2119
▁적극적이	-11.212
▁될수	-11.2121
시간만큼	-11.2133
▁남자와	-11.2136
▁비우	-11.2137
▁애인이	-11.2138
▁놀러갈	-11.2141
▁농구하	-11.2147
▁모의	-11.2149
▁아련하	-11.2149
려는	-11.2152
▁표현에	-11.2173
▁무너지	-11.2175
▁썸인가요	-11.2176
▁유학간	-11.2183
장소에	-11.2186
▁것일까	-11.2192
▁공부한	-11.2196
거든	-11.2201
▁즐	-11.2206
▁나가지	-11.2207
▁그럴까요	-11.221
▁놓는	-11.2211
▁싫어할까	-11.2217
▁해보면	-11.2222
▁불안한	-11.2222
해본	-11.2231
▁'	-11.2235
▁사람이었어	-11.2237
심이	-11.224
▁하다	-11.2248
▁맞나봐	-11.2249
▁죽었	-11.2252
▁털	-11.2252
▁상처받는	-11.2256
▁없다는	-11.226
▁지워지	-11.2265
▁건데	-11.2274
었나요	-11.2281
▁막막하	-11.2282
▁이야기할	-11.23
▁오나봐	-11.2305
▁짝사랑에서	-11.2307
▁취향이	-11.2315
▁추가	-11.2321
▁백업해	-11.2323
▁가시	-11.233
▁변해가는	-11.2332
▁데서	-11.2332
▁동기	-11.2334
▁쭉	-11.2334
▁깜빡	-11.2335
▁총회	-11.2337
▁꾸미	-11.2337
▁불쑥	-11.2338
▁김치	-11.2338
▁날짜	-11.2338
▁100	-11.234
▁할인	-11.2342
▁연애인	-11.2347
▁끝이났	-11.2351
▁뜻밖	-11.2358
▁직구	-11.2359
상일	-11.2361
▁지났는데	-11.2361
▁숨기	-11.2363
▁죽겠다	-11.2363
해버렸네	-11.2374
▁나이들	-11.2377
▁입을까	-11.2381
▁변하니	-11.2383
▁대단해	-11.2391
했다면	-11.2392
▁안돼나	-11.2394
들어도	-11.2397
▁이야기하고	-11.2412
▁사귄지	-11.2413
끝이네	-11.2414
▁향이	-11.2417
▁펴	-11.2418
였는	-11.2421
▁머리로	-11.2432
▁보는데	-11.2436
~~~	-11.2441
▁끊었	-11.2447
한걸까	-11.2449
▁바람난	-11.2457
▁김	-11.2459
▁보내세요	-11.2466
▁휴학	-11.2481
▁붙는	-11.2482
▁놓아줬	-11.2484
▁지내요	-11.2494
▁했는	-11.2494
▁깨졌	-11.2495
▁비오	-11.2496
▁복전	-11.2506
▁미루	-11.2522
▁별다	-11.2524
▁너랑	-11.2527
하겠지	-11.2527
일지	-11.2529
▁깨질	-11.2535
▁포기하	-11.2535
▁아파서	-11.255
▁부족	-11.2557
▁돌아오기	-11.2561
▁너와	-11.2573
▁넘어	-11.2579
▁전까지	-11.2583
▁저기	-11.2585
▁무지	-11.2586
▁나름	-11.259
▁상관이	-11.2598
▁알았다	-11.2603
보이	-11.2609
▁백	-11.2616
▁질려하	-11.2618
였던	-11.2622
▁이상한가	-11.2651
사드리	-11.2656
어이가	-11.2662
▁태도에	-11.2664
▁기다리다	-11.2667
▁그러다	-11.267
▁걸리	-11.2674
끔하	-11.2676
▁수준	-11.2679
었지	-11.2683
▁데려다줬	-11.2686
▁병이	-11.2701
▁사랑합니다	-11.2706
▁감정들	-11.2725
▁익숙함이	-11.2732
▁멍청한	-11.2734
▁말라	-11.2741
▁약속잡	-11.275
▁입어보	-11.2751
▁잊지말	-11.2756
같죠	-11.2757
▁어떻해	-11.2759
물이	-11.2762
▁되었는	-11.2768
직하	-11.2776
▁장기	-11.2777
▁중독인	-11.2779
해주	-11.2799
▁급해	-11.2801
쳐버리	-11.2802
소식을	-11.2804
▁부여하	-11.2812
▁만들까	-11.2815
▁지나갔네	-11.2818
▁해줄까	-11.282
▁나타났	-11.2833
▁사랑했어	-11.2841
▁심하네	-11.2865
▁욕을	-11.2867
년하고	-11.2878
학원	-11.2881
방에	-11.2885
▁일인가봐	-11.2887
졌다	-11.2888
▁잘되고	-11.2906
간의	-11.291
▁극복해	-11.2913
▁그에게	-11.2925
▁쓸쓸하	-11.2934
▁그랬을	-11.2938
▁다른데	-11.2945
끌	-11.2947
▁나오겠	-11.2951
▁울면	-11.2955
셨네요	-11.2956
▁이어지	-11.2958
▁남나	-11.2971
▁되는건	-11.2977
▁꿨는	-11.2998
▁챙겨줘	-11.3
싶다	-11.3002
▁웃어주	-11.3002
지못한	-11.3004
▁비만	-11.3024
▁연락오	-11.3024
불가	-11.3027
▁힘든거	-11.3045
▁찾아왔	-11.3047
▁티나	-11.3067
▁접어두는	-11.3075
▁올려달	-11.3077
다니기	-11.308
▁기다리게	-11.3082
▁만족해	-11.3131
비해	-11.3134
▁다르니	-11.3149
▁살만	-11.3172
그런건가	-11.3175
▁필요하다	-11.3175
▁피나	-11.3186
▁시간이었을	-11.3192
거겠지	-11.3202
▁골	-11.3214
▁보기만	-11.3214
돼야	-11.3219
▁판	-11.3219
▁사이라	-11.3224
▁날이었	-11.3228
▁추억들	-11.3228
▁보였	-11.3232
▁싫어할	-11.3242
▁날에	-11.3246
여의	-11.3256
▁의지하	-11.3259
▁우정이	-11.326
▁마주	-11.3269
▁받아줄	-11.3271
▁채	-11.328
▁됐습니다	-11.3285
기에	-11.3297
였는데	-11.33
▁흐르면	-11.3319
▁오락가락하	-11.3324
못	-11.3331
붙	-11.3337
▁나라	-11.3358
인가보다	-11.336
▁결국은	-11.3373
▁정리했	-11.3381
▁내년	-11.3383
▁못나	-11.3394
▁하자	-11.3399
좋아하는	-11.34
▁기네	-11.3404
▁찾았	-11.3409
▁즐겨	-11.3415
▁따르	-11.3431
▁연애중	-11.3432
▁끊기는	-11.3442
▁틀어	-11.3442
▁가입	-11.3446
▁잔소리해	-11.3446
▁충	-11.3447
우선이	-11.3455
▁솔	-11.3456
▁탈출	-11.3479
▁탄	-11.3489
▁틈	-11.3492
▁쏟아	-11.3497
▁버림	-11.3497
▁쪽	-11.3512
▁비용	-11.3555
픈	-11.3556
말이라	-11.3587
▁버려야지	-11.3603
낫네	-11.3616
▁도와드릴	-11.3619
안된다	-11.3629
▁입는	-11.3637
▁같았	-11.3646
▁않다	-11.3646
웃으	-11.3651
▁돼지	-11.3664
안나	-11.3665
▁준다	-11.3666
버렸습니다	-11.3671
▁되도	-11.3702
일이네	-11.3726
▁검색해	-11.3727
분인	-11.3731
▁중독인가	-11.3742
▁다되가	-11.378
다는것	-11.3793
▁부족했	-11.3801
▁구별해	-11.3812
▁잔인	-11.3817
▁껴	-11.3821
용해	-11.385
자리	-11.3852
▁동물이	-11.3855
▁만족하	-11.3863
▁어렵겠지	-11.3865
▁본다	-11.3882
학원에	-11.3884
되기	-11.3891
쟁	-11.3897
▁가까워	-11.3903
있니	-11.3905
▁이기	-11.3909
달래	-11.3912
어지고	-11.3917
▁힘든가	-11.3932
▁뜻하	-11.3936
▁이별이에요	-11.3942
아온	-11.3943
▁깎아	-11.3946
▁얼어	-11.395
세포	-11.3958
▁응원해	-11.3958
상해	-11.3966
▁날이네	-11.3968
▁저만	-11.3978
간대	-11.3997
▁넘었	-11.4003
들은	-11.4023
안됐네	-11.4024
껴	-11.4026
시켜야	-11.4028
촬영	-11.404
키스	-11.404
같지	-11.4055
빙	-11.4057
방향	-11.4061
▁신고	-11.4062
가왔습니다	-11.4062
▁오늘로	-11.4065
으면서	-11.4071
응	-11.4087
▁있었지	-11.4091
축	-11.4099
같았	-11.413
▁이주	-11.4153
생각	-11.4161
▁두려운	-11.417
하지마	-11.4177
▁실망하	-11.4187
▁속이는	-11.419
▁상처받았	-11.4206
주차	-11.4207
▁괜찮아졌다	-11.4209
되가는데	-11.4225
잘	-11.4235
▁알바하면	-11.4238
해가	-11.424
▁집앞	-11.4244
아무일	-11.4257
▁비교	-11.4258
▁달라졌	-11.4268
확	-11.4272
잘라	-11.4284
▁사랑하세요	-11.4306
것에	-11.4314
쪽	-11.4316
해야하나	-11.4318
타는	-11.4322
늘	-11.4331
▁이별할	-11.4332
린대	-11.4336
▁길다	-11.4348
▁집앞에	-11.4353
졌는데	-11.4353
▁앞이	-11.436
▁아프겠	-11.4363
떡	-11.4368
버려야지	-11.4368
생각입니다	-11.4372
쏟아	-11.4372
틈	-11.4378
탄	-11.438
버림	-11.438
집에	-11.4384
는걸	-11.4388
▁고민이네	-11.4388
사정	-11.4389
탈출	-11.439
솔	-11.439
스러울	-11.4392
▁서점에	-11.4395
비용	-11.4397
▁전하	-11.4404
충	-11.4407
입	-11.4413
골	-11.4417
자리에	-11.4421
워야	-11.4427
손잡	-11.444
따르	-11.4453
나쁜건지	-11.4459
▁찾	-11.4462
▁즐겨보	-11.4463
▁공시생	-11.4471
▁도와주세	-11.4471
액	-11.4484
▁그리	-11.4485
있겠죠	-11.4487
주저리	-11.4495
센	-11.4497
미팅	-11.4499
여자친구	-11.4501
사람이다	-11.4508
퍼	-11.4512
▁할수	-11.4514
나쁘	-11.4516
키	-11.4518
부려	-11.4523
학생	-11.4529
휴	-11.4534
있다	-11.4536
버렸네	-11.454
없네	-11.4544
▁사랑해줘	-11.4547
달만에	-11.4548
단점	-11.455
▁했었	-11.4553
끝	-11.4555
됐	-11.4557
▁애인	-11.4558
있는데	-11.456
케이스	-11.4564
태	-11.4574
시키	-11.4577
있네	-11.4579
▁미끄러	-11.458
그런	-11.4589
밀어	-11.4589
세우	-11.4596
헤	-11.4598
먼	-11.46
미	-11.4606
있었는데	-11.4612
소모	-11.4612
▁교회에	-11.4614
웃	-11.4614
▁위험할	-11.4616
육아	-11.4621
됐습니다	-11.4624
진짜	-11.4626
꿨	-11.4627
▁왜이	-11.4632
끝났네	-11.4635
쓸	-11.4639
가입	-11.4641
초대	-11.4641
찌	-11.4643
멋	-11.4644
땅	-11.4645
짠	-11.4645
순간	-11.4651
자격증	-11.4656
했습니다	-11.4656
▁헤어지자네	-11.4662
▁간단	-11.4663
▁우정	-11.4665
값이	-11.4665
▁데이트하기	-11.4667
코스	-11.467
열	-11.4672
패턴	-11.4674
눈	-11.4676
무슨	-11.4676
아파	-11.4679
아플	-11.4679
노래방	-11.4688
반복	-11.4689
▁하려면	-11.4689
따	-11.4691
철	-11.4696
뿌	-11.4698
조절	-11.4699
사귄	-11.4701
나올	-11.4701
전과	-11.4703
좋을까	-11.4705
안돼	-11.4706
싸	-11.4717
되었나	-11.4719
랐나봐	-11.4722
문제	-11.4722
빼	-11.4722
빌려	-11.4723
생각나네	-11.4724
쇼핑	-11.4728
경우	-11.4728
감정	-11.4729
모두	-11.4729
맨날	-11.4732
시작이	-11.4732
눈물	-11.4732
쉬	-11.4733
모	-11.4733
차단	-11.4733
들었어	-11.4734
미리	-11.4738
인사	-11.474
딱	-11.4741
6	-11.4745
늦	-11.4746
큰	-11.4746
▁고백이	-11.4748
▁운명적	-11.4753
갖	-11.4754
싫어	-11.4759
안되	-11.476
됐으면	-11.4766
문자	-11.4769
▁보름달	-11.4769
다보니	-11.478
스타일이	-11.4781
워보	-11.4786
한잔	-11.479
▁가지자	-11.4793
▁귀엽다	-11.4797
▁빈	-11.4805
▁까먹었	-11.4818
▁잊어볼	-11.4819
▁팩	-11.4827
향이	-11.4835
알	-11.4836
▁반응해	-11.4836
▁공허	-11.4838
▁안정	-11.4845
쓰는	-11.4847
▁볶	-11.4847
▁해보	-11.4847
고민	-11.4848
어린	-11.4857
▁악	-11.4863
▁침	-11.4868
▁기억나	-11.4871
▁길에	-11.4872
▁절친	-11.4879
어보고	-11.4884
보이는	-11.4889
▁빛	-11.489
백한다	-11.4896
심리	-11.4904
▁폭	-11.4911
▁자리에	-11.4911
달렸나봐	-11.4925
▁붙잡으	-11.4947
어진다	-11.4954
▁익숙해지는	-11.4959
▁안한	-11.4966
▁미워해	-11.4967
틀어	-11.4971
▁헬스장	-11.4974
집에서	-11.4981
돌이	-11.4982
서점에	-11.4988
일이라	-11.4993
▁치맥	-11.4999
좋은건	-11.5
▁어디가	-11.5005
▁하러	-11.502
▁영화보	-11.5022
▁쓸쓸	-11.5024
▁나날	-11.5025
달에	-11.5033
했을	-11.5035
소리	-11.5049
가지만	-11.5049
한가봅니다	-11.5057
▁거지같	-11.5066
▁비가오	-11.5068
선의	-11.5107
후폭풍	-11.5111
▁유지	-11.5114
▁착각하	-11.5137
▁힘내라	-11.5137
▁날인	-11.514
▁미안하	-11.5144
마셔	-11.5145
일수	-11.5158
약이	-11.5159
인다	-11.5167
버렸	-11.5169
겼는데	-11.5191
▁잘못했다	-11.5196
정적	-11.5227
▁털어	-11.5238
▁부여	-11.5245
▁것일	-11.5253
▁사랑만	-11.5274
▁기다려보	-11.5295
▁과에	-11.5297
▁행복했	-11.5315
▁물리	-11.5316
끔	-11.5327
▁바쁘네	-11.5331
못하겠어	-11.5347
▁밥이	-11.536
곳에	-11.5363
▁준비하면	-11.5369
보내	-11.5383
다네	-11.539
이냐	-11.5396
놓으	-11.5412
움이	-11.5438
▁알아줄	-11.5445
혔어	-11.5447
▁멀었나	-11.5454
▁아픈가	-11.5455
러운	-11.5476
기네	-11.549
하셨나	-11.5512
▁적을	-11.5527
▁연락올	-11.553
▁순수	-11.5534
▁잡혀	-11.5548
싶어요	-11.5567
▁나오지	-11.5595
▁복전하	-11.5597
▁흔적이	-11.56
하고있어	-11.5613
어지지	-11.5642
▁서점	-11.5671
▁이야기는	-11.5711
진지	-11.573
났네	-11.5742
▁그런건	-11.5752
그치	-11.5767
하려나	-11.577
▁갖는	-11.5779
▁허무하	-11.5802
▁싫어하나	-11.5849
지금	-11.5853
째네	-11.5854
이다	-11.5857
▁모르니	-11.5867
이런	-11.5873
▁원하	-11.5889
내는	-11.5892
렸으	-11.5897
하더라고요	-11.5908
▁바라보	-11.5908
▁다니면	-11.5911
이였어	-11.5928
▁답인	-11.594
▁척하	-11.5944
▁기억들	-11.5947
▁탈이	-11.5949
겟	-11.5952
▁조심해야	-11.5974
▁에이	-11.5982
▁착해	-11.5986
▁대상	-11.5987
온대	-11.5988
리세요	-11.5997
▁성숙	-11.6006
▁차이일	-11.6021
▁머	-11.6056
▁시간인가	-11.6059
▁생각났	-11.6068
사고	-11.6073
▁없다가	-11.6077
▁좋아했	-11.6091
▁나오는	-11.6092
▁죽고싶	-11.6121
해하지	-11.6149
▁적어보	-11.6151
▁약인	-11.6151
어져	-11.6157
▁선물해주	-11.6171
▁아프니	-11.6172
가보는	-11.6178
▁그만둬	-11.6185
▁지키	-11.6185
▁돌보	-11.619
해주면	-11.6208
나보네	-11.6214
▁높이	-11.6215
표	-11.6217
▁애석	-11.6227
갔	-11.6237
▁만한	-11.6238
▁엉	-11.6259
▁행복하지	-11.6297
▁아파하	-11.6307
▁싫어해	-11.6313
▁내려놓	-11.6323
폭풍	-11.6334
▁든다	-11.634
▁뒀	-11.6341
▁쪄	-11.6341
▁이어나가	-11.6354
▁축하	-11.6354
▁수학여행	-11.6357
▁잘생겼	-11.6362
▁결혼하는	-11.6364
▁예뻐해	-11.6367
▁오겠	-11.6368
▁불금	-11.6379
▁하고싶은	-11.6382
전할	-11.6389
사이	-11.639
▁좋았겠	-11.6414
나긴	-11.6421
▁직업	-11.6425
▁매달	-11.6427
▁회	-11.6429
▁꼼꼼	-11.6431
▁느낀	-11.6431
던게	-11.6438
전이	-11.6446
▁현금	-11.6465
▁멀어	-11.6471
냈	-11.6471
어야죠	-11.6473
▁하루였	-11.6476
▁그나	-11.6476
것인가	-11.6484
▁보내보	-11.6504
▁변해가	-11.6509
젠	-11.6511
▁달려	-11.6513
▁깨달	-11.6522
▁잊혀져	-11.653
▁알아주	-11.6533
고프다	-11.6534
▁사람이었	-11.6535
▁감정적	-11.6563
▁신청해	-11.6576
루	-11.6583
▁여행가고	-11.6586
▁첫사랑인	-11.6587
▁안할	-11.659
▁구멍	-11.6596
생긴	-11.6597
▁늙어	-11.6599
▁반가워	-11.6608
▁익숙	-11.6616
▁현실에	-11.6628
어리	-11.664
▁말아보	-11.6641
▁부질없	-11.6642
▁성덕	-11.6642
▁아쉬움	-11.6642
▁약해	-11.6643
갔네	-11.6643
맥	-11.6645
▁질문	-11.6649
▁쟁취하	-11.6649
십	-11.6655
마시러	-11.6663
▁머릿	-11.6666
▁표현할	-11.6668
▁추스	-11.6671
▁다했다	-11.6674
▁낫겠	-11.6675
▁꿈이었	-11.6675
▁도망	-11.6677
쁜	-11.6679
갔네요	-11.6685
▁밤인	-11.6685
▁말해야	-11.6686
기지	-11.6687
혼전	-11.6689
▁두셨	-11.6692
▁공휴일	-11.6693
▁챙겨줄	-11.6695
싹	-11.6696
환	-11.6705
▁오나	-11.6706
▁어쩔수	-11.6709
증이	-11.6713
▁괜찮은거	-11.6714
▁간접	-11.6714
▁스타	-11.6714
▁섭섭	-11.6717
▁무너졌	-11.6717
▁다녀오	-11.6718
▁괴로	-11.672
▁변할	-11.6722
귄	-11.6722
▁자유로워	-11.6723
▁불효	-11.6724
킨	-11.6724
습기	-11.6724
▁뒤숭숭	-11.6725
험해	-11.6727
쩌	-11.6727
첨	-11.6727
▁어울릴	-11.6728
앗	-11.6728
끗	-11.6728
▁대충	-11.6728
▁희생	-11.6728
찢	-11.6728
뚝	-11.6728
해주고싶	-11.6728
▁핸드	-11.6728
텔	-11.6728
겼다	-11.6728
;	-11.6729
댓	-11.6729
▁비행기	-11.6729
넥	-11.6729
▁기뻐해	-11.6729
▁북받쳐	-11.6729
▁흐음	-11.6729
잊혀지려	-11.6729
탐	-11.6729
▁광탈	-11.6729
▁금사빠	-11.6729
▁날카로워	-11.6729
▁눌러	-11.6729
▁소극적	-11.6729
▁쥐꼬리	-11.6729
▁폰겜	-11.6729
▁헌팅	-11.6729
▁험담	-11.6729
메이크업	-11.6729
웁	-11.6729
%	-11.6729
D	-11.6729
O	-11.6729
P	-11.6729
X	-11.6729
c	-11.6729
▁40	-11.6729
▁감정컨트롤	-11.6729
▁개당황	-11.6729
▁갱신	-11.6729
▁거리두기	-11.6729
▁건강검진	-11.6729
▁겉모습	-11.6729
▁곱씹	-11.6729
▁관절염	-11.6729
▁교직이수	-11.6729
▁그리웠나	-11.6729
▁기획사	-11.6729
▁김치볶음밥	-11.6729
▁꽃바구니	-11.6729
▁꽝이	-11.6729
▁끝냈습니다	-11.6729
▁나쁨	-11.6729
▁낙엽	-11.6729
▁노처녀	-11.6729
▁논문	-11.6729
▁대부분	-11.6729
▁돌싱	-11.6729
▁두근두근	-11.6729
▁들이댔	-11.6729
▁들켰	-11.6729
▁뜬금	-11.6729
▁렌즈	-11.6729
▁멀미	-11.6729
▁모태솔로	-11.6729
▁못믿겠	-11.6729
▁못받	-11.6729
▁무뚝뚝해	-11.6729
▁뭘해야	-11.6729
▁밉다	-11.6729
▁부딪히	-11.6729
▁불꽃	-11.6729
▁불륜	-11.6729
▁블랙박스	-11.6729
▁뽑아	-11.6729
▁삐져	-11.6729
▁사투리	-11.6729
▁삼가	-11.6729
▁상견례	-11.6729
▁샐러드	-11.6729
▁서툴어	-11.6729
▁섣부르	-11.6729
▁섬유	-11.6729
▁소풍	-11.6729
▁숏컷	-11.6729
▁쉽지않	-11.6729
▁스몰웨딩	-11.6729
▁스킨쉽	-11.6729
▁실험실	-11.6729
▁싫었는데	-11.6729
▁쌓아	-11.6729
▁쌓이	-11.6729
▁씻기	-11.6729
▁안돌아오나	-11.6729
▁애키우	-11.6729
▁엊그	-11.6729
▁엿같	-11.6729
▁예식장	-11.6729
▁웨딩	-11.6729
▁웨딩드레스	-11.6729
▁위로받	-11.6729
▁은퇴후	-11.6729
▁의사표시	-11.6729
▁익숨함	-11.6729
▁재택근무	-11.6729
▁전기장판	-11.6729
▁조명빨	-11.6729
▁죄송해	-11.6729
▁중소기업	-11.6729
▁짱나	-11.6729
▁찾아갔습니다	-11.6729
▁춘곤증인가	-11.6729
▁취뽀	-11.6729
▁카풀	-11.6729
▁컨트롤	-11.6729
▁쿨하	-11.6729
▁탓인지	-11.6729
▁텅비	-11.6729
▁퇴사	-11.6729
▁편식	-11.6729
▁포근포근	-11.6729
▁풍부	-11.6729
▁피어싱	-11.6729
▁햇볕	-11.6729
▁호박씨	-11.6729
▁황당해	-11.6729
걍	-11.6729
균	-11.6729
귤	-11.6729
깃	-11.6729
깅	-11.6729
꽂	-11.6729
꿩	-11.6729
넛	-11.6729
넹	-11.6729
녔	-11.6729
뇨	-11.6729
눴	-11.6729
닦	-11.6729
닭	-11.6729
덩	-11.6729
뒹	-11.6729
뚱	-11.6729
띰	-11.6729
랭	-11.6729
렉	-11.6729
령	-11.6729
룰	-11.6729
룸	-11.6729
룽	-11.6729
릭	-11.6729
뮤	-11.6729
밭	-11.6729
벨	-11.6729
붓	-11.6729
뽀송	-11.6729
삔	-11.6729
샘	-11.6729
솜	-11.6729
쇠	-11.6729
쎈	-11.6729
쏜	-11.6729
쑤	-11.6729
씰룩	-11.6729
왼	-11.6729
웽	-11.6729
잊기싫은	-11.6729
젝	-11.6729
줍	-11.6729
쥬	-11.6729
즙	-11.6729
징글	-11.6729
짤	-11.6729
짰다	-11.6729
쨌	-11.6729
층	-11.6729
컷	-11.6729
템	-11.6729
티브	-11.6729
▁식욕폭발	-11.6729
▁걷는	-11.6729
▁고시생	-11.6729
▁깜깜	-11.6729
▁동문서답	-11.6729
▁드러내	-11.6729
▁반배정	-11.6729
▁변했	-11.6729
▁부딪혀	-11.6729
▁삼주	-11.6729
▁쌍커풀	-11.6729
▁은퇴해야	-11.6729
▁이쁘	-11.6729
▁잤나	-11.6729
▁정동진	-11.6729
▁젖어	-11.6729
▁주눅들	-11.6729
▁중간중간	-11.6729
▁진부한	-11.6729
▁찔러	-11.6729
▁풀었	-11.6729
▁허전해	-11.6729
조언부탁	-11.6729
하소연	-11.6729
▁가르쳐	-11.6729
▁거슬려	-11.6729
▁데려달라고	-11.6729
▁말았네	-11.6729
▁행동일수도	-11.6729
멜	-11.6729
섯	-11.6729
오른다	-11.6729
윙	-11.6729
흡	-11.6729
▁고구마	-11.6729
▁조교하면	-11.6729
▁처량하	-11.6729
▁메시지	-11.6729
빌어먹을	-11.6729
▁괴로웠을	-11.6729
섹	-11.6729
;;	-11.6729
▁허무해	-11.6729
▁감미로	-11.6729
▁식도염	-11.6729
▁입소문	-11.6729
▁깐깐	-11.6729
▁씨앗	-11.6729
년동거	-11.6729
▁서먹해	-11.6729
▁친절하	-11.6729
▁태몽	-11.6729
걸레질	-11.6729
▁이별하신	-11.6729
▁유세부	-11.6729
▁근황	-11.6729
▁쳐다봄	-11.6729
▁황사	-11.6729
▁댄디	-11.6729
▁댓글	-11.6729
▁헤어졋	-11.6729
투덜	-11.6729
▁어장관리	-11.6729
▁탄탄	-11.6729
▁양면과	-11.6729
▁토닥	-11.6729
▁한심하네	-11.6729
▁내키는	-11.6729
▁탄생	-11.6729
▁쪽팔	-11.6729
▁건물주	-11.6729
▁동아리에	-11.6729
▁호텔	-11.6729
▁체육	-11.6729
▁대학교	-11.6729
▁가라앉혀	-11.6729
▁문화센터	-11.6729
▁봄방학	-11.6729
▁쓸모	-11.6729
▁타입인	-11.6729
▁선연하	-11.6729
▁팔뚝	-11.6729
▁소홀	-11.6729
▁시누	-11.6729
▁발등	-11.673
▁팔찌	-11.673
▁떠올라	-11.673
▁단톡에	-11.673
▁잠식시키	-11.673
▁수십번	-11.673
▁영화보재	-11.673
▁초조해	-11.673
▁출국	-11.673
잡히네	-11.673
▁부작용	-11.673
▁놀이터에	-11.673
▁뻔뻔	-11.673
▁독학하	-11.673
▁슈퍼문이	-11.673
▁대리님	-11.673
▁다가온	-11.673
▁스킨	-11.673
▁경제력	-11.673
▁처방	-11.673
▁감추는	-11.673
▁머물	-11.673
▁해결방안	-11.673
▁폭식	-11.673
▁강해지	-11.673
▁그만할래	-11.673
▁지옥이네	-11.673
▁무뎌져	-11.673
▁헤어졌을때	-11.673
▁담담하	-11.673
▁숨쉬	-11.673
▁환상	-11.673
▁짜증난다	-11.673
▁알뜰	-11.673
▁끌려	-11.673
▁문콕	-11.673
▁폭식증	-11.673
▁언제부터인지	-11.673
▁복합적	-11.673
▁돌아온	-11.6731
▁마음가짐	-11.6731
▁소액	-11.6731
▁비참하	-11.6731
▁구분짓	-11.6731
▁일반적이	-11.6731
▁신입	-11.6731
▁변덕스러운	-11.6731
▁후덜덜	-11.6731
▁비교돼	-11.6731
▁짝사랑이었네	-11.6731
▁매순간	-11.6731
▁양다리	-11.6731
▁국경	-11.6731
▁떠나갔네	-11.6731
합시다	-11.6731
▁무뎌진	-11.6731
▁잊었다	-11.6731
▁맞출까	-11.6731
▁기름값	-11.6731
▁인형뽑기	-11.6731
▁야구장	-11.6732
순위	-11.6732
▁친추	-11.6732
▁잡담	-11.6732
▁장거리연애	-11.6732
▁사치인	-11.6732
▁씌었나봐	-11.6732
▁털어내	-11.6732
국물	-11.6732
▁시절	-11.6732
▁나머지	-11.6732
▁청강	-11.6732
▁퇴근시간	-11.6732
▁원망스럽	-11.6732
▁발렌타인	-11.6732
▁후련해졌	-11.6732
▁성급	-11.6732
달반	-11.6732
쳐올	-11.6732
▁끝인거겠죠	-11.6732
▁잊어버려	-11.6733
▁변명거리	-11.6733
▁여행지에서	-11.6733
▁반복될까	-11.6733
▁내려놔	-11.6733
▁산이네	-11.6733
▁지겹	-11.6733
▁가운데	-11.6733
▁지워버리	-11.6733
▁살려줘	-11.6733
▁무색해지네	-11.6733
▁부담된다	-11.6733
▁명언	-11.6733
▁대충했	-11.6733
추세	-11.6733
▁잊어야한다는	-11.6733
될것같	-11.6733
▁어색할까	-11.6733
▁되어갑니다	-11.6734
▁사갈까	-11.6734
▁난처	-11.6734
▁외박	-11.6734
▁불효자	-11.6734
뜨문	-11.6735
▁확실해졌	-11.6735
미칠꺼	-11.6735
▁불타오르	-11.6735
▁수상한데	-11.6735
▁남은걸까	-11.6735
▁필요했을텐데	-11.6735
▁자제하는	-11.6735
▁무덤덤한데	-11.6735
▁영역	-11.6735
▁바래다	-11.6735
▁욕먹	-11.6735
여주고	-11.6735
▁잊고싶다	-11.6735
▁해주기	-11.6735
▁취급	-11.6735
▁새롭	-11.6735
▁바보짓	-11.6735
▁씁쓸하네	-11.6736
▁장난친	-11.6736
▁이용당	-11.6736
▁마침	-11.6736
키니	-11.6736
▁변할까	-11.6736
▁잔인하네	-11.6736
▁심각	-11.6736
▁냉정해	-11.6736
꾸룩	-11.6736
▁진담	-11.6736
▁체질	-11.6736
▁직감	-11.6736
▁작별	-11.6736
▁괴로운	-11.6737
▁끝냈는데	-11.6737
▁답답하신가	-11.6737
▁구걸하	-11.6737
▁꼬셔	-11.6737
▁오늘밤	-11.6737
▁쳐다보	-11.6737
▁해낸	-11.6737
▁공허하네	-11.6737
▁떠나갔어	-11.6737
▁못났	-11.6737
근무	-11.6738
환해	-11.6738
▁사겼는데	-11.6738
▁자야하는데	-11.6738
▁어디있을까	-11.6738
▁신기해	-11.6738
주정	-11.6738
▁가혹	-11.6738
▁괴롭혀	-11.6739
킬	-11.6739
▁긴장돼	-11.6739
▁잠들기	-11.6739
▁따위	-11.6739
▁초초	-11.6739
모닝	-11.6739
▁서운한거	-11.6739
보내버렸네	-11.6739
▁당사자만	-11.6739
▁야외	-11.6739
▁조심스	-11.674
치즈	-11.674
▁솔직했으면	-11.674
▁하품	-11.674
▁기계	-11.674
▁나이먹	-11.674
▁학교생활	-11.674
▁두분이	-11.674
▁위안	-11.6741
섭섭하	-11.6741
▁해결해줄	-11.6741
▁비례	-11.6741
▁주름	-11.6741
느껴진다	-11.6741
액션	-11.6741
▁떠났습니다	-11.6741
▁간지러	-11.6742
▁착각일까	-11.6742
▁결재	-11.6742
진행중	-11.6742
▁여부	-11.6742
▁달라질까	-11.6743
▁눈빛	-11.6743
▁나날이었	-11.6743
화하기	-11.6743
▁아른거	-11.6744
바구니	-11.6744
▁고백해도될까	-11.6744
▁휴우	-11.6744
▁느끼나	-11.6744
▁회의감	-11.6744
▁어째서	-11.6744
▁돌아올거	-11.6745
▁번복	-11.6745
명이라	-11.6745
▁겁이	-11.6745
▁연애끝	-11.6745
▁골인	-11.6745
▁부담돼	-11.6746
▁가족같은	-11.6746
▁심란	-11.6746
▁앞서서	-11.6746
▁맞는거겠죠	-11.6747
▁정리되었길	-11.6747
않으려고	-11.6747
▁받아드리	-11.6747
▁식단	-11.6747
▁애써봐	-11.6747
▁걸어다니	-11.6747
▁냄새날	-11.6748
▁돌아간	-11.6748
▁한쪽	-11.6748
▁맞추려고	-11.6748
▁원두	-11.6748
▁괜찮았는데	-11.6749
람을	-11.6749
▁회복되	-11.6749
▁무뎌졌	-11.675
쓰담	-11.675
우니	-11.675
▁사랑했다는	-11.6751
▁정량	-11.6751
▁사라질까	-11.6751
참아왔	-11.6751
주룩	-11.6751
크림	-11.6751
▁보름	-11.6751
▁솔로인	-11.6752
▁같을까	-11.6752
▁담아	-11.6752
▁잘해준	-11.6752
▁파마	-11.6752
▁주차장	-11.6752
개월간의	-11.6753
▁꼬시지	-11.6753
▁지침	-11.6753
로우니	-11.6753
▁순간들이	-11.6753
▁시린	-11.6754
▁인간적	-11.6754
초반	-11.6754
▁떨어진	-11.6754
▁만나지말	-11.6755
▁겁이나	-11.6755
▁울었어	-11.6755
던곳	-11.6755
▁비추	-11.6755
▁힘든거네	-11.6755
▁완벽해지	-11.6755
리마	-11.6756
▁원하던	-11.6756
실수했다	-11.6756
▁그립지만	-11.6756
▁솔로야	-11.6756
▁꺼질	-11.6756
▁만나고왔어	-11.6756
▁방구	-11.6757
▁너그	-11.6757
▁메일	-11.6758
▁심정	-11.6758
▁촉이	-11.6758
▁아이구	-11.6759
▁안되는건가	-11.6759
▁소용	-11.6759
▁몸매	-11.6759
▁돌아다니	-11.6759
▁봐야겠다	-11.6759
▁귀엽대	-11.676
▁아물어	-11.6761
▁지키기	-11.6761
▁노답이	-11.6761
▁임신	-11.6761
▁파혼했어	-11.6761
▁죽음	-11.6761
▁들었는데	-11.6762
▁먹여주나	-11.6762
바싹	-11.6762
비꼬는	-11.6762
▁기부	-11.6762
▁붙어	-11.6762
▁않았을텐데	-11.6763
▁느끼게	-11.6764
할꺼야	-11.6764
▁돌봐	-11.6765
▁무난	-11.6765
▁결혼생활	-11.6765
▁무서운건	-11.6766
▁면세	-11.6766
▁배부르	-11.6767
▁답일까	-11.6768
정말끝이	-11.6768
▁떨어졌	-11.6769
▁마법	-11.6769
▁너덜너덜해	-11.6769
방안	-11.677
▁오후	-11.6771
▁써야	-11.6771
겟죠	-11.6772
▁휘둘리	-11.6772
▁온천	-11.6772
보내주려	-11.6772
▁오르고	-11.6772
▁잘생긴	-11.6772
▁초라해	-11.6772
▁친해지	-11.6772
▁같았나	-11.6773
▁내려놓으면	-11.6773
▁헤어지신	-11.6774
느리	-11.6774
▁칼로	-11.6774
▁순진	-11.6775
▁책보	-11.6776
▁자식	-11.6777
▁안열	-11.6777
▁이번주	-11.6777
개월동안	-11.6778
▁무사	-11.6778
▁지독	-11.6779
▁매달리	-11.6779
▁불타오	-11.6779
상화	-11.6779
▁경과	-11.6779
▁피해자	-11.678
출할	-11.678
▁사랑꾼	-11.6781
▁설레발	-11.6781
▁쓰디	-11.6782
▁과제	-11.6783
어버리	-11.6783
▁졸리	-11.6784
▁엉망	-11.6785
▁내릴까	-11.6785
▁몇번	-11.6785
▁보조	-11.6786
▁자유로워질까	-11.6786
▁못잊을	-11.6787
▁잡으려	-11.6788
▁헤어졌으니까	-11.6788
▁사줄까	-11.6789
▁바본	-11.679
▁서글	-11.6791
▁올려봅니다	-11.6791
끌리	-11.6791
▁위대한	-11.6791
하던가요	-11.6791
▁먹었나봐	-11.6792
▁힘드네ᅮ	-11.6792
▁상메에	-11.6793
▁다시만나	-11.6793
▁떠오르네	-11.6794
▁갈구	-11.6795
▁대신	-11.6795
▁입맛없	-11.6797
▁모른	-11.6797
▁남아있나	-11.6798
▁물건	-11.6799
▁아무는	-11.68
▁한순간에	-11.68
▁들어줄래	-11.68
▁회의	-11.6801
▁여기까지였나	-11.6801
쓰레기통	-11.6802
▁모자	-11.6802
▁해봤어요	-11.6802
스럽다	-11.6803
▁생일이야	-11.6804
생에	-11.6804
▁생활비	-11.6804
리스	-11.6805
▁쓰여	-11.6805
▁서운한	-11.6807
▁먹방	-11.6807
▁긴여	-11.6807
▁모질	-11.6808
학번	-11.6808
▁안내는	-11.681
근한	-11.6812
▁말로만	-11.6814
직한	-11.6815
▁부질없는	-11.6817
▁한사람	-11.6818
쓸까	-11.6819
▁없었나봐	-11.682
▁내려놓는	-11.6821
▁생겼대	-11.6822
▁해야겠어	-11.6822
▁어머나	-11.6823
▁차임	-11.6823
▁적응해	-11.6826
▁정치	-11.6826
▁쓰이네	-11.6827
▁속지말	-11.6827
개월이네	-11.6829
▁기운내	-11.683
▁다른반	-11.6832
▁약이라는	-11.6832
▁무섭다	-11.6832
▁불만만	-11.6833
▁이것만	-11.6833
▁연기	-11.6834
▁제사	-11.6834
▁멋있어	-11.6835
▁바보라	-11.6835
▁오늘부	-11.6836
▁찾아오길	-11.6836
▁찾아볼까	-11.6837
보낼	-11.6838
▁멀어진다는	-11.684
▁짝사랑중	-11.684
▁상처들	-11.6841
걸리겠어	-11.6842
유발	-11.6842
▁가출	-11.6843
▁잘지내고	-11.6843
▁장수	-11.6844
▁사랑이였	-11.6844
▁받을까	-11.6845
▁밤이	-11.6846
건너	-11.6847
▁답장해	-11.6847
▁사실일	-11.6847
▁그대로인	-11.6848
▁자금	-11.6849
샤워해	-11.6849
▁놀려	-11.6849
▁수수한	-11.6849
▁노래들	-11.685
▁질린다	-11.685
주정도	-11.6851
▁안타까	-11.6854
▁어쩌죠	-11.6855
▁나올까	-11.6859
▁정리해야할	-11.6859
▁괜찮아지길	-11.6859
진것	-11.6859
▁오긴	-11.686
▁버리기	-11.6861
▁예를	-11.6861
▁정상인가	-11.6861
▁힘드나	-11.6862
▁그놈	-11.6867
▁안올	-11.687
▁사랑스럽	-11.6871
▁구상	-11.6872
된다	-11.6874
▁전화하기	-11.6875
적이	-11.6877
▁이겨	-11.6879
▁재회하고	-11.6879
▁강요하는	-11.688
▁가까워지	-11.688
▁무색하게	-11.6884
▁집사	-11.6884
어보	-11.6892
▁살릴	-11.6895
▁술기운	-11.6896
▁티비	-11.6896
마디	-11.6897
▁화나고	-11.6897
아리	-11.6899
▁주체할	-11.6901
▁사줄	-11.6901
▁대쉬해	-11.6903
▁못하나봐	-11.6903
▁받았나	-11.6903
반짝	-11.6904
▁오니	-11.6906
▁기차	-11.6906
▁안난다	-11.6909
관에	-11.6911
▁자유시간	-11.6913
▁그분과	-11.6914
▁할까요	-11.6915
▁그렇겠지	-11.6915
착이	-11.6916
▁연애하다	-11.6919
▁수순	-11.6925
었나	-11.6926
▁남이죠	-11.6927
▁아끼는	-11.6931
▁잊혀져가	-11.6933
라구	-11.6933
▁감당이	-11.6934
▁놀랐겠	-11.6935
▁이해못	-11.6935
▁잘했다	-11.6936
▁감기약	-11.6938
▁못내는	-11.694
▁사귀면서	-11.694
▁훈훈하	-11.6941
▁없음	-11.6943
▁없었어	-11.6944
▁놀라	-11.6947
▁필요할까	-11.6952
그여자	-11.6953
트인	-11.6953
물이라	-11.6955
▁찾아갔네	-11.6959
▁지웠	-11.6962
▁이후	-11.6965
일째인데	-11.6966
어진	-11.6967
▁힘들줄	-11.6972
▁맘대로	-11.6972
지망	-11.6973
▁좋으면서	-11.6973
▁필요없어	-11.6978
거같은데	-11.6981
▁것이겠죠	-11.6982
▁의미일까요	-11.6983
셨을	-11.6983
▁이길	-11.6986
▁이별할때	-11.6989
주면	-11.699
▁누구니	-11.699
▁아깝다	-11.699
▁어떠하	-11.6992
▁냉정할	-11.6992
▁이마	-11.6992
▁질리게	-11.6996
▁화내는	-11.6996
▁응원해주면	-11.7
다는데	-11.7008
▁궁금한게있	-11.7009
▁공감되	-11.701
▁떨어지지	-11.7011
▁술이야	-11.7014
놓은	-11.702
려야	-11.7024
▁덜해	-11.7025
았다	-11.7028
▁여친과	-11.7039
▁설레게하	-11.7039
▁잘못이지	-11.7043
▁직업이	-11.7043
▁비싸다	-11.7044
▁본인만	-11.7045
▁장난치	-11.7048
거지같이	-11.7061
▁식상	-11.7067
▁독한	-11.7069
▁그후	-11.7085
▁마주보	-11.7088
▁끝나네	-11.7089
▁카톡하는	-11.7089
▁일주일째	-11.7097
▁결혼할까	-11.7097
▁일치	-11.7097
▁오래걸	-11.711
▁습관이라	-11.7111
▁같기도	-11.7112
▁않겠지	-11.7112
▁내맘같	-11.7113
민가	-11.7115
천하	-11.7122
▁잘지내고있	-11.7123
해본적	-11.7124
맞는다면	-11.7125
▁손이	-11.7142
▁추우니	-11.7143
▁다정	-11.7144
▁왔	-11.715
▁놔주	-11.715
▁붙잡으려	-11.7151
여기	-11.7151
▁상처받아	-11.7155
▁이상하지	-11.7159
왔을	-11.716
▁뿌리	-11.7169
▁취직이	-11.7171
만두	-11.7172
▁힘들대	-11.7172
▁관리해	-11.7173
으셨	-11.7177
▁잘해줘서	-11.7187
▁못잊겠	-11.719
▁싫은가	-11.7191
▁듣고싶	-11.7194
▁기분이야	-11.7195
해졌나봐	-11.7199
▁사랑이란	-11.721
▁다음주	-11.7214
▁헌신하	-11.7216
▁타이밍인	-11.7219
▁전화할	-11.7223
되니	-11.723
▁가는거	-11.7232
들겠지	-11.7235
▁못했는	-11.7238
있는건지	-11.7239
수라	-11.724
▁될거	-11.7242
▁경우에	-11.7244
표인	-11.7244
▁다가가야	-11.7245
▁날이야	-11.7246
▁영화보자	-11.7247
▁이별인가봐	-11.7249
▁아프죠	-11.7249
▁높이는	-11.7269
▁배려해	-11.7278
지우는게	-11.7281
적을	-11.7283
▁침대에	-11.729
▁새장	-11.7291
▁끈이었	-11.7292
▁어떤거	-11.7293
▁지키는	-11.7304
▁그만둬야	-11.7309
▁모르나봐	-11.731
▁좋아하는건가	-11.7314
채나	-11.732
▁가볼까	-11.7322
▁일화	-11.7322
체가	-11.7326
▁기억할	-11.7333
으시는	-11.7333
▁다가갈	-11.7339
▁커지기	-11.7341
▁모임이	-11.7343
▁봐야	-11.7347
▁붙잡을	-11.7348
▁성숙해	-11.7351
안했을	-11.7354
▁죄인	-11.7356
▁존중하는	-11.7361
▁게임하	-11.7366
▁불렀	-11.7368
▁사라지	-11.7368
▁지금까지	-11.737
▁음악이	-11.7377
▁잡기	-11.738
▁익숙해졌	-11.7384
▁벌어	-11.7385
▁오래타	-11.7386
▁전화하고	-11.7387
할텐데	-11.7389
▁속지	-11.739
▁풀어주	-11.7392
답이야	-11.7393
▁이별후에	-11.7398
▁잘라야	-11.74
▁덜하	-11.7401
▁엄청나	-11.7404
▁동거중	-11.7409
온	-11.7413
▁놈이	-11.7414
▁노력한	-11.7414
▁생각했을	-11.7417
시원해	-11.7444
타이	-11.7446
▁도자기	-11.7463
구만	-11.7465
▁전여친이	-11.7465
▁애야	-11.7474
▁처음만	-11.7482
▁놀리	-11.749
▁받으려	-11.7491
▁왕따인	-11.7497
▁깊이	-11.75
▁봐달라	-11.75
사니	-11.7522
▁요구하	-11.7528
▁모르지	-11.7553
▁이루어질	-11.7567
▁만나러가	-11.7567
▁직장인이	-11.7582
▁보수적이	-11.759
▁냉정하	-11.7592
▁잊은	-11.76
▁질거	-11.7604
▁해외여행가	-11.7607
▁마무리하	-11.762
했었	-11.762
▁울었	-11.7624
▁최악이	-11.7631
▁데이	-11.7631
▁연애할	-11.7636
▁키워보	-11.7645
▁찍은	-11.7653
▁내장	-11.7656
▁거래	-11.7657
뭐냐	-11.7663
▁다녀온	-11.7664
▁기복	-11.7667
▁전해지	-11.7676
▁하는건가	-11.7683
▁하셔야	-11.7686
하게하	-11.7688
▁끝이보	-11.7695
▁참아야겠	-11.7705
▁까먹지	-11.7707
중심	-11.7711
▁클럽가	-11.7719
▁말려	-11.7726
▁타로	-11.7745
▁대상이	-11.7752
▁부르는	-11.776
만이라	-11.7763
▁사람이네	-11.777
▁받아들여야할	-11.7771
▁정리하려	-11.7776
▁잊어가	-11.7781
들지만	-11.7784
▁낸다	-11.7797
▁수면	-11.7799
▁부담스러워해	-11.7802
나네	-11.7804
▁많을까	-11.7805
월해	-11.7814
▁없었겠	-11.7829
▁한마디	-11.7837
▁맞은	-11.7842
잘못으로	-11.7843
들음	-11.7847
▁찰랑	-11.7865
맞는데	-11.7869
▁단톡방에	-11.7871
▁시켰	-11.7871
▁밑	-11.7877
▁푸석	-11.788
▁썩	-11.7881
▁툭	-11.7881
▁부모	-11.7882
▁꼈어	-11.7887
▁치킨	-11.7888
▁불쌍	-11.7888
▁주절	-11.789
▁잊어보려	-11.7894
▁홀	-11.7895
▁당했습니다	-11.7897
▁모양	-11.79
▁근질	-11.7906
보고싶	-11.7908
▁잊어야해	-11.7913
▁감수	-11.792
▁낀	-11.7923
▁잘된	-11.7926
▁살인	-11.7949
▁제길	-11.7957
▁한편	-11.7961
▁올라오	-11.7962
▁운명같	-11.7969
▁사이트	-11.797
▁구질	-11.7972
▁남긴	-11.7974
▁전부였	-11.7983
▁좋아하면서	-11.7998
▁잠들	-11.8005
거였네	-11.8006
▁둬	-11.8009
▁출	-11.8017
동을	-11.8021
관계인가	-11.8031
▁여자야	-11.8035
▁상처에	-11.8035
▁보드	-11.8037
별이에요	-11.8041
▁미쳤	-11.807
▁신기	-11.807
▁자만	-11.8071
▁마셨어	-11.8074
▁단계라	-11.8085
었다는	-11.8085
▁짜증나게	-11.8089
▁남을까	-11.8091
▁선물할	-11.8095
싶어지네	-11.8112
했잖아	-11.8116
▁혼자있	-11.8127
▁투자하는	-11.8139
오는데	-11.8142
오려나	-11.8142
▁포기하려	-11.8146
▁잊혀지네	-11.8149
▁먼저하는	-11.815
▁헤어진다	-11.8159
▁바람이	-11.8168
▁일이었	-11.8174
▁진지한	-11.8175
▁운동하자	-11.8176
이러니	-11.8183
▁안해야	-11.8187
구가	-11.8194
▁막혔	-11.8199
▁단순하	-11.8211
▁기억안	-11.8223
대하면	-11.8228
▁후회되	-11.823
▁별이	-11.8255
▁이별했어	-11.8258
▁연락해보	-11.8265
점이	-11.8282
▁만날수	-11.8283
네ᅮ	-11.8285
데이	-11.8285
▁잠겼	-11.8291
▁답답하	-11.8294
▁때문일까	-11.8298
▁혼자라는	-11.8307
▁슬퍼하	-11.8314
▁가라	-11.8328
▁내릴	-11.8333
▁쓰다	-11.836
아볼	-11.8364
▁짝사랑하	-11.8365
▁잊어야겠	-11.837
▁지쳐가	-11.8392
▁좋아보여	-11.8414
▁생각하세	-11.8423
떠나려	-11.8425
▁척도	-11.8434
▁내편	-11.8437
로라	-11.8448
▁관심있는	-11.8452
▁할래	-11.8461
보고싶어	-11.8462
▁못하네	-11.8465
▁생겼다는	-11.8474
▁울적하	-11.8476
▁잘못했다는	-11.8542
편이	-11.8553
맘이	-11.8556
▁가수	-11.856
▁못잊는거	-11.8561
▁순간에	-11.8568
▁과식했	-11.8592
▁사랑인	-11.8595
▁털어버	-11.8607
▁중이	-11.8617
근거	-11.8632
▁필요없	-11.8632
▁소개해	-11.8633
▁후련할거	-11.8634
▁줘야	-11.8635
▁보고싶어요	-11.8636
▁피곤하겠	-11.8649
꺼야	-11.8657
▁않음	-11.8669
▁술마시면	-11.8678
들이지	-11.8698
지려고	-11.8703
못된	-11.8725
성이	-11.8753
▁운명인	-11.8765
▁투자라	-11.8788
▁이별하려	-11.8802
본지	-11.8803
▁조심해야겠	-11.8813
▁피곤할	-11.8837
상대로	-11.8841
▁했네	-11.8851
▁프사가	-11.8879
▁지우려	-11.8879
▁그사람은	-11.8889
다더니	-11.8897
▁일일	-11.8918
▁따듯해	-11.8932
▁잘자	-11.896
▁알아버렸	-11.8985
남보다	-11.8986
▁절친이	-11.8991
▁행동을	-11.8999
▁병	-11.9005
드나	-11.902
▁미치네	-11.9027
▁가득한가	-11.9072
▁줄이고	-11.9089
▁아들	-11.9089
▁저장할	-11.9091
났었지	-11.9112
▁잠수이별인	-11.9118
▁간에	-11.913
▁놓으려	-11.9135
▁놓았	-11.9137
▁보름달이	-11.9154
해줄까	-11.9159
▁리액션	-11.9159
▁답답한가	-11.9187
▁붙였	-11.9195
긴했는데	-11.9215
▁다른일	-11.9228
▁싶어서	-11.9233
해드리	-11.9244
▁불행해	-11.9267
▁지켜야	-11.9286
▁표현하	-11.9299
▁매달렸	-11.9308
기간	-11.9314
▁군대가	-11.932
▁밤이네	-11.9333
▁나을가	-11.9358
주라	-11.937
▁망설여지	-11.9396
다는걸	-11.9402
▁그리워지	-11.9463
줄래	-11.9501
▁여행가는	-11.9505
주신	-11.9525
애니	-11.9573
▁나빠졌	-11.958
▁공시생이	-11.9625
▁철벽치	-11.9632
▁차렸을	-11.966
▁못하니	-11.968
울렸	-11.9711
▁돌아왔	-11.9713
보러가	-11.975
시간동안	-11.9752
▁당황스러	-11.9758
▁남이	-11.9778
▁헤어진건	-11.9778
▁했더	-11.979
▁아니었나봐	-11.98
▁화냈	-11.9814
낸	-11.9837
▁확	-11.9854
▁반이라	-11.9855
여행이	-11.9869
▁떠나요	-11.9906
▁신청했	-11.9919
▁중요하겠지	-11.9922
▁힘들일이	-11.9941
▁함께하	-11.9968
▁싱숭생숭하	-11.9972
네ᄒ	-11.9973
와주	-11.9982
▁잼	-11.9984
▁달래	-11.999
올라	-12.0018
▁개같	-12.006
▁평가해	-12.0066
한건지	-12.0081
려지	-12.0093
▁재밌겠	-12.0099
▁하는거	-12.0101
▁살았다	-12.0102
▁타나봐	-12.0104
연애인데	-12.0105
에나와	-12.0117
거래	-12.0145
▁두려운가	-12.0147
▁더럽	-12.018
떠세요	-12.0207
▁축	-12.0235
여친	-12.0242
▁응	-12.0273
▁말들	-12.0288
났는	-12.0331
▁끝내려	-12.0334
▁빙	-12.0345
▁촬영	-12.0377
▁방향	-12.038
▁키스	-12.0402
▁연애상담	-12.0403
▁못하는거	-12.0415
▁주차	-12.0416
▁아쉽지	-12.0426
▁안해서	-12.0439
▁살랑	-12.0478
었을까	-12.048
▁쟁	-12.0488
▁건네	-12.0492
▁세포	-12.0519
▁얼마전	-12.053
▁추억을	-12.0549
져야	-12.0571
▁지내자	-12.059
▁복잡하네	-12.0613
▁어떤건	-12.0657
▁꿈이라	-12.0662
▁차단한	-12.0693
▁그만하	-12.0706
기면	-12.0758
▁지금이	-12.076
▁그러려	-12.081
▁되었어	-12.0815
▁구별	-12.0845
식이	-12.0863
인거죠	-12.0868
▁연애상담해	-12.0877
▁헤어지겠	-12.0879
갔는	-12.0885
▁만들어주	-12.0907
▁거절인	-12.0917
▁답답했	-12.0929
부네	-12.093
▁밥도	-12.0932
만나다	-12.0967
▁돌아가면	-12.0979
▁차별받	-12.1104
할지	-12.1105
▁잊었는	-12.1109
▁취업하	-12.1134
▁기억하	-12.1148
아들	-12.1168
▁휴지	-12.1169
▁힘드신	-12.1172
▁끝나가	-12.1191
▁힘들기	-12.1192
▁낫네	-12.1207
▁싸움이	-12.1213
고픈	-12.1234
ᄒ	-12.1249
▁터지겠	-12.1277
▁먹어보	-12.1288
하러가	-12.1304
▁칭찬해	-12.1306
▁해봐야	-12.1342
사람들	-12.135
▁필요해보	-12.1352
▁되버렸	-12.1394
▁상하	-12.1412
▁비워보	-12.1424
갈까	-12.1479
▁준비해야	-12.1502
▁아니였	-12.1507
▁찍었	-12.1547
상했	-12.1556
잊고싶	-12.1565
▁생각나기	-12.1575
▁잔소리	-12.1575
해보시는	-12.1602
▁진정하	-12.1615
▁산책하	-12.1624
▁떨리네	-12.1632
▁철벽치는	-12.165
▁서운하겠	-12.1675
척이	-12.168
▁감성적	-12.1728
▁못하겠네	-12.1736
▁사랑하는건	-12.1745
▁존재하	-12.1749
▁줬다	-12.1772
▁끈	-12.1786
사람과	-12.1788
▁있으신	-12.1794
▁잘되	-12.1804
기예	-12.1823
만하는	-12.1836
했다는	-12.1853
▁역	-12.1876
▁극	-12.1885
▁써보	-12.1889
▁연애중인	-12.1903
▁아쉽겠	-12.1912
하고싶은	-12.1937
▁풀어보	-12.1949
▁후련하다	-12.1962
▁깨졌는	-12.1964
중한	-12.1973
▁망설여지는	-12.1983
해야하는	-12.1985
▁몰랐네	-12.1986
해주세	-12.2044
느	-12.2094
춘	-12.2603
핑	-12.2636
꾹	-12.2821
깜	-12.2868
쥐	-12.2877
잇	-12.2895
똥	-12.2895
밀	-12.3113
틀	-12.3504
흘	-12.3661
둬	-12.3967
쓰	-12.3972
빠	-12.4018
낀	-12.4171
왔	-12.4191
잡	-12.4196
경	-12.4205
홀	-12.422
펴	-12.4244
썩	-12.4246
툭	-12.4246
밑	-12.4253
켜	-12.4271
았	-12.4323
굴	-12.4346
왜	-12.4394
났	-12.4442
벽	-12.4514
쭉	-12.4517
털	-12.4536
활	-12.4555
듣	-12.4563
즐	-12.4564
밤	-12.4594
짜	-12.461
덕	-12.4611
칼	-12.4622
술	-12.4626
윗	-12.4629
떼	-12.4629
쫄	-12.4629
농	-12.4633
냉	-12.4635
효	-12.4651
교	-12.4669
꼬	-12.4673
낳	-12.469
밟	-12.469
찼	-12.469
놀	-12.4696
귀	-12.4702
탔	-12.4709
막	-12.4718
뜻	-12.4734
누	-12.4735
얼	-12.4756
덜	-12.4763
베	-12.4763
꼭	-12.4769
쓴	-12.4784
숨	-12.479
9	-12.4795
넌	-12.4802
몇	-12.4806
손	-12.4806
등	-12.4808
잠	-12.4811
곧	-12.4815
8	-12.4816
깊	-12.4817
쐬	-12.4819
봄	-12.4819
졸	-12.4823
떠	-12.4839
떨	-12.4874
잊	-12.4902
좋	-12.5004
찾	-12.5312
쳤	-12.5672
큼	-12.6401
랐	-12.6439
람	-12.659
긋	-12.6678
립	-12.6698
혹	-12.6701
련	-12.6709
벼	-12.6709
딛	-12.6711
맙	-12.6711
꼈	-12.6714
혔	-12.6716
렀	-12.6718
겹	-12.6718
듭	-12.6719
쁠	-12.6719
빴	-12.6722
뜰	-12.6723
봇	-12.6724
깝	-12.6724
황	-12.6725
닿	-12.6725
욜	-12.6725
톱	-12.6725
섭	-12.6726
컥	-12.6727
낭	-12.6727
쩔	-12.6727
턴	-12.6727
콤	-12.6728
램	-12.6728
졋	-12.6728
몽	-12.6728
댄	-12.6728
칭	-12.6728
익	-12.6728
딜	-12.6729
긍	-12.6729
냄	-12.6729
묵	-12.6729
률	-12.6729
딘	-12.6729
쎄	-12.6729
첩	-12.6729
춤	-12.6729
콘	-12.6729
퓨	-12.6729
쪘	-14.0245
짬	-14.0246
옮	-14.0247
얇	-14.0248
씰	-14.0249
썰	-14.025
숏	-14.0251
섣	-14.0252
섞	-14.0253
샐	-14.0254
뽕	-14.0255
뺏	-14.0256
볕	-14.0257
륜	-14.0258
띵	-14.0259
덮	-14.026
댔	-14.0261
논	-14.0262
꼴	-14.0263
깼	-14.0264
깬	-14.0265
겜	-14.0266
o	-14.0267
g	-14.0268
홧	-14.0269
홈	-14.027
헹	-14.0271
헐	-14.0272
텅	-14.0273
텀	-14.0274
턱	-14.0275
쿵	-14.0276
캬	-14.0277
측	-14.0278
옛	-14.0279
엿	-14.028
엊	-14.0281
앱	-14.0282
씸	-14.0283
숫	-14.0284
섰	-14.0285
묘	-14.0286
몬	-14.0287
렐	-14.0288
랙	-14.0289
랖	-14.029
뜬	-14.0291
떴	-14.0292
눌	-14.0293
꿰	-14.0294
꽝	-14.0295
꽉	-14.0296
깰	-14.0297
괘	-14.0298
겉	-14.0299
갱	-14.03
핫	-14.0301
텁	-14.0302
컸	-14.0303
촬	-14.0304
총	-14.0305
짰	-14.0306
좌	-14.0307
젊	-14.0308
얽	-14.0309
밉	-14.031
몫	-14.0311
멘	-14.0312
맺	-14.0313
맴	-14.0314
릇	-14.0315
뚫	-14.0316
눕	-14.0317
넷	-14.0318
꼰	-14.0319
겪	-14.032
C	-14.0321
훔	-14.0322
헌	-14.0323
폼	-14.0324
팠	-14.0325
팀	-14.0326
탓	-14.0327
퀴	-14.0328
켰	-14.0329
왠	-14.033
엮	-14.0331
씌	-14.0332
쏠	-14.0333
쏟	-14.0334
삐	-14.0335
쁨	-14.0336
빚	-14.0337
렜	-14.0338
렛	-14.0339
뇌	-14.034
갠	-14.0341
흑	-14.0342
헥	-14.0343
틋	-14.0344
툼	-14.0345
찜	-14.0346
젯	-14.0347
옳	-14.0348
썹	-14.0349
쌍	-14.035
슈	-14.0351
볍	-14.0352
묻	-14.0353
롤	-14.0354
둠	-14.0355
돋	-14.0356
늠	-14.0357
낚	-14.0358
광	-14.0359
곱	-14.036
휘	-14.0361
툴	-14.0362
쿨	-14.0363
켠	-14.0364
쪼	-14.0365
웹	-14.0366
쌩	-14.0367
싼	-14.0368
쉴	-14.0369
릎	-14.037
끓	-14.0371
굳	-14.0372
객	-14.0373
훈	-14.0374
징	-14.0375
젖	-14.0376
웬	-14.0377
얻	-14.0378
씁	-14.0379
섬	-14.038
뽀	-14.0381
맡	-14.0382
뢰	-14.0383
렬	-14.0384
땡	-14.0385
늙	-14.0386
낙	-14.0387
낄	-14.0388
A	-14.0389
짱	-14.039
띄	-14.0391
땀	-14.0392
딪	-14.0393
닮	-14.0394
넓	-14.0395
찔	-14.0396
앉	-14.0397
샤	-14.0398
벚	-14.0399
뤄	-14.04
녹	-14.0401
헬	-14.0402
컴	-14.0403
잃	-14.0404
옥	-14.0405
빡	-14.0406
렘	-14.0407
랫	-14.0408
검	-14.0409
n	-14.041
씻	-14.0411
뽑	-14.0412
밝	-14.0413
뛰	-14.0414
딴	-14.0415
넣	-14.0416
낮	-14.0417
깎	-14.0418
규	-14.0419
곁	-14.042
걔	-14.0421
푹	-14.0422
춥	-14.0423
씹	-14.0424
닫	-14.0425
꼼	-14.0426
갚	-14.0427
컨	-14.0428
썼	-14.0429
슷	-14.043
렌	-14.0431
뉴	-14.0432
잤	-14.0433
웨	-14.0434
뒷	-14.0435
뀔	-14.0436
귈	-14.0437
딸	-14.0438
녁	-14.0439
뀌	-14.044
깔	-14.0441
깍	-14.0442
N	-14.0443
7	-14.0444
획	-14.0445
텨	-14.0446
셀	-14.0447
됩	-14.0448
눠	-14.0449
엽	-14.045
샀	-14.0451
삭	-14.0452
브	-14.0453
걷	-14.0454
쌓	-14.0455
멈	-14.0456
권	-14.0457
희	-14.0458
싱	-14.0459
삼	-14.046
밍	-14.0461
틱	-14.0462
북	-14.0463
꿔	-14.0464
헛	-14.0465
옆	-14.0466
쇼	-14.0467
끄	-14.0468
탁	-14.0469
벗	-14.047
멍	-14.0471
헷	-14.0472
잖	-14.0473
읽	-14.0474
숭	-14.0475
높	-14.0476
낫	-14.0477
삶	-14.0478
뎌	-14.0479
멀	-14.048
득	-14.0481
렵	-14.0482
녕	-14.0483
빌	-14.0484
흐	-14.0485
엇	-14.0486
승	-14.0487
흔	-14.0488
괴	-14.0489
퇴	-14.049
짧	-14.0491
밌	-14.0492
덤	-14.0493
끊	-14.0494
랜	-14.0495
픔	-14.0496
핸	-14.0497
꽃	-14.0498
똑	-14.0499
풍	-14.05
슴	-14.0501
뻐	-14.0502
씀	-14.0503
뭔	-14.0504
닐	-14.0505
0	-14.0506
맨	-14.0507
평	-14.0508
풀	-14.0509
첫	-14.051
챙	-14.0511
죽	-14.0512
험	-14.0513
존	-14.0514
격	-14.0515
최	-14.0516
쁘	-14.0517
럼	-14.0518
엄	-14.0519
뭘	-14.052
슨	-14.0521
떤	-14.0522
앞	-14.0523
쉽	-14.0524
겼	-14.0525
택	-14.0526
걱	-14.0527
믿	-14.0528
닌	-14.0529
접	-14.053
랄	-14.0531
봅	-14.0532
몰	-14.0533
럴	-14.0534
억	-14.0535
싫	-14.0536
변	-14.0537
맞	-14.0538
렇	-14.0539
떻	-14.054
졌	-14.0541
편	-14.0542
괜	-14.0543
찮	-14.0544
뭐	-14.0545
받	-14.0546
습	-14.0547
혼	-14.0548
썸	-14.0549
않	-14.055
많	-14.0551
힘	-14.0552
싶	-14.0553
없	-14.0554
같	-14.0555
